/*
  C-file generated by Bin2C
  Compiled:    Jul  6 2023 at 15:02:11

  Copyright (C) 2018
  Segger Microcontroller GmbH
  www.segger.com

  The Embedded Experts
*/
#include <model.h>

alignas(8) const unsigned char g_model[45032UL + 1] = {
  0x20, 0x00, 0x00, 0x00, 0x54, 0x46, 0x4C, 0x33, 0x00, 0x00, 0x00, 0x00, 0x14, 0x00, 0x20, 0x00, 0x1C, 0x00, 0x18, 0x00, 0x14, 0x00, 0x10, 0x00, 0x0C, 0x00, 0x00, 0x00, 0x08, 0x00, 0x04, 0x00, 0x14, 0x00, 0x00, 0x00, 0x1C, 0x00, 0x00, 0x00,
  0xAC, 0x00, 0x00, 0x00, 0xFC, 0x00, 0x00, 0x00, 0x28, 0x30, 0x00, 0x00, 0x38, 0x30, 0x00, 0x00, 0x6C, 0xAE, 0x00, 0x00, 0x03, 0x00, 0x00, 0x00, 0x01, 0x00, 0x00, 0x00, 0x04, 0x00, 0x00, 0x00, 0x4E, 0xB8, 0xFF, 0xFF, 0x0C, 0x00, 0x00, 0x00,
  0x1C, 0x00, 0x00, 0x00, 0x64, 0x00, 0x00, 0x00, 0x0F, 0x00, 0x00, 0x00, 0x73, 0x65, 0x72, 0x76, 0x69, 0x6E, 0x67, 0x5F, 0x64, 0x65, 0x66, 0x61, 0x75, 0x6C, 0x74, 0x00, 0x02, 0x00, 0x00, 0x00, 0x28, 0x00, 0x00, 0x00, 0x04, 0x00, 0x00, 0x00,
  0x1C, 0xBA, 0xFF, 0xFF, 0xB0, 0x00, 0x00, 0x00, 0x04, 0x00, 0x00, 0x00, 0x0F, 0x00, 0x00, 0x00, 0x69, 0x6E, 0x69, 0x74, 0x69, 0x61, 0x6C, 0x5F, 0x63, 0x6F, 0x6E, 0x74, 0x61, 0x63, 0x74, 0x00, 0x3C, 0xBA, 0xFF, 0xFF, 0xAC, 0x00, 0x00, 0x00,
  0x04, 0x00, 0x00, 0x00, 0x0D, 0x00, 0x00, 0x00, 0x66, 0x69, 0x6E, 0x61, 0x6C, 0x5F, 0x63, 0x6F, 0x6E, 0x74, 0x61, 0x63, 0x74, 0x00, 0x00, 0x00, 0x01, 0x00, 0x00, 0x00, 0x04, 0x00, 0x00, 0x00, 0x5A, 0xB5, 0xFF, 0xFF, 0x04, 0x00, 0x00, 0x00,
  0x06, 0x00, 0x00, 0x00, 0x69, 0x6E, 0x70, 0x75, 0x74, 0x73, 0x00, 0x00, 0x02, 0x00, 0x00, 0x00, 0x2C, 0x00, 0x00, 0x00, 0x04, 0x00, 0x00, 0x00, 0x84, 0xBA, 0xFF, 0xFF, 0xB3, 0x00, 0x00, 0x00, 0x04, 0x00, 0x00, 0x00, 0x13, 0x00, 0x00, 0x00,
  0x43, 0x4F, 0x4E, 0x56, 0x45, 0x52, 0x53, 0x49, 0x4F, 0x4E, 0x5F, 0x4D, 0x45, 0x54, 0x41, 0x44, 0x41, 0x54, 0x41, 0x00, 0xA8, 0xBA, 0xFF, 0xFF, 0xB2, 0x00, 0x00, 0x00, 0x04, 0x00, 0x00, 0x00, 0x13, 0x00, 0x00, 0x00, 0x6D, 0x69, 0x6E, 0x5F,
  0x72, 0x75, 0x6E, 0x74, 0x69, 0x6D, 0x65, 0x5F, 0x76, 0x65, 0x72, 0x73, 0x69, 0x6F, 0x6E, 0x00, 0xB4, 0x00, 0x00, 0x00, 0x28, 0x2F, 0x00, 0x00, 0x20, 0x2F, 0x00, 0x00, 0xD0, 0x2E, 0x00, 0x00, 0x80, 0x2E, 0x00, 0x00, 0x68, 0x2E, 0x00, 0x00,
  0x54, 0x2E, 0x00, 0x00, 0x40, 0x2E, 0x00, 0x00, 0x2C, 0x2E, 0x00, 0x00, 0x24, 0x2E, 0x00, 0x00, 0x10, 0x2E, 0x00, 0x00, 0xFC, 0x2D, 0x00, 0x00, 0xF4, 0x2D, 0x00, 0x00, 0xE0, 0x2D, 0x00, 0x00, 0xCC, 0x2D, 0x00, 0x00, 0xB8, 0x2D, 0x00, 0x00,
  0x68, 0x2D, 0x00, 0x00, 0x18, 0x2D, 0x00, 0x00, 0xC8, 0x2C, 0x00, 0x00, 0x78, 0x2C, 0x00, 0x00, 0x28, 0x2C, 0x00, 0x00, 0xD8, 0x2B, 0x00, 0x00, 0x88, 0x2B, 0x00, 0x00, 0x38, 0x2B, 0x00, 0x00, 0xE8, 0x2A, 0x00, 0x00, 0x98, 0x2A, 0x00, 0x00,
  0x48, 0x2A, 0x00, 0x00, 0xF8, 0x29, 0x00, 0x00, 0xA8, 0x29, 0x00, 0x00, 0x58, 0x29, 0x00, 0x00, 0x08, 0x29, 0x00, 0x00, 0xB8, 0x28, 0x00, 0x00, 0x68, 0x28, 0x00, 0x00, 0x18, 0x28, 0x00, 0x00, 0xC8, 0x27, 0x00, 0x00, 0xB0, 0x27, 0x00, 0x00,
  0x98, 0x27, 0x00, 0x00, 0x80, 0x27, 0x00, 0x00, 0xF0, 0x25, 0x00, 0x00, 0xE8, 0x25, 0x00, 0x00, 0xD4, 0x25, 0x00, 0x00, 0x84, 0x25, 0x00, 0x00, 0xF4, 0x1D, 0x00, 0x00, 0xE4, 0x18, 0x00, 0x00, 0xD4, 0x13, 0x00, 0x00, 0xC4, 0x0E, 0x00, 0x00,
  0xB4, 0x09, 0x00, 0x00, 0xA4, 0x04, 0x00, 0x00, 0x9C, 0x04, 0x00, 0x00, 0x94, 0x04, 0x00, 0x00, 0x8C, 0x04, 0x00, 0x00, 0x84, 0x04, 0x00, 0x00, 0x7C, 0x04, 0x00, 0x00, 0x74, 0x04, 0x00, 0x00, 0x6C, 0x04, 0x00, 0x00, 0x64, 0x04, 0x00, 0x00,
  0x5C, 0x04, 0x00, 0x00, 0x54, 0x04, 0x00, 0x00, 0x4C, 0x04, 0x00, 0x00, 0x44, 0x04, 0x00, 0x00, 0x3C, 0x04, 0x00, 0x00, 0x34, 0x04, 0x00, 0x00, 0x2C, 0x04, 0x00, 0x00, 0x24, 0x04, 0x00, 0x00, 0x1C, 0x04, 0x00, 0x00, 0x14, 0x04, 0x00, 0x00,
  0x0C, 0x04, 0x00, 0x00, 0x04, 0x04, 0x00, 0x00, 0xFC, 0x03, 0x00, 0x00, 0xF4, 0x03, 0x00, 0x00, 0xEC, 0x03, 0x00, 0x00, 0xE4, 0x03, 0x00, 0x00, 0xDC, 0x03, 0x00, 0x00, 0xD4, 0x03, 0x00, 0x00, 0xCC, 0x03, 0x00, 0x00, 0xC4, 0x03, 0x00, 0x00,
  0xBC, 0x03, 0x00, 0x00, 0xB4, 0x03, 0x00, 0x00, 0xAC, 0x03, 0x00, 0x00, 0xA4, 0x03, 0x00, 0x00, 0x9C, 0x03, 0x00, 0x00, 0x94, 0x03, 0x00, 0x00, 0x8C, 0x03, 0x00, 0x00, 0x84, 0x03, 0x00, 0x00, 0x7C, 0x03, 0x00, 0x00, 0x74, 0x03, 0x00, 0x00,
  0x6C, 0x03, 0x00, 0x00, 0x64, 0x03, 0x00, 0x00, 0x5C, 0x03, 0x00, 0x00, 0x54, 0x03, 0x00, 0x00, 0x4C, 0x03, 0x00, 0x00, 0x44, 0x03, 0x00, 0x00, 0x3C, 0x03, 0x00, 0x00, 0x34, 0x03, 0x00, 0x00, 0x2C, 0x03, 0x00, 0x00, 0x24, 0x03, 0x00, 0x00,
  0x1C, 0x03, 0x00, 0x00, 0x14, 0x03, 0x00, 0x00, 0x0C, 0x03, 0x00, 0x00, 0x04, 0x03, 0x00, 0x00, 0xFC, 0x02, 0x00, 0x00, 0xF4, 0x02, 0x00, 0x00, 0xEC, 0x02, 0x00, 0x00, 0xE4, 0x02, 0x00, 0x00, 0xDC, 0x02, 0x00, 0x00, 0xD4, 0x02, 0x00, 0x00,
  0xCC, 0x02, 0x00, 0x00, 0xC4, 0x02, 0x00, 0x00, 0xBC, 0x02, 0x00, 0x00, 0xB4, 0x02, 0x00, 0x00, 0xAC, 0x02, 0x00, 0x00, 0xA4, 0x02, 0x00, 0x00, 0x9C, 0x02, 0x00, 0x00, 0x94, 0x02, 0x00, 0x00, 0x8C, 0x02, 0x00, 0x00, 0x84, 0x02, 0x00, 0x00,
  0x7C, 0x02, 0x00, 0x00, 0x74, 0x02, 0x00, 0x00, 0x6C, 0x02, 0x00, 0x00, 0x64, 0x02, 0x00, 0x00, 0x5C, 0x02, 0x00, 0x00, 0x54, 0x02, 0x00, 0x00, 0x4C, 0x02, 0x00, 0x00, 0x44, 0x02, 0x00, 0x00, 0x3C, 0x02, 0x00, 0x00, 0x34, 0x02, 0x00, 0x00,
  0x2C, 0x02, 0x00, 0x00, 0x24, 0x02, 0x00, 0x00, 0x1C, 0x02, 0x00, 0x00, 0x14, 0x02, 0x00, 0x00, 0x0C, 0x02, 0x00, 0x00, 0x04, 0x02, 0x00, 0x00, 0xFC, 0x01, 0x00, 0x00, 0xF4, 0x01, 0x00, 0x00, 0xEC, 0x01, 0x00, 0x00, 0xE4, 0x01, 0x00, 0x00,
  0xDC, 0x01, 0x00, 0x00, 0xD4, 0x01, 0x00, 0x00, 0xCC, 0x01, 0x00, 0x00, 0xC4, 0x01, 0x00, 0x00, 0xBC, 0x01, 0x00, 0x00, 0xB4, 0x01, 0x00, 0x00, 0xAC, 0x01, 0x00, 0x00, 0xA4, 0x01, 0x00, 0x00, 0x9C, 0x01, 0x00, 0x00, 0x94, 0x01, 0x00, 0x00,
  0x8C, 0x01, 0x00, 0x00, 0x84, 0x01, 0x00, 0x00, 0x7C, 0x01, 0x00, 0x00, 0x74, 0x01, 0x00, 0x00, 0x6C, 0x01, 0x00, 0x00, 0x64, 0x01, 0x00, 0x00, 0x5C, 0x01, 0x00, 0x00, 0x54, 0x01, 0x00, 0x00, 0x4C, 0x01, 0x00, 0x00, 0x44, 0x01, 0x00, 0x00,
  0x3C, 0x01, 0x00, 0x00, 0x34, 0x01, 0x00, 0x00, 0x2C, 0x01, 0x00, 0x00, 0x24, 0x01, 0x00, 0x00, 0x1C, 0x01, 0x00, 0x00, 0x14, 0x01, 0x00, 0x00, 0x0C, 0x01, 0x00, 0x00, 0x04, 0x01, 0x00, 0x00, 0xFC, 0x00, 0x00, 0x00, 0xF4, 0x00, 0x00, 0x00,
  0xEC, 0x00, 0x00, 0x00, 0xE4, 0x00, 0x00, 0x00, 0xDC, 0x00, 0x00, 0x00, 0xD4, 0x00, 0x00, 0x00, 0xCC, 0x00, 0x00, 0x00, 0xC4, 0x00, 0x00, 0x00, 0xBC, 0x00, 0x00, 0x00, 0xB4, 0x00, 0x00, 0x00, 0xAC, 0x00, 0x00, 0x00, 0xA4, 0x00, 0x00, 0x00,
  0x9C, 0x00, 0x00, 0x00, 0x94, 0x00, 0x00, 0x00, 0x8C, 0x00, 0x00, 0x00, 0x6C, 0x00, 0x00, 0x00, 0x04, 0x00, 0x00, 0x00, 0x96, 0xB8, 0xFF, 0xFF, 0x04, 0x00, 0x00, 0x00, 0x58, 0x00, 0x00, 0x00, 0x0C, 0x00, 0x00, 0x00, 0x08, 0x00, 0x0E, 0x00,
  0x08, 0x00, 0x04, 0x00, 0x08, 0x00, 0x00, 0x00, 0x10, 0x00, 0x00, 0x00, 0x28, 0x00, 0x00, 0x00, 0x00, 0x00, 0x06, 0x00, 0x08, 0x00, 0x04, 0x00, 0x06, 0x00, 0x00, 0x00, 0x04, 0x00, 0x00, 0x00, 0x01, 0x00, 0x00, 0x00, 0xEA, 0x03, 0x00, 0x00,
  0x00, 0x00, 0x0A, 0x00, 0x10, 0x00, 0x0C, 0x00, 0x08, 0x00, 0x04, 0x00, 0x0A, 0x00, 0x00, 0x00, 0x02, 0x00, 0x00, 0x00, 0x02, 0x00, 0x00, 0x00, 0x04, 0x00, 0x00, 0x00, 0x06, 0x00, 0x00, 0x00, 0x32, 0x2E, 0x31, 0x34, 0x2E, 0x30, 0x00, 0x00,
  0xFA, 0xB8, 0xFF, 0xFF, 0x04, 0x00, 0x00, 0x00, 0x10, 0x00, 0x00, 0x00, 0x32, 0x2E, 0x34, 0x2E, 0x30, 0x00, 0x00, 0x00, 0x00, 0x00, 0x00, 0x00, 0x00, 0x00, 0x00, 0x00, 0xDC, 0x54, 0xFF, 0xFF, 0xE0, 0x54, 0xFF, 0xFF, 0xE4, 0x54, 0xFF, 0xFF,
  0xE8, 0x54, 0xFF, 0xFF, 0xEC, 0x54, 0xFF, 0xFF, 0xF0, 0x54, 0xFF, 0xFF, 0xF4, 0x54, 0xFF, 0xFF, 0xF8, 0x54, 0xFF, 0xFF, 0xFC, 0x54, 0xFF, 0xFF, 0x00, 0x55, 0xFF, 0xFF, 0x04, 0x55, 0xFF, 0xFF, 0x08, 0x55, 0xFF, 0xFF, 0x0C, 0x55, 0xFF, 0xFF,
  0x10, 0x55, 0xFF, 0xFF, 0x14, 0x55, 0xFF, 0xFF, 0x18, 0x55, 0xFF, 0xFF, 0x1C, 0x55, 0xFF, 0xFF, 0x20, 0x55, 0xFF, 0xFF, 0x24, 0x55, 0xFF, 0xFF, 0x28, 0x55, 0xFF, 0xFF, 0x2C, 0x55, 0xFF, 0xFF, 0x30, 0x55, 0xFF, 0xFF, 0x34, 0x55, 0xFF, 0xFF,
  0x38, 0x55, 0xFF, 0xFF, 0x3C, 0x55, 0xFF, 0xFF, 0x40, 0x55, 0xFF, 0xFF, 0x44, 0x55, 0xFF, 0xFF, 0x48, 0x55, 0xFF, 0xFF, 0x4C, 0x55, 0xFF, 0xFF, 0x50, 0x55, 0xFF, 0xFF, 0x54, 0x55, 0xFF, 0xFF, 0x58, 0x55, 0xFF, 0xFF, 0x5C, 0x55, 0xFF, 0xFF,
  0x60, 0x55, 0xFF, 0xFF, 0x64, 0x55, 0xFF, 0xFF, 0x68, 0x55, 0xFF, 0xFF, 0x6C, 0x55, 0xFF, 0xFF, 0x70, 0x55, 0xFF, 0xFF, 0x74, 0x55, 0xFF, 0xFF, 0x78, 0x55, 0xFF, 0xFF, 0x7C, 0x55, 0xFF, 0xFF, 0x80, 0x55, 0xFF, 0xFF, 0x84, 0x55, 0xFF, 0xFF,
  0x88, 0x55, 0xFF, 0xFF, 0x8C, 0x55, 0xFF, 0xFF, 0x90, 0x55, 0xFF, 0xFF, 0x94, 0x55, 0xFF, 0xFF, 0x98, 0x55, 0xFF, 0xFF, 0x9C, 0x55, 0xFF, 0xFF, 0xA0, 0x55, 0xFF, 0xFF, 0xA4, 0x55, 0xFF, 0xFF, 0xA8, 0x55, 0xFF, 0xFF, 0xAC, 0x55, 0xFF, 0xFF,
  0xB0, 0x55, 0xFF, 0xFF, 0xB4, 0x55, 0xFF, 0xFF, 0xB8, 0x55, 0xFF, 0xFF, 0xBC, 0x55, 0xFF, 0xFF, 0xC0, 0x55, 0xFF, 0xFF, 0xC4, 0x55, 0xFF, 0xFF, 0xC8, 0x55, 0xFF, 0xFF, 0xCC, 0x55, 0xFF, 0xFF, 0xD0, 0x55, 0xFF, 0xFF, 0xD4, 0x55, 0xFF, 0xFF,
  0xD8, 0x55, 0xFF, 0xFF, 0xDC, 0x55, 0xFF, 0xFF, 0xE0, 0x55, 0xFF, 0xFF, 0xE4, 0x55, 0xFF, 0xFF, 0xE8, 0x55, 0xFF, 0xFF, 0xEC, 0x55, 0xFF, 0xFF, 0xF0, 0x55, 0xFF, 0xFF, 0xF4, 0x55, 0xFF, 0xFF, 0xF8, 0x55, 0xFF, 0xFF, 0xFC, 0x55, 0xFF, 0xFF,
  0x00, 0x56, 0xFF, 0xFF, 0x04, 0x56, 0xFF, 0xFF, 0x08, 0x56, 0xFF, 0xFF, 0x0C, 0x56, 0xFF, 0xFF, 0x10, 0x56, 0xFF, 0xFF, 0x14, 0x56, 0xFF, 0xFF, 0x18, 0x56, 0xFF, 0xFF, 0x1C, 0x56, 0xFF, 0xFF, 0x20, 0x56, 0xFF, 0xFF, 0x24, 0x56, 0xFF, 0xFF,
  0x28, 0x56, 0xFF, 0xFF, 0x2C, 0x56, 0xFF, 0xFF, 0x30, 0x56, 0xFF, 0xFF, 0x34, 0x56, 0xFF, 0xFF, 0x38, 0x56, 0xFF, 0xFF, 0x3C, 0x56, 0xFF, 0xFF, 0x40, 0x56, 0xFF, 0xFF, 0x44, 0x56, 0xFF, 0xFF, 0x48, 0x56, 0xFF, 0xFF, 0x4C, 0x56, 0xFF, 0xFF,
  0x50, 0x56, 0xFF, 0xFF, 0x54, 0x56, 0xFF, 0xFF, 0x58, 0x56, 0xFF, 0xFF, 0x5C, 0x56, 0xFF, 0xFF, 0x60, 0x56, 0xFF, 0xFF, 0x64, 0x56, 0xFF, 0xFF, 0x68, 0x56, 0xFF, 0xFF, 0x6C, 0x56, 0xFF, 0xFF, 0x70, 0x56, 0xFF, 0xFF, 0x74, 0x56, 0xFF, 0xFF,
  0x78, 0x56, 0xFF, 0xFF, 0x7C, 0x56, 0xFF, 0xFF, 0x80, 0x56, 0xFF, 0xFF, 0x84, 0x56, 0xFF, 0xFF, 0x88, 0x56, 0xFF, 0xFF, 0x8C, 0x56, 0xFF, 0xFF, 0x90, 0x56, 0xFF, 0xFF, 0x94, 0x56, 0xFF, 0xFF, 0x98, 0x56, 0xFF, 0xFF, 0x9C, 0x56, 0xFF, 0xFF,
  0xA0, 0x56, 0xFF, 0xFF, 0xA4, 0x56, 0xFF, 0xFF, 0xA8, 0x56, 0xFF, 0xFF, 0xAC, 0x56, 0xFF, 0xFF, 0xB0, 0x56, 0xFF, 0xFF, 0xB4, 0x56, 0xFF, 0xFF, 0xB8, 0x56, 0xFF, 0xFF, 0xBC, 0x56, 0xFF, 0xFF, 0xC0, 0x56, 0xFF, 0xFF, 0xC4, 0x56, 0xFF, 0xFF,
  0xC8, 0x56, 0xFF, 0xFF, 0xCC, 0x56, 0xFF, 0xFF, 0xD0, 0x56, 0xFF, 0xFF, 0xD4, 0x56, 0xFF, 0xFF, 0xD8, 0x56, 0xFF, 0xFF, 0xDC, 0x56, 0xFF, 0xFF, 0xE0, 0x56, 0xFF, 0xFF, 0xE4, 0x56, 0xFF, 0xFF, 0x22, 0xBB, 0xFF, 0xFF, 0x04, 0x00, 0x00, 0x00,
  0x00, 0x05, 0x00, 0x00, 0x11, 0xD1, 0xE1, 0x15, 0xCE, 0x5A, 0x1F, 0x0F, 0x0A, 0xA7, 0xCA, 0x1F, 0x24, 0xDD, 0xEB, 0xD4, 0xF9, 0xFC, 0xF4, 0x32, 0x40, 0x3E, 0x1C, 0x36, 0x1D, 0xFE, 0xED, 0x2F, 0x0F, 0xFF, 0xF7, 0x10, 0x35, 0x16, 0x15, 0x15,
  0x1E, 0x7F, 0xD3, 0x24, 0x3D, 0x0D, 0x17, 0xD8, 0xF0, 0xD1, 0x36, 0xFF, 0xF6, 0xE6, 0x1B, 0x4C, 0x1F, 0x14, 0xDB, 0x35, 0x2B, 0xFC, 0xEE, 0xC2, 0xD6, 0xB5, 0xC9, 0x0D, 0xC8, 0x1D, 0xEC, 0x0F, 0x0D, 0x26, 0xF2, 0x01, 0xEE, 0xFF, 0x18, 0x23,
  0xFC, 0xD7, 0xC6, 0x11, 0x0B, 0xD4, 0x41, 0x5B, 0xD7, 0xE7, 0xD0, 0xEA, 0x0E, 0xD4, 0x04, 0xEC, 0xE4, 0x17, 0xF3, 0x1D, 0xC5, 0xF3, 0x9B, 0x24, 0xBF, 0xD3, 0xD9, 0xEA, 0x01, 0xE9, 0x1A, 0xDD, 0xFE, 0xFF, 0xFF, 0x35, 0xBE, 0xFE, 0x81, 0xC0,
  0x14, 0x58, 0x56, 0xB7, 0xAD, 0x19, 0x18, 0x2E, 0x1D, 0xF5, 0x64, 0x15, 0x2B, 0xB2, 0x06, 0xA6, 0x33, 0x3B, 0x6D, 0xAC, 0xEB, 0x81, 0xEC, 0x05, 0x30, 0x1E, 0x1E, 0xF2, 0x5F, 0x0E, 0x60, 0x30, 0x78, 0xD2, 0x3B, 0x01, 0xEC, 0xAF, 0x5A, 0xD3,
  0x47, 0x28, 0x07, 0x19, 0xAE, 0xC6, 0xED, 0xC5, 0x06, 0xF4, 0xD7, 0xCD, 0xBA, 0x1B, 0xF3, 0x3E, 0x61, 0xD0, 0x28, 0x3B, 0xBB, 0xDE, 0xE3, 0xAC, 0xBF, 0x02, 0xB7, 0x08, 0xE6, 0xFF, 0xB9, 0x60, 0xF9, 0x16, 0x61, 0x2E, 0x16, 0x4E, 0xAC, 0xD7,
  0xCF, 0xCD, 0xED, 0xD9, 0xF9, 0xE9, 0xA2, 0xF5, 0x0B, 0xAF, 0x0C, 0xF9, 0xF8, 0x3A, 0x12, 0xDD, 0xDA, 0x2A, 0xF6, 0x05, 0x37, 0x5D, 0x9E, 0x05, 0x1F, 0x05, 0x2B, 0x9F, 0x31, 0x5B, 0xDC, 0xFD, 0xED, 0x2D, 0xFB, 0x4A, 0x0F, 0x07, 0xDC, 0x95,
  0xE3, 0x81, 0x04, 0x09, 0xB8, 0xE9, 0xE5, 0xD7, 0x1E, 0x8F, 0xAF, 0x2F, 0x0D, 0x20, 0xED, 0xEB, 0xD8, 0x1A, 0x11, 0x4B, 0xEB, 0xDB, 0x26, 0xED, 0x2C, 0x21, 0x18, 0x53, 0xCA, 0x17, 0x06, 0x3F, 0xF1, 0x93, 0xE6, 0x3B, 0x28, 0xF0, 0x05, 0x03,
  0x0E, 0x21, 0xD2, 0x67, 0xFB, 0xBA, 0x05, 0x3D, 0x0D, 0xCE, 0xEE, 0x2F, 0xE5, 0x0A, 0x5E, 0x34, 0xCC, 0xCA, 0xF0, 0xE3, 0x3E, 0x19, 0xF4, 0x1F, 0x81, 0x0F, 0x08, 0x33, 0x1F, 0x34, 0xBE, 0xD0, 0xF0, 0x81, 0x1F, 0x6A, 0x99, 0xDE, 0x07, 0xF1,
  0xAE, 0x90, 0x59, 0x15, 0xE3, 0x15, 0xA6, 0x37, 0xF8, 0x30, 0x12, 0x3A, 0xE2, 0xCA, 0xE9, 0xE7, 0xEB, 0xBB, 0xAB, 0x39, 0x65, 0x1B, 0xD0, 0x14, 0xB8, 0xE0, 0xBA, 0x2A, 0x05, 0xF4, 0xF3, 0x12, 0xC0, 0xCD, 0xD7, 0x0B, 0xF5, 0xF6, 0xE7, 0x24,
  0xEF, 0x09, 0x1B, 0xF2, 0xE7, 0x0A, 0xE3, 0x2B, 0xE8, 0x55, 0xCC, 0xDE, 0x0C, 0x2A, 0x9E, 0x25, 0x2B, 0xE1, 0x3D, 0x13, 0xD2, 0xA4, 0x1F, 0xF2, 0xF5, 0x15, 0xE2, 0x7F, 0x44, 0x5D, 0x40, 0x76, 0x08, 0xD5, 0x22, 0xE2, 0x9E, 0xAD, 0xC9, 0x09,
  0x2B, 0x43, 0x02, 0x35, 0xA2, 0x2D, 0x17, 0x4B, 0xF5, 0xFD, 0x50, 0xD5, 0x0F, 0x1C, 0x1A, 0x00, 0x8D, 0x19, 0x3C, 0x24, 0xDE, 0x49, 0xBF, 0xDA, 0x54, 0x3B, 0xE2, 0x1C, 0xFB, 0xEE, 0xFD, 0x20, 0xA9, 0xB0, 0x3A, 0x27, 0x7F, 0xC3, 0x0B, 0x55,
  0xAC, 0xDF, 0xF0, 0x35, 0x5D, 0x32, 0x46, 0x00, 0x61, 0xAA, 0xD5, 0x0F, 0x02, 0xFE, 0xF5, 0x14, 0x15, 0x19, 0xC5, 0x09, 0x05, 0xF4, 0x27, 0x55, 0x55, 0x0E, 0xF4, 0x6B, 0x0C, 0xAC, 0xE6, 0x49, 0xF1, 0x38, 0xDF, 0xD4, 0x1C, 0xCB, 0xFC, 0xB9,
  0x04, 0xDE, 0xE5, 0xAF, 0x1A, 0x06, 0xF4, 0xF9, 0xFC, 0xF1, 0x04, 0x48, 0xFE, 0xF1, 0x3E, 0x7F, 0x2B, 0xF1, 0x0B, 0xCD, 0x1D, 0x45, 0x00, 0x35, 0x3B, 0xE3, 0xC4, 0xD8, 0xF4, 0xDB, 0xDE, 0x3A, 0xEB, 0x39, 0xA9, 0x1C, 0xFF, 0xF2, 0x34, 0x17,
  0x14, 0xB4, 0xB0, 0xE1, 0xDC, 0xE1, 0xF9, 0x37, 0x9C, 0xDA, 0x43, 0x2A, 0x45, 0xEF, 0x05, 0xBE, 0x13, 0x07, 0xBF, 0x4D, 0x00, 0x38, 0x3D, 0x12, 0x2B, 0x1F, 0xE7, 0x13, 0xCC, 0x09, 0xBB, 0xF2, 0x05, 0x1B, 0xCD, 0xCF, 0x5A, 0x0E, 0x5B, 0x00,
  0xF2, 0x50, 0xB7, 0xBA, 0xD1, 0x02, 0xB8, 0xE5, 0x99, 0xC4, 0xFB, 0x1F, 0xDB, 0xE6, 0x20, 0x3B, 0x52, 0x0E, 0x31, 0x01, 0xF2, 0x06, 0x8D, 0x3E, 0xDD, 0xE3, 0x36, 0xC1, 0xF8, 0xDB, 0xBC, 0x0D, 0x31, 0xC0, 0x11, 0xDC, 0xFD, 0x6C, 0xF9, 0xF5,
  0xD4, 0x10, 0x0D, 0x0D, 0x3F, 0x04, 0x08, 0x54, 0x77, 0x13, 0x4A, 0x46, 0x29, 0x1C, 0x0D, 0x6F, 0x43, 0xE5, 0xE6, 0xC3, 0x4A, 0x2E, 0x9A, 0x25, 0x09, 0x12, 0x2C, 0x05, 0x2F, 0xF9, 0x14, 0x7F, 0x0A, 0xAA, 0xCF, 0x18, 0xC5, 0x06, 0xB4, 0x32,
  0xFC, 0xB0, 0xFE, 0xEA, 0xBC, 0xF9, 0x0C, 0x65, 0xE4, 0x08, 0xD7, 0xA1, 0x04, 0x13, 0xD7, 0x27, 0xA6, 0x4E, 0x0E, 0x55, 0x20, 0xDA, 0xD5, 0xCA, 0xDD, 0x47, 0x09, 0xE0, 0x29, 0xEA, 0x2D, 0xDB, 0xF5, 0xCB, 0x81, 0x98, 0xFA, 0x0E, 0xF8, 0x2A,
  0x00, 0x07, 0xD1, 0xEA, 0x24, 0xEF, 0x06, 0xC7, 0x1F, 0xCE, 0xAB, 0xE5, 0xE1, 0x75, 0xFC, 0xFD, 0x22, 0x24, 0xEA, 0xCF, 0x58, 0xE8, 0xF8, 0x37, 0x66, 0x25, 0x9F, 0xDC, 0xF6, 0x3E, 0x09, 0x40, 0x72, 0xE0, 0x65, 0xB5, 0xE7, 0x00, 0x4A, 0xB2,
  0x31, 0xF4, 0xED, 0x33, 0xD5, 0xF5, 0xC9, 0x17, 0x2E, 0x2F, 0x79, 0x04, 0x1B, 0x9E, 0x2A, 0x43, 0xDF, 0xFB, 0x50, 0x02, 0x0A, 0xF3, 0x0B, 0x08, 0xBC, 0x41, 0x53, 0xAE, 0xE7, 0x18, 0x70, 0x10, 0x05, 0xE7, 0x09, 0x97, 0x02, 0x16, 0x3D, 0xD5,
  0xCF, 0x1F, 0x0C, 0x20, 0xF3, 0x09, 0x00, 0xC9, 0x81, 0xEF, 0xFC, 0xDB, 0x10, 0xF2, 0xFA, 0xFB, 0xC6, 0x0F, 0x02, 0xDB, 0x18, 0xDD, 0xFF, 0x1C, 0xE8, 0xBC, 0x0C, 0x34, 0xA6, 0xC9, 0xCF, 0x33, 0xE7, 0xEC, 0xD8, 0xE0, 0x2A, 0xE4, 0x3E, 0x55,
  0x0E, 0xC5, 0xE2, 0x63, 0x04, 0xD4, 0xE2, 0xF8, 0x11, 0x7F, 0x35, 0xC2, 0x1D, 0xD9, 0x3C, 0x15, 0x0F, 0x05, 0x24, 0xD4, 0xD9, 0x2F, 0xF7, 0x2B, 0xE6, 0x29, 0x03, 0xFA, 0x10, 0x8F, 0xF5, 0x4D, 0xCD, 0xDA, 0xDA, 0x09, 0x27, 0x23, 0x34, 0xFB,
  0x51, 0x11, 0x17, 0x11, 0xEF, 0xA7, 0x42, 0xCD, 0x0F, 0x23, 0xDC, 0x03, 0xC1, 0xC3, 0x57, 0xE4, 0x85, 0x94, 0xC6, 0xF5, 0x13, 0x28, 0x3F, 0xB4, 0xDA, 0x37, 0x2C, 0x26, 0xDE, 0x87, 0x5C, 0xFC, 0x90, 0xD5, 0xD5, 0x96, 0x2A, 0x6F, 0x30, 0x17,
  0xBB, 0x1C, 0xC3, 0x04, 0xFB, 0x25, 0xE8, 0x90, 0xDE, 0xE9, 0x15, 0x17, 0x1E, 0x08, 0xF6, 0x28, 0x19, 0xED, 0xDA, 0x16, 0x1F, 0x00, 0xD2, 0x08, 0xEC, 0xF6, 0x17, 0x07, 0x22, 0x18, 0xC0, 0x1A, 0xC0, 0x99, 0x2B, 0xFA, 0xB4, 0xEE, 0x3B, 0x97,
  0x93, 0xF5, 0xF5, 0xFA, 0xE3, 0xFA, 0xBD, 0x19, 0xFE, 0x35, 0x1A, 0xD5, 0xDE, 0xD1, 0xCD, 0xF9, 0xCA, 0x39, 0x14, 0x2F, 0x81, 0x29, 0xF8, 0x9F, 0xDA, 0x08, 0xE8, 0xD2, 0x32, 0xDA, 0x0B, 0xBA, 0x43, 0x1A, 0xD0, 0x69, 0x0B, 0x0E, 0x5F, 0xBF,
  0x09, 0xE7, 0x35, 0xE1, 0x24, 0x08, 0x59, 0xDA, 0xE5, 0x02, 0x4C, 0xB7, 0xF5, 0xB9, 0x13, 0x3C, 0x91, 0xC4, 0xEA, 0x02, 0xA7, 0x81, 0x2D, 0xD6, 0xFA, 0xAF, 0xD9, 0xFB, 0x04, 0x02, 0x75, 0x3A, 0xAD, 0xC4, 0xD3, 0x20, 0xE9, 0xA2, 0xE7, 0xEB,
  0xD9, 0x42, 0x03, 0x1E, 0x00, 0xD4, 0xF3, 0x6A, 0xA0, 0x18, 0x06, 0xC8, 0xF8, 0x05, 0xF4, 0xCC, 0x3F, 0x32, 0x35, 0x29, 0x27, 0x44, 0x24, 0xF2, 0xF1, 0xBA, 0x11, 0xD4, 0x32, 0x1D, 0xB2, 0x8F, 0xCB, 0x04, 0x41, 0x50, 0xDA, 0x24, 0x21, 0x00,
  0x5E, 0xC2, 0x47, 0xF5, 0xF7, 0xFE, 0x1A, 0xFA, 0xFE, 0xAC, 0x0A, 0x2E, 0x05, 0x15, 0x11, 0xC9, 0xB0, 0xF9, 0xDA, 0x10, 0xCF, 0xE5, 0x2B, 0xF9, 0x40, 0xC4, 0x37, 0x0E, 0x1E, 0xCA, 0x3C, 0x5A, 0xDE, 0xC8, 0xE1, 0xF3, 0xC6, 0xF2, 0xE9, 0x1B,
  0x0D, 0xE3, 0x2A, 0x31, 0x81, 0xD7, 0xFD, 0x1E, 0x0D, 0x0B, 0x21, 0xE6, 0xA8, 0x09, 0xBB, 0xA2, 0xF0, 0xFA, 0x1E, 0x4D, 0xF9, 0xFB, 0xEB, 0x0B, 0x20, 0x31, 0x2E, 0xE5, 0x1F, 0xB0, 0x1B, 0xD4, 0x15, 0xF5, 0xF9, 0xE2, 0xB2, 0xDD, 0x0E, 0x18,
  0xE2, 0xD8, 0x01, 0xFF, 0xD7, 0x02, 0x32, 0x4C, 0x40, 0xD6, 0xD1, 0x4F, 0xE6, 0xD6, 0xF9, 0x3D, 0x55, 0x08, 0x10, 0xF4, 0xF7, 0x51, 0x11, 0xB2, 0x46, 0xA1, 0xFA, 0xE1, 0xC4, 0xBF, 0xC3, 0xCC, 0x33, 0xFA, 0xC8, 0xD2, 0x19, 0xBB, 0x16, 0x43,
  0x2E, 0xC9, 0x59, 0x0B, 0x06, 0xE0, 0x74, 0x4C, 0x01, 0xF1, 0x2A, 0xDE, 0xBF, 0x02, 0x55, 0xBE, 0xCA, 0xF5, 0x90, 0x38, 0xB0, 0xDF, 0x47, 0x53, 0x81, 0x1E, 0x1F, 0x07, 0xE6, 0x17, 0xEE, 0xBD, 0x54, 0x6D, 0x07, 0xA1, 0x08, 0x66, 0x39, 0x2F,
  0xA8, 0x16, 0x9F, 0xEA, 0xD9, 0x25, 0x3C, 0xC9, 0x20, 0x1B, 0xF5, 0x01, 0x2D, 0x22, 0xFF, 0xA3, 0xFC, 0xFB, 0x9F, 0x49, 0x81, 0x05, 0x08, 0x1F, 0xDA, 0xE4, 0xEC, 0x47, 0x26, 0x3A, 0x27, 0x2A, 0x24, 0x07, 0xBA, 0x07, 0xD3, 0xB0, 0x55, 0xB3,
  0x1F, 0x42, 0x08, 0x45, 0x0F, 0xCC, 0xE0, 0xF7, 0x1E, 0xC0, 0xF2, 0xD7, 0xF4, 0xE9, 0x1C, 0x9B, 0xEF, 0xCC, 0x0E, 0x1B, 0xBD, 0xF5, 0xE9, 0x15, 0x19, 0x23, 0xDE, 0xF6, 0xFF, 0xF7, 0xF4, 0x0A, 0x16, 0x9B, 0xF9, 0x58, 0xE1, 0xE8, 0x18, 0xEF,
  0x5F, 0x4C, 0xFE, 0x1A, 0x2E, 0xC0, 0xFF, 0xFF, 0x04, 0x00, 0x00, 0x00, 0x00, 0x05, 0x00, 0x00, 0xFD, 0x41, 0xD6, 0xAD, 0xDD, 0xDE, 0x0E, 0x0C, 0x14, 0xFD, 0x0D, 0x43, 0xE8, 0xF2, 0xEB, 0x81, 0x34, 0xE6, 0x08, 0xF5, 0x01, 0x0A, 0xF4, 0x35,
  0xEB, 0xE7, 0xFB, 0x12, 0xEA, 0x1E, 0xDA, 0xBB, 0x2A, 0x39, 0xD6, 0x26, 0xF1, 0x40, 0x45, 0xCD, 0xDF, 0x41, 0xE7, 0x2B, 0x15, 0xF9, 0xFF, 0xA2, 0x00, 0x30, 0xE2, 0x0E, 0xF5, 0x05, 0xCD, 0x13, 0xD1, 0x46, 0x48, 0x1F, 0x28, 0xF9, 0x03, 0xC5,
  0x28, 0x00, 0xE6, 0x21, 0x06, 0x42, 0xE1, 0x02, 0xAF, 0x27, 0xD6, 0xED, 0xFF, 0xF9, 0x18, 0x06, 0xFB, 0xDD, 0xF4, 0x26, 0xEB, 0xFC, 0xE8, 0xD0, 0xCE, 0x1B, 0x35, 0xEB, 0x25, 0x10, 0xE6, 0x01, 0x04, 0x10, 0x16, 0x16, 0xF7, 0x27, 0x00, 0xF2,
  0x0A, 0x14, 0xE0, 0xC0, 0xDD, 0x13, 0xF4, 0xCE, 0x07, 0x2D, 0x1E, 0xDD, 0xEE, 0xF0, 0xF4, 0x21, 0xC1, 0xE8, 0x00, 0xE5, 0xD1, 0x09, 0x13, 0xD9, 0x1C, 0xEA, 0x3D, 0xA1, 0x22, 0xE1, 0xC8, 0x08, 0x16, 0xDF, 0x1A, 0xFA, 0xCF, 0xD8, 0xFD, 0xED,
  0xEC, 0x5C, 0x3D, 0xF7, 0x28, 0x2E, 0x81, 0x29, 0xD4, 0x28, 0x10, 0x09, 0x91, 0xD9, 0x07, 0x04, 0x1F, 0x0E, 0x02, 0x06, 0x43, 0xE8, 0x07, 0xE4, 0xCC, 0xE2, 0xD5, 0x07, 0xDE, 0xC0, 0xD4, 0xF5, 0x28, 0xE2, 0x1E, 0x08, 0xE2, 0x1D, 0xAA, 0xB5,
  0xF2, 0xEC, 0xF2, 0xD5, 0xD6, 0x0E, 0x30, 0xCC, 0x4B, 0x16, 0x06, 0x34, 0xFA, 0x26, 0x20, 0xE7, 0x0B, 0xF1, 0xFC, 0xFA, 0x29, 0xF0, 0x42, 0xFC, 0x5D, 0xE9, 0x05, 0x37, 0xDF, 0x53, 0x95, 0xBD, 0xF4, 0xFF, 0x42, 0x48, 0x05, 0x00, 0x25, 0xFD,
  0xFE, 0xBB, 0xD7, 0xA6, 0x2A, 0x90, 0xB9, 0x70, 0x2B, 0x81, 0xD7, 0xC7, 0xFD, 0x00, 0xEE, 0xCB, 0x0A, 0x03, 0xDB, 0x12, 0x09, 0x11, 0x00, 0xE1, 0xFF, 0xEF, 0x36, 0xC3, 0xE1, 0x9C, 0xC6, 0xDE, 0x32, 0x13, 0xD8, 0xC2, 0x11, 0x03, 0xE5, 0xBD,
  0xF5, 0xAA, 0xB8, 0x0F, 0xE1, 0x9B, 0x81, 0xD3, 0xF6, 0x37, 0x0C, 0xC3, 0xF0, 0xFB, 0x10, 0xF9, 0xED, 0x25, 0x16, 0xE7, 0xC8, 0x8F, 0xDE, 0xEF, 0xD9, 0x3C, 0xB4, 0x27, 0xE6, 0x61, 0xCA, 0xCA, 0x10, 0x41, 0x1E, 0xE2, 0xED, 0x9F, 0xF3, 0x0D,
  0x26, 0x4F, 0x0E, 0xB2, 0x39, 0xFB, 0x22, 0xBF, 0x36, 0xD7, 0xEF, 0x12, 0xF4, 0x96, 0xB3, 0xED, 0xD4, 0xC0, 0x07, 0xD1, 0x05, 0x04, 0x15, 0xED, 0xE1, 0xE7, 0x23, 0x21, 0x14, 0x97, 0x00, 0x22, 0xA2, 0x04, 0xE4, 0x04, 0xCF, 0xBD, 0xE7, 0xB9,
  0x08, 0x34, 0x32, 0x1D, 0x5C, 0x34, 0xF0, 0x46, 0x81, 0x48, 0x47, 0xFC, 0xDE, 0xCA, 0xD6, 0x0A, 0xE3, 0xE0, 0x13, 0xDA, 0x41, 0xFA, 0xD6, 0x53, 0xE5, 0x28, 0xDA, 0xFF, 0x33, 0x1E, 0x0D, 0x2B, 0x9E, 0x23, 0x1E, 0x2A, 0xC8, 0xEA, 0xE4, 0x1C,
  0x34, 0x0D, 0xF8, 0x42, 0x0D, 0x18, 0x24, 0x10, 0xB0, 0xE8, 0x41, 0xE8, 0x46, 0x3E, 0x8D, 0xE7, 0xE7, 0x59, 0x81, 0x37, 0x10, 0x20, 0x07, 0x4D, 0xBF, 0xCA, 0xBB, 0x7D, 0xED, 0xFD, 0xD7, 0x48, 0xE7, 0x3D, 0xA1, 0x1A, 0xCF, 0x2B, 0xE9, 0xBB,
  0x05, 0x3D, 0x4E, 0xF3, 0xCA, 0xE3, 0x09, 0x02, 0x30, 0xEB, 0xB8, 0xE1, 0x08, 0x07, 0xF5, 0x0A, 0xE9, 0xBE, 0xE1, 0xFF, 0xE7, 0x50, 0xDB, 0x04, 0x21, 0xBA, 0xF4, 0xCA, 0x22, 0xA8, 0xEF, 0x2D, 0x3D, 0xBA, 0x4F, 0xFF, 0xE5, 0x06, 0x17, 0xE1,
  0xEE, 0x25, 0xDE, 0x12, 0x24, 0x90, 0xE4, 0x12, 0xDC, 0xCC, 0xEB, 0xFE, 0x22, 0x5C, 0x0C, 0xBF, 0x47, 0x7F, 0x26, 0xE9, 0x0E, 0x3B, 0x36, 0x13, 0x02, 0x38, 0xFA, 0xED, 0xCD, 0xAF, 0xDF, 0xC2, 0x5A, 0x39, 0x13, 0xBD, 0x41, 0xBA, 0xF6, 0xEA,
  0xE2, 0x3F, 0x27, 0xD4, 0xE6, 0x01, 0x1E, 0xE3, 0xA7, 0xDB, 0xC8, 0xCD, 0x71, 0xF1, 0xED, 0xF5, 0x4B, 0x29, 0x31, 0xED, 0x4B, 0x16, 0x16, 0x28, 0xC1, 0xB7, 0xAE, 0xD9, 0x1A, 0x1C, 0x3E, 0x9A, 0x3C, 0x5A, 0x0A, 0x57, 0x56, 0x02, 0x3A, 0xF5,
  0xBF, 0xF6, 0x10, 0x41, 0xE9, 0x1E, 0x18, 0xF3, 0x1D, 0xF4, 0xBC, 0x28, 0x07, 0x25, 0x04, 0x32, 0x20, 0xFC, 0x1C, 0xF8, 0x2A, 0x2D, 0x18, 0x10, 0x3A, 0xD5, 0x19, 0x81, 0xF4, 0xE1, 0xB8, 0xF5, 0x13, 0xDB, 0xFD, 0x08, 0xD8, 0x06, 0xE8, 0xC9,
  0x14, 0xFE, 0x17, 0x1B, 0x1C, 0xEC, 0x04, 0xEB, 0x1A, 0xED, 0x05, 0x16, 0xD6, 0xD3, 0x21, 0x0A, 0xD8, 0x15, 0x06, 0xFD, 0xBA, 0xD8, 0x1B, 0x20, 0xED, 0xCA, 0xF0, 0x05, 0x31, 0xEB, 0x03, 0x2B, 0xEA, 0x46, 0x01, 0x45, 0xDF, 0xF0, 0xB2, 0xFC,
  0xEC, 0x1E, 0x03, 0x16, 0x19, 0xDB, 0xCD, 0xF6, 0xFE, 0x14, 0x39, 0x1A, 0xAE, 0xC9, 0xC6, 0x2E, 0x4D, 0xCC, 0x13, 0x04, 0x7D, 0x18, 0xD1, 0xEC, 0xCE, 0xDF, 0xEF, 0x0D, 0x29, 0x19, 0xD3, 0x4E, 0xE0, 0xE2, 0x1F, 0x41, 0xF0, 0xBD, 0xF9, 0xE1,
  0xC8, 0xCC, 0x1E, 0x2E, 0x34, 0xD9, 0x0C, 0xCA, 0x63, 0x22, 0x48, 0x24, 0x08, 0xBE, 0x20, 0x29, 0x27, 0xD4, 0x54, 0xFE, 0x01, 0xC1, 0xD6, 0x27, 0xEE, 0x15, 0x5A, 0x10, 0xDB, 0xFC, 0x4B, 0xD2, 0x00, 0xF8, 0x35, 0xA8, 0xB0, 0x1A, 0x30, 0x28,
  0x00, 0x0A, 0x67, 0x04, 0xCB, 0xAB, 0x25, 0x00, 0x2E, 0xC4, 0x04, 0x81, 0x36, 0x10, 0x38, 0xF6, 0xF6, 0x6A, 0x10, 0x05, 0x11, 0x18, 0x59, 0x2A, 0x20, 0xDB, 0x40, 0x39, 0x35, 0x05, 0x08, 0x09, 0xCF, 0xD8, 0xE3, 0xDC, 0x1B, 0xF9, 0x4C, 0xEC,
  0x31, 0x1E, 0xF9, 0x39, 0x11, 0xF3, 0x43, 0x05, 0xEC, 0x13, 0x7F, 0x74, 0xEB, 0x20, 0x23, 0x14, 0x07, 0x1A, 0xFA, 0x3F, 0x26, 0xE2, 0xEE, 0x13, 0x22, 0x28, 0x5E, 0x4F, 0x34, 0xCF, 0xFA, 0x56, 0x21, 0xD6, 0x25, 0x41, 0xBF, 0xD6, 0xAD, 0xFD,
  0x01, 0xED, 0x09, 0x38, 0x4C, 0xC3, 0x2B, 0x09, 0x0C, 0x18, 0x9F, 0x94, 0xDE, 0xF6, 0xCA, 0x95, 0xF3, 0x7F, 0x9F, 0xEC, 0xBF, 0xEE, 0x07, 0xF7, 0xCA, 0x10, 0xF1, 0x3D, 0xB5, 0x1B, 0x3E, 0xE7, 0xE6, 0x23, 0xEE, 0x23, 0x18, 0xB0, 0x09, 0xD7,
  0x10, 0xC1, 0xF6, 0x31, 0x05, 0x1D, 0xC7, 0xA9, 0xBE, 0x1F, 0xE1, 0x00, 0xBF, 0xD1, 0x1B, 0xF4, 0x08, 0x00, 0xC8, 0xF1, 0xFE, 0x19, 0xD5, 0xE7, 0x13, 0x38, 0x25, 0xED, 0xB4, 0xED, 0xAA, 0xF3, 0x2B, 0x2D, 0xE3, 0x18, 0x29, 0xF6, 0x19, 0x15,
  0x12, 0xAB, 0x34, 0x2A, 0xEE, 0x34, 0xA4, 0xF0, 0xFE, 0xEB, 0x3A, 0x1F, 0xBE, 0xA2, 0x4D, 0xFD, 0xE2, 0x20, 0x09, 0x0B, 0x2A, 0xBA, 0x1E, 0x18, 0xE5, 0xB8, 0x14, 0xDF, 0xE1, 0xE8, 0xBD, 0x11, 0x00, 0xD7, 0x0D, 0x67, 0xBA, 0x14, 0x02, 0x14,
  0xBB, 0x48, 0xD8, 0x0E, 0xE3, 0x08, 0x05, 0x23, 0xAF, 0xF0, 0x05, 0x43, 0xE2, 0x17, 0x21, 0x16, 0xED, 0x59, 0x5C, 0x0F, 0x0A, 0xAA, 0x00, 0x2D, 0xF0, 0x1B, 0x08, 0xDF, 0xDC, 0x3B, 0x21, 0x17, 0x03, 0x40, 0x37, 0x49, 0x23, 0x9E, 0x38, 0x1D,
  0x2C, 0xB1, 0xFF, 0x16, 0x0C, 0x11, 0xF1, 0x81, 0xB8, 0xF0, 0xD2, 0xF3, 0x00, 0xDE, 0x57, 0x8C, 0x16, 0xF8, 0xFE, 0x38, 0xBF, 0x0D, 0x33, 0x56, 0x2F, 0x24, 0xFD, 0x35, 0x08, 0x17, 0xF7, 0xF8, 0xD7, 0x36, 0xDB, 0x24, 0x1C, 0x45, 0x02, 0x0E,
  0xAD, 0xCA, 0xD4, 0x25, 0x24, 0x01, 0x22, 0xD0, 0x00, 0xC4, 0x96, 0x2E, 0xEE, 0xF6, 0x15, 0xDE, 0x32, 0x69, 0x1F, 0xEF, 0xDE, 0xE2, 0x28, 0xD4, 0x18, 0xEC, 0xD8, 0xE1, 0xE7, 0xFB, 0xD5, 0x16, 0x41, 0x01, 0x06, 0x28, 0x01, 0xF6, 0xB6, 0x03,
  0xB6, 0x07, 0x8E, 0xF9, 0x15, 0x17, 0xF3, 0xEB, 0x03, 0x7F, 0xA8, 0xFE, 0xB8, 0x48, 0xF9, 0x3A, 0x33, 0xD9, 0x03, 0xCE, 0x07, 0xE0, 0xF9, 0xF0, 0x1A, 0x00, 0x38, 0xF3, 0xE7, 0x07, 0xE8, 0xDF, 0x25, 0x15, 0xA0, 0xF4, 0xC0, 0xDD, 0x81, 0xB5,
  0xF3, 0x07, 0x10, 0x15, 0x05, 0x30, 0x31, 0x04, 0x1F, 0x14, 0x22, 0xFF, 0x0B, 0x44, 0xC0, 0x11, 0x12, 0x21, 0xD7, 0x1A, 0xE6, 0x0F, 0x21, 0x41, 0x22, 0xC4, 0xFF, 0xEF, 0x22, 0xFE, 0xC6, 0x0B, 0xF6, 0xED, 0xD7, 0xFC, 0x23, 0x38, 0x04, 0xE0,
  0x02, 0x91, 0xF8, 0xDB, 0x31, 0xE8, 0xC6, 0x12, 0x04, 0xE9, 0xD4, 0x0A, 0x0D, 0x35, 0x45, 0x48, 0x48, 0x2C, 0x47, 0xE3, 0xE9, 0x03, 0xE8, 0xDA, 0xCA, 0xE7, 0x0E, 0x81, 0x2B, 0x9C, 0xF0, 0xA1, 0x19, 0x21, 0x3A, 0x2F, 0xFB, 0xA6, 0x1B, 0xF0,
  0xCC, 0xD8, 0x9F, 0xC6, 0xD1, 0xD6, 0x02, 0x20, 0xDC, 0x4C, 0xE8, 0xEE, 0x3B, 0xE2, 0xD1, 0x1E, 0x02, 0x2F, 0x02, 0x55, 0xD6, 0x38, 0xD1, 0xEA, 0xF9, 0x20, 0x14, 0xD5, 0xD1, 0x68, 0x28, 0xFA, 0x25, 0x14, 0x14, 0x25, 0x3F, 0xCF, 0x04, 0x69,
  0x5B, 0x05, 0x0E, 0xEA, 0xC3, 0xD0, 0xA9, 0xF6, 0xDE, 0x2C, 0xFF, 0x1D, 0x30, 0xBD, 0xEE, 0x2B, 0x2E, 0xF2, 0x3F, 0x21, 0x0B, 0x13, 0x1A, 0x3C, 0x04, 0x2B, 0x4F, 0x1A, 0x60, 0x39, 0x47, 0x38, 0xE7, 0x31, 0xD6, 0x0D, 0x17, 0x13, 0xC9, 0xDC,
  0x4D, 0x4A, 0xCB, 0x7F, 0xE4, 0x49, 0xFD, 0x0D, 0xFB, 0x37, 0xD1, 0xB5, 0x32, 0x3E, 0x02, 0x02, 0x31, 0x4F, 0x14, 0x34, 0x18, 0x41, 0xAC, 0xE7, 0x37, 0x58, 0xBD, 0xFD, 0xF9, 0xE9, 0x17, 0xD7, 0xF3, 0xF8, 0xFC, 0x48, 0xF2, 0xF8, 0x57, 0xC7,
  0xEA, 0x0E, 0x05, 0xF0, 0x12, 0x08, 0x37, 0xCD, 0xE4, 0x1C, 0x41, 0x08, 0x07, 0x56, 0x4D, 0x7E, 0x3A, 0xC5, 0xFF, 0xFF, 0x04, 0x00, 0x00, 0x00, 0x00, 0x05, 0x00, 0x00, 0x8A, 0xDE, 0xAD, 0x1E, 0x0E, 0x1D, 0xFD, 0xBD, 0x0A, 0xC8, 0xED, 0x66,
  0xF7, 0x28, 0xEA, 0x3C, 0xE3, 0x18, 0xFD, 0xAF, 0xCD, 0xE3, 0xAD, 0xE4, 0xFA, 0x12, 0x2A, 0x00, 0x81, 0x07, 0xAC, 0xE3, 0xFB, 0x0E, 0xE1, 0x04, 0x4E, 0xFA, 0x07, 0x2C, 0x30, 0xE0, 0x12, 0x08, 0xD7, 0x27, 0xC7, 0x14, 0xAF, 0x08, 0xB6, 0x0A,
  0x09, 0x0B, 0xCC, 0x46, 0xEB, 0x44, 0xF7, 0x02, 0xA8, 0x21, 0xC1, 0xD3, 0xEA, 0xE8, 0x95, 0x03, 0x1E, 0x26, 0xE3, 0xE8, 0x03, 0xC4, 0xDB, 0x00, 0x8B, 0xF4, 0x3A, 0xEF, 0x73, 0xCF, 0xEA, 0xE9, 0xE3, 0xDB, 0x19, 0xB2, 0x10, 0x0C, 0x24, 0xE6,
  0x28, 0xEE, 0x0F, 0xE7, 0x16, 0xF0, 0x7B, 0xB3, 0xE7, 0xB4, 0xCF, 0xE7, 0x36, 0x3A, 0xC8, 0xF7, 0x14, 0xDD, 0xF0, 0xE8, 0xC7, 0xE8, 0x7F, 0xD2, 0xD8, 0xE0, 0xE4, 0x43, 0x31, 0x0A, 0x08, 0xC7, 0xF1, 0xFE, 0x0A, 0x19, 0x2C, 0x21, 0x1B, 0xBF,
  0xEC, 0xE3, 0xB0, 0x1C, 0x31, 0xFD, 0xF7, 0x22, 0x03, 0x1B, 0x23, 0xF1, 0x30, 0x0A, 0x54, 0xF0, 0x96, 0xA1, 0xF5, 0x37, 0x3E, 0x46, 0x2F, 0xE5, 0x23, 0xCA, 0xFF, 0x39, 0x55, 0xF3, 0x1D, 0xF4, 0x44, 0xE1, 0xD4, 0x0E, 0x25, 0x0E, 0x16, 0x24,
  0xED, 0xF1, 0xB1, 0xCB, 0x37, 0xBF, 0xD2, 0xC6, 0xBB, 0x35, 0xB4, 0x0E, 0xCE, 0x02, 0x10, 0xD4, 0xD1, 0x14, 0xCA, 0xFE, 0x44, 0x08, 0xEA, 0xF1, 0xCC, 0x25, 0x0C, 0xC4, 0x91, 0xBC, 0x1F, 0xA7, 0x07, 0x3F, 0x13, 0x10, 0x2A, 0xE8, 0xEB, 0x00,
  0x4F, 0x48, 0xE1, 0xB3, 0xC8, 0xB3, 0xCC, 0xCD, 0x10, 0x1B, 0x36, 0x27, 0x1D, 0xEF, 0xA2, 0x0F, 0x30, 0x7F, 0x63, 0xF6, 0xF0, 0xCC, 0xCF, 0x29, 0xFD, 0x10, 0x34, 0x07, 0x0C, 0x14, 0x44, 0x99, 0x37, 0x07, 0xAC, 0x3E, 0x75, 0xB8, 0xCD, 0xDE,
  0x22, 0x28, 0xF1, 0xD2, 0xF4, 0xFF, 0x13, 0x12, 0xE2, 0x1E, 0x3E, 0x11, 0x02, 0xC0, 0xD1, 0xDD, 0xDF, 0xC2, 0xDA, 0xD2, 0x0A, 0x18, 0x0F, 0x22, 0x50, 0xE4, 0x7F, 0x1F, 0xF1, 0x17, 0x22, 0x32, 0xE8, 0x63, 0x9C, 0xB3, 0x97, 0xEC, 0xA5, 0x14,
  0x07, 0x37, 0x40, 0x32, 0xE7, 0x29, 0x01, 0xDB, 0xD8, 0x03, 0xF1, 0x57, 0xDF, 0xF5, 0xB8, 0xC6, 0xF5, 0x60, 0x73, 0x01, 0xCD, 0xD4, 0x31, 0xC8, 0x0A, 0x5B, 0xB4, 0xD5, 0x81, 0xF9, 0xFE, 0x00, 0x24, 0x03, 0xFC, 0x03, 0x0E, 0xF9, 0xE2, 0xE6,
  0x15, 0x1E, 0xF7, 0xE7, 0xE1, 0xD1, 0xB5, 0xEA, 0x18, 0x06, 0x2A, 0x33, 0x02, 0x1E, 0xDF, 0xFE, 0xE8, 0x27, 0xE9, 0x21, 0xFA, 0xD0, 0xC2, 0xD3, 0x4B, 0x03, 0xE7, 0x18, 0x20, 0x36, 0xB3, 0x0B, 0xE9, 0xF1, 0xDF, 0x1A, 0x34, 0xCC, 0x23, 0xD5,
  0x44, 0xE9, 0x28, 0xC7, 0x1B, 0x0B, 0x03, 0x1E, 0x36, 0xDF, 0xF6, 0x09, 0x0D, 0x10, 0x98, 0xD5, 0x45, 0xC5, 0x19, 0xC7, 0x05, 0x07, 0xC8, 0x03, 0xDF, 0x19, 0xD0, 0xD1, 0xFF, 0x0F, 0x55, 0x3A, 0xDA, 0x0F, 0x75, 0x18, 0xEF, 0xE3, 0xEF, 0xC5,
  0x2A, 0x2B, 0xC2, 0xEB, 0x00, 0xCC, 0x07, 0x65, 0xDF, 0x21, 0x07, 0x1D, 0x16, 0xF7, 0xF1, 0xBB, 0x41, 0x2C, 0x36, 0x81, 0x40, 0x17, 0x17, 0x16, 0xFB, 0xBC, 0x1F, 0x28, 0x9F, 0xF2, 0x49, 0xEE, 0x4D, 0x49, 0xDD, 0xB0, 0xEF, 0x3D, 0xE5, 0xB7,
  0x0D, 0x03, 0x1E, 0x00, 0xB1, 0x19, 0x10, 0xB8, 0xF1, 0x2E, 0xDD, 0x1C, 0x12, 0x18, 0xE3, 0xB2, 0xC7, 0xEA, 0x27, 0xD3, 0xF9, 0x40, 0x17, 0xE2, 0x32, 0x70, 0x16, 0xF1, 0x4C, 0xF0, 0x39, 0x44, 0xDB, 0xE1, 0xFA, 0x31, 0xD9, 0xF1, 0xBC, 0x1A,
  0xFE, 0xFF, 0x1E, 0x36, 0x01, 0x1C, 0x34, 0x56, 0x81, 0xD1, 0x0F, 0x40, 0x13, 0x04, 0x33, 0x1E, 0x07, 0xC2, 0xFB, 0xBD, 0x0E, 0x05, 0xDD, 0xCA, 0x22, 0x31, 0xE2, 0x5C, 0x38, 0xD4, 0x29, 0xF0, 0xCA, 0xFD, 0xE9, 0xC7, 0xED, 0x17, 0xB0, 0x04,
  0xDB, 0x0A, 0x36, 0x49, 0x29, 0xFE, 0x1E, 0xD9, 0x13, 0xDA, 0xF5, 0xBD, 0x1C, 0x56, 0x98, 0x2A, 0x03, 0x17, 0x55, 0x58, 0x13, 0x19, 0xFB, 0xD8, 0x3F, 0xDF, 0xEB, 0xBC, 0xEE, 0x41, 0x35, 0x6A, 0x04, 0x4D, 0x08, 0x23, 0x22, 0x81, 0xA2, 0x1A,
  0x3F, 0x3F, 0x14, 0x08, 0xDF, 0xE1, 0xDB, 0x1D, 0xD3, 0xE0, 0xAC, 0x06, 0x9D, 0xD8, 0xEA, 0x0E, 0x1D, 0x16, 0xDE, 0x2C, 0xB5, 0xF6, 0x1B, 0x27, 0xDC, 0xBC, 0xA7, 0x08, 0x1F, 0x9B, 0xCA, 0x2C, 0x34, 0xF6, 0x1A, 0xB9, 0xEA, 0xAA, 0x9A, 0x34,
  0xF7, 0x08, 0xD0, 0x34, 0xB7, 0x25, 0x2E, 0xD3, 0x23, 0xF8, 0xF7, 0xE8, 0xC7, 0xB4, 0x00, 0xDE, 0xC1, 0x01, 0xBA, 0xF4, 0x50, 0xF2, 0xE5, 0xC7, 0x4C, 0xE2, 0x3A, 0x0F, 0xF8, 0xB6, 0x3E, 0xDD, 0x03, 0x0E, 0x8A, 0xEF, 0xF1, 0x8F, 0xE6, 0xFA,
  0xFA, 0x3C, 0x01, 0xD1, 0x2F, 0x97, 0x2B, 0x5B, 0x33, 0x31, 0xCD, 0x2E, 0x14, 0xE2, 0xFF, 0xE2, 0x20, 0x16, 0x1A, 0x2D, 0x25, 0xE3, 0xDA, 0x22, 0xE7, 0x29, 0xDF, 0xE9, 0xCA, 0x4A, 0x36, 0x0A, 0xE6, 0x41, 0x49, 0x42, 0xDD, 0x0A, 0xF2, 0x5D,
  0xD0, 0x3F, 0xC5, 0xF4, 0xF3, 0x01, 0x52, 0x1E, 0x02, 0xEB, 0x4F, 0xAE, 0xF2, 0xDF, 0x12, 0x7F, 0x34, 0x3D, 0xAC, 0xF7, 0x13, 0x27, 0x24, 0x0B, 0xE2, 0xD8, 0x4E, 0x09, 0xDF, 0x00, 0xEB, 0xC8, 0xE3, 0x14, 0xD0, 0x19, 0x2A, 0x36, 0xC2, 0x05,
  0x7F, 0xB3, 0xE7, 0xD1, 0xDB, 0xD5, 0xBA, 0x0E, 0x02, 0xD4, 0x37, 0x03, 0xE9, 0x15, 0xF0, 0x07, 0x12, 0x13, 0x58, 0x01, 0xEB, 0x25, 0xFC, 0x15, 0x14, 0xD7, 0xFC, 0xC3, 0xCC, 0x49, 0x04, 0x11, 0xC0, 0xF9, 0xF7, 0xF8, 0xF7, 0x19, 0x56, 0x94,
  0xD6, 0x19, 0xD0, 0xC6, 0x0F, 0x9F, 0x00, 0x17, 0xED, 0xD5, 0xCC, 0x29, 0x30, 0x21, 0x12, 0xCF, 0x47, 0xC1, 0xA4, 0x2A, 0xEF, 0xB6, 0xB2, 0x4C, 0xE1, 0xF0, 0x19, 0x38, 0x09, 0xEF, 0xF5, 0x11, 0xE7, 0x02, 0xD7, 0x46, 0xD8, 0x1B, 0x1E, 0x2B,
  0xCB, 0x66, 0x11, 0x0C, 0x47, 0xF5, 0x20, 0x3F, 0xBF, 0x3A, 0x14, 0x2F, 0x0E, 0xED, 0x61, 0x1D, 0xEC, 0xEC, 0x23, 0xC0, 0xF7, 0xE2, 0x28, 0x34, 0xCA, 0x02, 0xE9, 0xF3, 0x31, 0xF8, 0x38, 0x20, 0xF9, 0xCB, 0xEE, 0xD8, 0x27, 0xFA, 0xD7, 0x35,
  0xCD, 0xCD, 0x05, 0x1C, 0xFA, 0xEC, 0x1E, 0xD5, 0x27, 0xF9, 0xF2, 0xDF, 0x09, 0xF3, 0xCB, 0xBC, 0xFD, 0xEF, 0xE2, 0xF4, 0xFF, 0xEC, 0x37, 0x1B, 0xE9, 0xE3, 0x0F, 0x81, 0x34, 0x31, 0xC9, 0xE8, 0xEC, 0xAB, 0xD5, 0x0E, 0x3B, 0xF7, 0xBB, 0xB8,
  0x0F, 0x24, 0xFE, 0xBE, 0xED, 0x15, 0x06, 0x07, 0xD2, 0xDD, 0x2D, 0x15, 0xB5, 0x30, 0xE7, 0x8C, 0x1B, 0x3B, 0xC2, 0xFC, 0xD8, 0xE9, 0xCB, 0x4F, 0xDE, 0xD4, 0x21, 0x01, 0x3A, 0x27, 0xD2, 0x10, 0xC9, 0x57, 0xB6, 0xED, 0xEF, 0xE7, 0x3D, 0x21,
  0x05, 0xFA, 0x09, 0x33, 0xD2, 0xF1, 0x02, 0xC7, 0x1E, 0x1E, 0xAC, 0xB8, 0xF5, 0x22, 0x01, 0xD0, 0x22, 0xF1, 0x24, 0x30, 0xC3, 0xF8, 0xD3, 0x81, 0xCA, 0xDF, 0x01, 0x23, 0x18, 0x0B, 0xFE, 0x26, 0x45, 0x29, 0xEC, 0xC6, 0xF2, 0xF4, 0x49, 0xE9,
  0xBA, 0xCD, 0x2F, 0x25, 0x30, 0x33, 0xDA, 0x4E, 0xE4, 0xDF, 0x0D, 0xDF, 0x3D, 0xED, 0x17, 0x41, 0x31, 0x19, 0x04, 0xB7, 0x50, 0x0E, 0x08, 0x05, 0x1A, 0xD9, 0xEE, 0x1E, 0xF8, 0xD0, 0x1D, 0x04, 0x1B, 0x01, 0x0A, 0x0F, 0xAA, 0x07, 0x17, 0x44,
  0x14, 0xC2, 0x16, 0x40, 0x07, 0xFC, 0x06, 0xCD, 0xD5, 0x2F, 0xFE, 0x37, 0x21, 0xDC, 0xA7, 0x15, 0xA3, 0x0A, 0x7F, 0x31, 0x13, 0x1B, 0x18, 0xC4, 0x12, 0x2C, 0xFC, 0xC8, 0x25, 0x21, 0x2A, 0x0B, 0xB7, 0x38, 0x47, 0x0E, 0x1E, 0xC0, 0xC3, 0xE9,
  0x2A, 0x03, 0xE6, 0x59, 0x50, 0x12, 0x1E, 0x0F, 0x92, 0x00, 0xEE, 0x18, 0x5C, 0xE8, 0x16, 0xA6, 0xC1, 0xFF, 0x9E, 0xD0, 0x3D, 0xB4, 0x23, 0x06, 0x81, 0x0C, 0x49, 0x41, 0xE9, 0xEE, 0xCC, 0x38, 0x32, 0x42, 0x27, 0x38, 0x4E, 0x4D, 0x16, 0x0D,
  0x84, 0x07, 0x48, 0xF8, 0x56, 0x6F, 0xCA, 0xB4, 0xFC, 0xEA, 0xE9, 0x1F, 0xE7, 0x3C, 0xE5, 0xD1, 0xD7, 0x13, 0xF1, 0x0B, 0x19, 0x27, 0x3C, 0xC5, 0xDE, 0xFC, 0x60, 0xE1, 0xD8, 0xA0, 0x29, 0xF6, 0xA7, 0xD6, 0xB9, 0x0A, 0xFC, 0xFC, 0xD1, 0xD2,
  0x2F, 0x1E, 0x38, 0xFD, 0x1B, 0xBF, 0x09, 0x3A, 0x81, 0x8A, 0xF0, 0xC3, 0x14, 0x1D, 0xE8, 0xD9, 0xF6, 0x4D, 0xB5, 0x01, 0x15, 0x55, 0xE4, 0x0D, 0x2B, 0xFB, 0x06, 0x39, 0x1C, 0x6D, 0x06, 0x25, 0x1A, 0xAD, 0xDE, 0xE5, 0x22, 0xFD, 0xAA, 0x46,
  0xB7, 0x16, 0xCF, 0xFF, 0xA6, 0xD6, 0x37, 0xF4, 0x34, 0xAC, 0x1E, 0x26, 0x03, 0xB0, 0xB2, 0x79, 0xD6, 0xF0, 0x22, 0xEC, 0x66, 0x5A, 0x15, 0x16, 0xA1, 0xB7, 0xE4, 0x72, 0x3D, 0x3B, 0x3D, 0x09, 0xF4, 0x18, 0xF3, 0x1E, 0xEE, 0xE2, 0x11, 0xFB,
  0x70, 0x51, 0xE5, 0xB7, 0x53, 0x1D, 0x2C, 0x47, 0xB1, 0x1D, 0x2E, 0x3E, 0x19, 0x25, 0xC5, 0xD1, 0x28, 0x0A, 0xC5, 0x1D, 0x38, 0x0E, 0x4A, 0x00, 0xB7, 0xE8, 0x81, 0x0C, 0xEE, 0x39, 0xD9, 0x18, 0xE4, 0x23, 0xAE, 0x09, 0xB1, 0x1E, 0xF0, 0x3C,
  0x08, 0xE0, 0xDF, 0x02, 0xE2, 0x14, 0xED, 0xAC, 0xD2, 0x12, 0x2F, 0xEE, 0xFC, 0x36, 0xF1, 0x11, 0xA3, 0x22, 0x10, 0xDA, 0x5E, 0xE7, 0xC7, 0xA4, 0x25, 0x27, 0x44, 0xC5, 0x46, 0xCA, 0xFF, 0xFF, 0x04, 0x00, 0x00, 0x00, 0x00, 0x05, 0x00, 0x00,
  0xF2, 0xBA, 0xF6, 0xF3, 0x64, 0x18, 0x05, 0x16, 0xC5, 0xD1, 0xCD, 0xFF, 0x16, 0x53, 0x19, 0xDC, 0x1B, 0x9E, 0x05, 0xD8, 0xF9, 0x20, 0xE0, 0x32, 0xF8, 0xE9, 0x9E, 0x4A, 0xDC, 0x3D, 0x27, 0x1A, 0x45, 0x0D, 0x42, 0xE0, 0xF6, 0x1F, 0x30, 0xF2,
  0x09, 0xCB, 0xFA, 0xF8, 0x0A, 0xC0, 0x25, 0xFF, 0xE7, 0xBF, 0x0F, 0xEF, 0xF6, 0x02, 0x1A, 0xEF, 0x02, 0x25, 0xD4, 0x2B, 0xD5, 0x1B, 0xF3, 0xFC, 0xF2, 0x81, 0x0B, 0xB3, 0xC1, 0xEC, 0xDD, 0xC5, 0xF7, 0x33, 0xF2, 0x05, 0xFE, 0x1D, 0xBB, 0x0D,
  0xCC, 0x3A, 0xF0, 0xBF, 0xE2, 0x26, 0xFE, 0xE7, 0xE5, 0x07, 0xEE, 0xDD, 0xEA, 0xEB, 0x43, 0x03, 0x60, 0x12, 0x30, 0xED, 0x18, 0xED, 0xF1, 0xED, 0x15, 0x33, 0x3F, 0x44, 0xD3, 0xFA, 0xED, 0x06, 0xCD, 0x41, 0xEB, 0xC4, 0xDA, 0x2D, 0xC9, 0xF3,
  0x41, 0xDB, 0xBA, 0x2C, 0xFF, 0x26, 0x50, 0x0D, 0x73, 0x4B, 0xCD, 0x61, 0xB0, 0xC9, 0x00, 0x0E, 0x16, 0xB0, 0xCD, 0x2D, 0xC9, 0xA9, 0xD2, 0x7F, 0x33, 0xB4, 0x00, 0x22, 0x3B, 0x0A, 0xFF, 0xFF, 0x35, 0x4A, 0xB7, 0xE0, 0xFF, 0x41, 0x0D, 0xAD,
  0xEC, 0x1F, 0xF6, 0xD9, 0x3F, 0xDC, 0x81, 0xD4, 0xF6, 0xE1, 0xE0, 0xD0, 0xF1, 0x27, 0xFC, 0x3A, 0xB6, 0x5B, 0xFF, 0x83, 0x3D, 0xF4, 0xD0, 0x05, 0x0C, 0x15, 0xF3, 0x3A, 0x06, 0x4C, 0xE8, 0xF5, 0xC4, 0x48, 0x07, 0x0C, 0xBA, 0xB2, 0xBB, 0x10,
  0xB3, 0x18, 0x77, 0x3B, 0x29, 0xDD, 0xF7, 0xEC, 0x01, 0x23, 0x24, 0xFE, 0x19, 0x04, 0x28, 0x57, 0xE2, 0xAC, 0xB4, 0x14, 0x10, 0x9F, 0x18, 0x9A, 0xDF, 0xBF, 0xE2, 0x44, 0x1D, 0x4C, 0xD3, 0x26, 0x73, 0xB9, 0xDC, 0x33, 0xCB, 0xE3, 0xD1, 0xEC,
  0xE1, 0x40, 0x00, 0xB9, 0xD5, 0xB0, 0x3F, 0x06, 0xFC, 0x15, 0x1F, 0xD1, 0x04, 0x1B, 0xF4, 0x02, 0xB7, 0xF8, 0xDC, 0x1D, 0x57, 0x6A, 0xE7, 0xE8, 0x35, 0x26, 0xF7, 0x81, 0xE5, 0xE9, 0x32, 0xC7, 0xE4, 0x30, 0x03, 0xB6, 0x27, 0x17, 0xD5, 0x05,
  0xE3, 0xE4, 0x5B, 0x26, 0x2E, 0x5C, 0x10, 0xE1, 0xC5, 0xE2, 0x32, 0xCF, 0x1B, 0x3B, 0xF8, 0xC2, 0xC5, 0x44, 0x01, 0x30, 0xF1, 0xF9, 0xDC, 0xA0, 0xF3, 0x56, 0xE1, 0x37, 0x09, 0xD2, 0x16, 0xF7, 0xB9, 0xA2, 0x32, 0xE8, 0x0C, 0x38, 0xB8, 0xB0,
  0xEC, 0xC9, 0x0A, 0x4B, 0x16, 0x1E, 0x60, 0x04, 0x17, 0xEB, 0xA6, 0x13, 0x1C, 0xF1, 0xD7, 0xEF, 0x0B, 0xDE, 0x6E, 0x32, 0x49, 0x03, 0x4E, 0x90, 0x4B, 0xF7, 0x2A, 0xC5, 0xFE, 0x81, 0xFA, 0xE9, 0x4F, 0xCC, 0x54, 0x08, 0x1F, 0xF7, 0xF0, 0xE8,
  0x25, 0xF1, 0xBC, 0x0B, 0x3C, 0x22, 0x00, 0x13, 0xFF, 0xFD, 0x24, 0x79, 0xC9, 0x4D, 0xBD, 0x2A, 0xEF, 0xEB, 0x44, 0xAC, 0x17, 0xBB, 0x07, 0x08, 0x33, 0x04, 0x3E, 0xF5, 0xD0, 0x0B, 0x0F, 0xAA, 0x2E, 0xF7, 0x9F, 0x83, 0x57, 0x70, 0x2A, 0xEB,
  0xCC, 0x05, 0xC5, 0x20, 0xFA, 0x55, 0xCD, 0xEE, 0x15, 0x4A, 0x19, 0x1A, 0xCB, 0xF2, 0x69, 0x5A, 0xE8, 0xD7, 0xE0, 0x0F, 0xEB, 0xAB, 0x19, 0x1C, 0xDD, 0x2B, 0x48, 0x15, 0x19, 0x81, 0xBA, 0xE1, 0xF1, 0x36, 0x5E, 0xF0, 0x18, 0x2F, 0x05, 0x09,
  0x4F, 0xF2, 0xE1, 0xBD, 0x3B, 0x00, 0xE9, 0x9B, 0x0A, 0x33, 0xCA, 0x10, 0xDB, 0xFB, 0xF2, 0x05, 0x02, 0x22, 0xBF, 0x49, 0xEA, 0xD4, 0x22, 0xC2, 0x1E, 0x4C, 0xDD, 0x12, 0xBB, 0x2B, 0xEC, 0x18, 0xF0, 0xF0, 0xA5, 0xEA, 0x5C, 0xA5, 0x0B, 0xDF,
  0x14, 0xF8, 0x03, 0xDD, 0xC2, 0xBC, 0x17, 0x12, 0xF4, 0x3A, 0xD5, 0xC2, 0x12, 0xCE, 0x1B, 0xDE, 0x20, 0x20, 0x22, 0x03, 0xDB, 0xFA, 0x10, 0xC0, 0xEA, 0xF7, 0xB7, 0x05, 0x04, 0xF3, 0x2D, 0x04, 0xFD, 0x33, 0xAD, 0x09, 0x0E, 0xEA, 0x0E, 0x31,
  0x14, 0xFD, 0xD2, 0x6A, 0xDC, 0x0E, 0x36, 0x2D, 0x18, 0x10, 0xDF, 0xDA, 0x1A, 0xE7, 0x2B, 0x5F, 0x16, 0x12, 0x01, 0x40, 0xE3, 0xDC, 0xFE, 0xFA, 0x11, 0xBD, 0x91, 0xF4, 0x01, 0xF1, 0x1A, 0x2C, 0x23, 0x5F, 0xBB, 0xE1, 0xE7, 0x81, 0xF6, 0x25,
  0x23, 0x1E, 0x0D, 0x9A, 0xD1, 0xF7, 0xF6, 0xCE, 0xE4, 0xE1, 0xC6, 0x81, 0x5E, 0x34, 0x1B, 0x4E, 0xB3, 0x54, 0x36, 0x59, 0xC1, 0xE1, 0x20, 0x01, 0x19, 0x6E, 0x37, 0x0E, 0x0A, 0xDF, 0x2D, 0xBE, 0x4E, 0x06, 0xC3, 0x1E, 0xAA, 0xBD, 0xBD, 0xBC,
  0xDF, 0x1A, 0xBB, 0xAF, 0xE7, 0xD8, 0xFD, 0x86, 0x23, 0x4A, 0xE0, 0x0B, 0x5A, 0x15, 0x64, 0x56, 0xED, 0xE7, 0x16, 0x66, 0xDF, 0x01, 0x3B, 0xBB, 0xCE, 0x1F, 0xCB, 0x09, 0x25, 0x05, 0x1F, 0x06, 0x5A, 0xC9, 0xCC, 0xEA, 0xC5, 0x05, 0xBB, 0x14,
  0x2F, 0x15, 0x13, 0xFB, 0x4B, 0x0E, 0xE7, 0x0A, 0xEE, 0x24, 0x48, 0xFF, 0x0D, 0xD1, 0x26, 0xB3, 0xE2, 0xD9, 0x3E, 0x46, 0x5D, 0x3A, 0x41, 0xCD, 0x0D, 0x26, 0xBB, 0xFD, 0xEF, 0x16, 0x39, 0xBF, 0x0B, 0x28, 0xF7, 0x2F, 0xEF, 0xD4, 0x20, 0x37,
  0x34, 0xDE, 0xFD, 0xCD, 0x35, 0x1F, 0x20, 0x1A, 0xD2, 0xE0, 0x7D, 0x40, 0xB9, 0xE7, 0x13, 0xEA, 0x19, 0xC8, 0x43, 0x03, 0xEB, 0xEE, 0xF6, 0xDA, 0x12, 0x29, 0xFC, 0x3D, 0xEA, 0xE9, 0xFB, 0xD1, 0x7F, 0xDA, 0x67, 0x99, 0x24, 0xCB, 0x4F, 0xD1,
  0x52, 0x28, 0xF9, 0x2F, 0xF8, 0xFC, 0xE0, 0xDB, 0xDE, 0xED, 0x2E, 0x03, 0xE8, 0xE8, 0xC2, 0xE1, 0x34, 0x5F, 0x03, 0x03, 0x20, 0x0F, 0xE9, 0xEA, 0xE9, 0x00, 0xEB, 0x2A, 0xEF, 0x03, 0xF0, 0xFE, 0x17, 0x5A, 0x07, 0x29, 0xFD, 0xBD, 0xDF, 0xFF,
  0xEA, 0xD2, 0x11, 0xF8, 0x13, 0x06, 0x06, 0xD8, 0x05, 0xF2, 0xED, 0x31, 0xFD, 0xD5, 0xF7, 0xCA, 0x04, 0x0A, 0x01, 0x48, 0xCC, 0xD3, 0x04, 0xDA, 0xFD, 0x2F, 0x81, 0x25, 0xF4, 0x35, 0x3B, 0xE1, 0x28, 0xE0, 0xE0, 0x27, 0xDD, 0x21, 0x2D, 0xDB,
  0x30, 0x38, 0x23, 0xE1, 0xD8, 0x71, 0xE4, 0x8D, 0xDC, 0xD0, 0x1F, 0xEF, 0xD1, 0xFD, 0xC4, 0xCF, 0x1F, 0x0A, 0xB0, 0x2A, 0xCC, 0xC0, 0x27, 0xF1, 0xF2, 0xDE, 0x32, 0xE3, 0xBE, 0xBB, 0xE4, 0xC6, 0xD1, 0x30, 0x39, 0xD5, 0xD9, 0x40, 0x4F, 0x20,
  0x27, 0x57, 0x0E, 0x05, 0xC5, 0xDE, 0x16, 0x9D, 0x29, 0x55, 0x3B, 0x2A, 0xE1, 0x20, 0x48, 0xF7, 0xB6, 0xC7, 0x3D, 0xE0, 0x43, 0xDF, 0xDF, 0x63, 0xB2, 0x1F, 0x16, 0x0A, 0xF3, 0x1B, 0xF2, 0x7F, 0xDE, 0xC2, 0x7D, 0xF1, 0x1D, 0x36, 0x45, 0xF0,
  0x17, 0xB2, 0x81, 0xB6, 0xD2, 0xC8, 0x97, 0x11, 0x35, 0x4D, 0xCB, 0xEC, 0x98, 0x0A, 0x98, 0x26, 0x1F, 0x02, 0x93, 0x17, 0x45, 0x39, 0x39, 0xFE, 0x3E, 0x4C, 0x17, 0x08, 0x06, 0xDA, 0xEC, 0x0F, 0xF1, 0x35, 0xB4, 0xE6, 0x06, 0xF7, 0xFF, 0xEB,
  0x09, 0x1D, 0x35, 0xF2, 0x3E, 0x30, 0x01, 0x1C, 0xD9, 0xD9, 0xF9, 0xE2, 0x23, 0x68, 0xF8, 0xD1, 0x36, 0xEE, 0x3F, 0xBE, 0x43, 0xE6, 0x28, 0x03, 0xF8, 0xDA, 0x23, 0x22, 0xE6, 0x07, 0xAA, 0xED, 0x21, 0xCB, 0xCA, 0xC1, 0x58, 0x40, 0xEB, 0xE0,
  0x0B, 0x15, 0x1E, 0x0C, 0xF9, 0x37, 0x36, 0x97, 0x24, 0xD6, 0x14, 0x2A, 0xDC, 0x11, 0xED, 0xE5, 0x0E, 0xF3, 0xE3, 0x1C, 0xE5, 0xDE, 0x40, 0xFA, 0xCE, 0xE7, 0x20, 0xC3, 0xFB, 0x4D, 0xB2, 0xB7, 0x26, 0x00, 0xFA, 0x0E, 0xB1, 0x1E, 0xEA, 0xEA,
  0xFD, 0x09, 0xF5, 0x3C, 0x15, 0xDA, 0xFF, 0xAD, 0x4E, 0xE3, 0xF0, 0x40, 0x0E, 0xFE, 0xDD, 0x1C, 0x18, 0x1D, 0x1E, 0x40, 0x81, 0x02, 0x10, 0xC4, 0x31, 0xF3, 0xCB, 0x1D, 0x23, 0x42, 0xE0, 0x2A, 0xEC, 0xE2, 0xC1, 0x2E, 0xD3, 0x09, 0x2C, 0xF9,
  0x1E, 0x49, 0x59, 0x7A, 0xF1, 0x2E, 0xFC, 0x2C, 0x0D, 0x23, 0xD8, 0x1E, 0x7B, 0xE2, 0x05, 0xC3, 0xD2, 0x5B, 0x70, 0x7F, 0xC4, 0xD9, 0xB4, 0x36, 0xBC, 0xA6, 0x4A, 0xBA, 0x3E, 0x15, 0x9A, 0x1E, 0xDE, 0x3A, 0xE8, 0xBF, 0x1A, 0x09, 0x0C, 0x87,
  0xCF, 0xF3, 0x22, 0x0F, 0x0C, 0x1B, 0xF5, 0xF4, 0xF9, 0x01, 0xD4, 0x09, 0x1D, 0xA3, 0x51, 0xC4, 0xCD, 0xCA, 0x94, 0x7A, 0x15, 0x0E, 0x08, 0x32, 0x3A, 0xFA, 0x8D, 0x1B, 0x18, 0x58, 0xF0, 0x9C, 0xAB, 0xDF, 0xC5, 0x36, 0xCF, 0x2C, 0xE6, 0xC3,
  0xE5, 0xE7, 0xFA, 0x3A, 0x12, 0x15, 0xF9, 0xE1, 0xA6, 0x38, 0x23, 0xE5, 0x0A, 0x22, 0xF0, 0x2C, 0xD3, 0x20, 0xA8, 0x51, 0x0C, 0x66, 0x60, 0x22, 0xD0, 0x0C, 0xF1, 0xEE, 0x1F, 0x19, 0x15, 0xD2, 0xE2, 0xF1, 0x25, 0x1E, 0x0B, 0x17, 0xFD, 0xFA,
  0xAC, 0x1B, 0xE1, 0x24, 0xA7, 0x32, 0xCE, 0xC9, 0x96, 0xE4, 0xD3, 0x04, 0xF1, 0xDE, 0xC5, 0x0D, 0xCC, 0xE9, 0xC1, 0xE8, 0xC3, 0xEE, 0x10, 0xE1, 0xED, 0x15, 0xF9, 0xB9, 0x26, 0x19, 0xB4, 0xF5, 0xDF, 0xBB, 0xDE, 0x07, 0xDB, 0xF9, 0x81, 0xAD,
  0x02, 0x13, 0x2F, 0xF7, 0xAC, 0x17, 0x09, 0x02, 0x2C, 0x50, 0x06, 0x54, 0x7F, 0xE4, 0x1B, 0x33, 0x20, 0xCD, 0x1F, 0xC8, 0x1B, 0xCD, 0xDD, 0xD1, 0xE3, 0x34, 0xEB, 0x63, 0x25, 0xEE, 0x62, 0x2E, 0x05, 0x07, 0x15, 0x46, 0x2C, 0x10, 0x04, 0x31,
  0x36, 0x3F, 0x1E, 0xFC, 0xFA, 0x7A, 0x10, 0xF2, 0x2B, 0xEC, 0xD3, 0x2C, 0x4F, 0x1A, 0x45, 0x28, 0xC3, 0xEB, 0xEA, 0x61, 0x59, 0xDB, 0x2D, 0x26, 0xBE, 0x23, 0x01, 0xF4, 0xFD, 0x9E, 0xF3, 0x77, 0xE7, 0xF7, 0xE0, 0x14, 0xF3, 0xB9, 0x01, 0x3B,
  0x52, 0xCF, 0xFF, 0xFF, 0x04, 0x00, 0x00, 0x00, 0x00, 0x05, 0x00, 0x00, 0x17, 0x04, 0xEF, 0x18, 0xFD, 0x0E, 0x44, 0x12, 0x1F, 0xDE, 0xCA, 0x2A, 0x2E, 0xD1, 0x12, 0x02, 0xAF, 0x08, 0x30, 0xE6, 0x54, 0x2D, 0x14, 0x35, 0x39, 0xED, 0x9F, 0x5A,
  0x3C, 0x13, 0x0A, 0xE6, 0xEA, 0xE9, 0x7F, 0x1B, 0xF3, 0x01, 0x03, 0xDA, 0xF0, 0xEC, 0x05, 0x55, 0x1D, 0xFF, 0x22, 0x1B, 0x0C, 0x11, 0x29, 0xE6, 0x31, 0xFE, 0xD6, 0x41, 0xD5, 0x2E, 0xBD, 0x31, 0x43, 0xE0, 0x04, 0xE2, 0x0D, 0x05, 0x2E, 0x57,
  0x17, 0x24, 0x2D, 0xE5, 0x97, 0xE1, 0xD1, 0x30, 0x1E, 0xE6, 0xCF, 0x28, 0x1F, 0x69, 0xAA, 0x18, 0xAB, 0xE3, 0x0F, 0x32, 0x31, 0x96, 0xBE, 0x20, 0xE2, 0x2F, 0xE1, 0xBB, 0x30, 0x1B, 0x08, 0xDA, 0xF4, 0xD9, 0xA0, 0xFE, 0x8C, 0x58, 0x2D, 0xDB,
  0x26, 0x11, 0x38, 0x09, 0xCF, 0xC8, 0xAB, 0x40, 0xA0, 0xB5, 0xA5, 0xF9, 0x11, 0x16, 0x12, 0xD1, 0xEE, 0x2D, 0xCE, 0xBA, 0xFB, 0xEC, 0xB2, 0x11, 0x0F, 0x81, 0xBF, 0xFE, 0xBE, 0xC9, 0x0F, 0xD9, 0xCB, 0xAB, 0x0F, 0x2D, 0xD1, 0x36, 0xC2, 0xD7,
  0x20, 0xAB, 0x1D, 0xDA, 0x1C, 0xDF, 0x9C, 0x0F, 0x87, 0x46, 0x05, 0x9F, 0x44, 0xD9, 0x12, 0x28, 0x06, 0xBB, 0xE1, 0xFC, 0xCB, 0xD1, 0x0D, 0xDA, 0x1B, 0x0C, 0x33, 0x16, 0x17, 0x03, 0xEC, 0xF6, 0xCF, 0x1F, 0x0B, 0x0D, 0xC5, 0xB7, 0xCE, 0x81,
  0x09, 0x06, 0x00, 0xF0, 0xE0, 0x2A, 0x04, 0x06, 0xED, 0x20, 0x3A, 0xC2, 0xD3, 0x04, 0xE5, 0xBA, 0x0E, 0xF3, 0x00, 0xDA, 0x19, 0x37, 0xEB, 0xE0, 0xFB, 0x0E, 0xF5, 0x30, 0x1A, 0xD4, 0xE9, 0xFB, 0xF1, 0xD4, 0x02, 0xF3, 0xEA, 0x1E, 0xEC, 0xE2,
  0xA3, 0x05, 0xE8, 0xF6, 0xDC, 0xC4, 0xA4, 0xEC, 0x04, 0xDA, 0x03, 0xED, 0xF0, 0x0D, 0x0F, 0xF7, 0x32, 0x0F, 0x4F, 0x17, 0xA7, 0x26, 0x1E, 0xDF, 0xF2, 0x28, 0xF0, 0x19, 0xF5, 0x12, 0xE5, 0x2D, 0x08, 0x23, 0x39, 0x24, 0xE7, 0x57, 0x11, 0xCE,
  0x2D, 0x29, 0x01, 0xDA, 0x04, 0x4F, 0xAB, 0x69, 0x42, 0x00, 0xD1, 0x02, 0x0A, 0x4B, 0x31, 0xF8, 0x45, 0x22, 0xFA, 0xAD, 0xD3, 0xF9, 0xF8, 0x7F, 0x12, 0x02, 0x5B, 0x40, 0x0D, 0x08, 0xB2, 0x5F, 0x2B, 0x29, 0x99, 0x39, 0xB2, 0xE5, 0xB5, 0x5F,
  0x41, 0xDE, 0xBC, 0xE4, 0x2A, 0xEE, 0x18, 0x13, 0xFB, 0x18, 0x9D, 0x2E, 0xEE, 0xEC, 0x8F, 0x04, 0xF3, 0xF8, 0xCA, 0xD6, 0xF7, 0x16, 0x05, 0xE8, 0xCE, 0xFF, 0xAC, 0x16, 0x69, 0x23, 0xF5, 0xF7, 0xB4, 0x09, 0xD5, 0x81, 0xED, 0x34, 0xEA, 0xE5,
  0xDF, 0xAF, 0xAC, 0x53, 0x26, 0x01, 0xBF, 0x19, 0x15, 0x19, 0x1E, 0xAB, 0xA4, 0xAF, 0xCB, 0xDD, 0xA5, 0xE5, 0xE2, 0xFF, 0x47, 0x0C, 0xCF, 0x06, 0xE5, 0xFD, 0xFA, 0xD3, 0xCF, 0x0D, 0x2C, 0xE2, 0xD9, 0xF3, 0xBB, 0x1E, 0x01, 0x4A, 0xF8, 0xF6,
  0xFA, 0xC7, 0x2A, 0xF1, 0x93, 0xCD, 0x2A, 0xC6, 0xFA, 0x34, 0x1E, 0xEB, 0xC5, 0x72, 0x16, 0xC0, 0x1F, 0xAE, 0x3C, 0xE8, 0xE2, 0xB8, 0xF2, 0x4C, 0x00, 0x3D, 0xC1, 0x05, 0xBA, 0xDA, 0x09, 0x44, 0xDD, 0xDB, 0x59, 0xED, 0xB2, 0xFE, 0x5C, 0x28,
  0x1A, 0xF3, 0xDB, 0x3B, 0xB6, 0x57, 0xF1, 0x10, 0x2E, 0xF2, 0xDB, 0x70, 0xBD, 0x4F, 0x44, 0xCE, 0x4C, 0x2A, 0xC1, 0x26, 0xE3, 0x32, 0xF6, 0x35, 0xD3, 0xE4, 0xD1, 0x4D, 0x48, 0x09, 0xB4, 0x7F, 0x36, 0xD9, 0xAC, 0xF2, 0xFA, 0xDA, 0xA4, 0x17,
  0x39, 0x32, 0x3A, 0x64, 0xD5, 0x31, 0x38, 0x06, 0x2D, 0xFF, 0xF0, 0xF6, 0x2A, 0x1E, 0xE9, 0xE6, 0x34, 0xF3, 0xE9, 0xFE, 0xC7, 0x43, 0x50, 0xF7, 0xFD, 0x24, 0xF9, 0x93, 0xA8, 0xBE, 0xF5, 0x3B, 0x0D, 0xA2, 0xD9, 0xEE, 0xB3, 0x1C, 0xFF, 0x8E,
  0x29, 0x33, 0xF3, 0xF2, 0xBB, 0x10, 0xCD, 0xD0, 0xE7, 0xE1, 0x3D, 0x27, 0xAF, 0xAF, 0x81, 0xCC, 0xCB, 0xB9, 0xCE, 0x04, 0xF9, 0x37, 0x3B, 0x43, 0xA5, 0x42, 0x06, 0x5A, 0xD7, 0x65, 0xFB, 0xF2, 0x00, 0x16, 0x95, 0xC3, 0x1D, 0x2B, 0x7E, 0xE5,
  0xC6, 0x3B, 0x2D, 0x24, 0x0A, 0x12, 0xD3, 0x1A, 0x10, 0x22, 0xF7, 0x44, 0x3E, 0x06, 0x06, 0x16, 0x1C, 0xA8, 0xCB, 0xEB, 0xF5, 0x45, 0x16, 0xB4, 0x05, 0x07, 0x55, 0xED, 0x3E, 0xDB, 0xE4, 0xFC, 0x17, 0xAD, 0x17, 0xD9, 0xD7, 0x02, 0x44, 0xCF,
  0xCC, 0xF5, 0xEA, 0xFB, 0x16, 0xEA, 0x81, 0xE5, 0xFB, 0x02, 0x06, 0xE7, 0xD4, 0x47, 0x41, 0xAA, 0xF8, 0x14, 0x50, 0x09, 0xCB, 0x81, 0x08, 0xE8, 0xEB, 0x1F, 0x39, 0xB6, 0x3A, 0xDA, 0x30, 0xBE, 0xFA, 0x22, 0x29, 0x1F, 0x1D, 0x03, 0xBC, 0xAF,
  0x14, 0x2F, 0xAD, 0x8D, 0x10, 0x13, 0x25, 0xAD, 0x23, 0x1F, 0x69, 0x12, 0xED, 0x38, 0x0C, 0x0F, 0xF1, 0x15, 0x4D, 0xC0, 0xFE, 0xF0, 0x24, 0x2A, 0xD1, 0xD5, 0xD4, 0xF1, 0x2E, 0xE3, 0x3C, 0x03, 0x04, 0xBE, 0xD2, 0xF2, 0xDC, 0x0C, 0x4D, 0xF2,
  0xAA, 0x1A, 0xB2, 0xD6, 0x30, 0xD3, 0x04, 0xEB, 0xDE, 0xB0, 0xFF, 0xBE, 0x0A, 0xEE, 0xE6, 0xC5, 0xD8, 0x07, 0xD4, 0xFE, 0xB1, 0xF9, 0xF7, 0xDB, 0xDD, 0xF9, 0xF6, 0xD7, 0xC6, 0xC3, 0xF5, 0xE6, 0xAA, 0x08, 0xCD, 0xDC, 0x04, 0xE0, 0x4D, 0x0B,
  0x14, 0xE1, 0x2A, 0x16, 0xE4, 0x81, 0xAF, 0xBF, 0x01, 0x0A, 0xE3, 0xD9, 0x20, 0x1E, 0x43, 0x93, 0xC9, 0xE0, 0xC1, 0xFB, 0x04, 0xD2, 0xF9, 0x0E, 0x29, 0x1A, 0xC1, 0xF1, 0x46, 0xE0, 0xB9, 0xC1, 0xFD, 0xDF, 0xD1, 0x5D, 0xCF, 0x11, 0x2A, 0xBD,
  0x02, 0x02, 0xAF, 0xB8, 0xCE, 0x02, 0xE6, 0x15, 0x4A, 0x53, 0xEE, 0xDC, 0x61, 0x22, 0xF4, 0x0B, 0x17, 0x19, 0xB4, 0xA6, 0x57, 0x08, 0x53, 0x0C, 0x7F, 0x46, 0xD1, 0x20, 0x3B, 0x50, 0xB6, 0x20, 0xE8, 0x22, 0xDE, 0x0E, 0xEF, 0xFD, 0x29, 0xC9,
  0xED, 0xCE, 0x12, 0x5B, 0xDA, 0xDB, 0xE3, 0xDE, 0x5C, 0xF5, 0x3D, 0xD0, 0x9F, 0xDF, 0x15, 0xED, 0xFB, 0xFF, 0x4C, 0x07, 0x29, 0xE8, 0x31, 0x28, 0xB1, 0x63, 0x91, 0xE6, 0x00, 0xC2, 0x41, 0x2E, 0xE3, 0x9F, 0x3A, 0x52, 0xB8, 0x15, 0xE2, 0xB8,
  0xCD, 0x78, 0xBD, 0xC0, 0xC4, 0x66, 0xEC, 0xDD, 0xC6, 0xFD, 0xDC, 0xF3, 0xC8, 0x81, 0x32, 0xC4, 0x31, 0x75, 0xD4, 0xD4, 0x13, 0xCE, 0xDF, 0x55, 0xFC, 0x85, 0x0C, 0x40, 0x03, 0x69, 0x27, 0xA7, 0xD8, 0xEE, 0xB3, 0x02, 0xEC, 0x3C, 0x14, 0x19,
  0xDE, 0xCE, 0x97, 0x21, 0x29, 0xF8, 0x24, 0xBA, 0xF6, 0x58, 0xA3, 0xC3, 0xDB, 0xEE, 0xA0, 0xDF, 0xEE, 0x91, 0xC3, 0xFA, 0xF0, 0xF0, 0xD1, 0x31, 0xF0, 0x54, 0xFD, 0x12, 0x11, 0xFC, 0xD3, 0x33, 0x5D, 0xB5, 0x1F, 0xE3, 0xFF, 0x0D, 0xA4, 0x13,
  0x53, 0x12, 0xBE, 0xE6, 0x31, 0xEA, 0x3B, 0x70, 0x2A, 0xDA, 0xD4, 0xBC, 0x00, 0x5A, 0xFF, 0xC9, 0xED, 0x7F, 0x03, 0x57, 0x02, 0x33, 0xC7, 0x00, 0x35, 0x4E, 0xCF, 0xFC, 0xD3, 0x73, 0x36, 0xFD, 0x04, 0x45, 0xC1, 0x23, 0xA4, 0x1B, 0xA6, 0xF5,
  0x1C, 0x10, 0x91, 0xB7, 0x28, 0x09, 0x13, 0xCE, 0xCF, 0x17, 0x25, 0xEF, 0x17, 0xFF, 0xE5, 0x7F, 0x0C, 0xC9, 0x2B, 0xB8, 0xDC, 0x0C, 0x0B, 0xF2, 0x7C, 0x19, 0xC8, 0x17, 0x9E, 0x26, 0x49, 0x1A, 0xF8, 0xF2, 0xE4, 0xFC, 0xB4, 0x1B, 0xCA, 0x42,
  0x10, 0x36, 0x34, 0xC5, 0xEA, 0x47, 0x1C, 0x22, 0x18, 0x26, 0xFA, 0xF5, 0xEF, 0x2E, 0x21, 0xB4, 0x1E, 0x41, 0x22, 0xF3, 0x06, 0xC1, 0xFE, 0xDF, 0xB5, 0x05, 0x2B, 0x11, 0xDD, 0xAB, 0x1E, 0xF0, 0xC4, 0xC2, 0x1B, 0xC8, 0xD4, 0x14, 0xE8, 0xD2,
  0xEB, 0xDE, 0x11, 0x1D, 0x00, 0x35, 0xA5, 0x2F, 0x0C, 0xF0, 0xB2, 0xAF, 0x25, 0x08, 0x5A, 0x1F, 0xBA, 0xEB, 0xE0, 0xEB, 0x0B, 0xD7, 0x09, 0x40, 0x0C, 0x36, 0x2B, 0x99, 0xED, 0x12, 0x0D, 0x1B, 0x03, 0x8C, 0x11, 0xF8, 0x27, 0x98, 0x5B, 0x50,
  0x12, 0xEF, 0xD6, 0xEC, 0x27, 0xF7, 0xF8, 0x45, 0x1D, 0xE6, 0xFE, 0x09, 0xD9, 0xCC, 0x2D, 0xFE, 0x59, 0xEE, 0x27, 0x5D, 0x19, 0xC5, 0xC5, 0xF6, 0x2C, 0xC7, 0xE6, 0x59, 0x24, 0x9E, 0xDA, 0x19, 0xDC, 0xD5, 0x23, 0xC5, 0x57, 0xD4, 0xBE, 0x34,
  0xD7, 0xEE, 0xEF, 0x7F, 0x0F, 0xE2, 0xC6, 0xD7, 0xDF, 0xE2, 0x02, 0xC0, 0xBF, 0x0B, 0x98, 0xED, 0x25, 0x90, 0x05, 0x19, 0x14, 0xDE, 0x96, 0xC2, 0x0D, 0x8B, 0x41, 0x03, 0xEF, 0x57, 0x0C, 0xD7, 0x0D, 0xA7, 0x81, 0xC6, 0x42, 0xC6, 0x32, 0xE7,
  0x12, 0x1F, 0x8D, 0x29, 0xEB, 0xA4, 0xC5, 0x3C, 0xEB, 0xF6, 0x0C, 0xC0, 0x07, 0xE6, 0x23, 0x35, 0x59, 0xB1, 0x16, 0x5C, 0x6B, 0x0E, 0xE6, 0x0A, 0xF3, 0x82, 0xFE, 0x00, 0xD1, 0x4A, 0xC3, 0x1B, 0x29, 0x1F, 0x18, 0xE9, 0x51, 0x2B, 0x3E, 0x2F,
  0x32, 0xFB, 0x9E, 0xDF, 0xB8, 0xB8, 0x0F, 0x58, 0x47, 0x69, 0xD6, 0x51, 0x54, 0x23, 0x4B, 0xB6, 0xD5, 0xC9, 0xEC, 0xDD, 0x1C, 0xEC, 0x03, 0xAA, 0xFB, 0x1F, 0x0D, 0x57, 0x07, 0xE6, 0x17, 0x0E, 0x0B, 0x15, 0xC5, 0x1E, 0xD1, 0x1E, 0xAE, 0x98,
  0x08, 0xE0, 0xEE, 0x7F, 0xB2, 0x20, 0xDA, 0xD0, 0xAC, 0xF1, 0xC3, 0x1D, 0xDD, 0xD3, 0xD6, 0xB6, 0x01, 0xBB, 0xFA, 0x5E, 0xCC, 0xF9, 0x2B, 0xB5, 0x1E, 0x11, 0x9A, 0xCD, 0xFA, 0xFF, 0x06, 0xC1, 0x06, 0xCE, 0xD3, 0x0B, 0xE1, 0x1C, 0x10, 0xB5,
  0x3D, 0xC4, 0x01, 0x33, 0x45, 0x19, 0x26, 0xB6, 0x00, 0x45, 0x07, 0xF0, 0x5E, 0xD4, 0xFF, 0xFF, 0x04, 0x00, 0x00, 0x00, 0x80, 0x07, 0x00, 0x00, 0x6B, 0xB6, 0x5D, 0xBD, 0x22, 0x49, 0x03, 0x3E, 0xA7, 0xE7, 0xC8, 0x3E, 0x01, 0x15, 0x74, 0x3D,
  0x2C, 0xB9, 0x9F, 0xBE, 0x88, 0x0C, 0xCB, 0x3C, 0x39, 0xD4, 0x03, 0xBC, 0xB6, 0x87, 0xA0, 0xBE, 0x4B, 0xCA, 0x12, 0xBE, 0xA0, 0xFB, 0x7F, 0xBE, 0x45, 0x15, 0x53, 0xBC, 0x35, 0x4F, 0x14, 0xBF, 0xF0, 0x17, 0xD6, 0xBE, 0x14, 0xE6, 0xF5, 0xBD,
  0x34, 0xCD, 0x3C, 0x3E, 0xC4, 0x0D, 0x47, 0xBE, 0x00, 0x3E, 0xB6, 0x3E, 0xD7, 0xE6, 0x29, 0x3D, 0xDB, 0xBF, 0xF4, 0x3B, 0x6A, 0x92, 0xA4, 0xBE, 0xFC, 0xE5, 0x0B, 0xBF, 0x13, 0x67, 0x64, 0xBE, 0x25, 0x8E, 0xFE, 0x3E, 0x04, 0x81, 0x14, 0xBE,
  0x20, 0xC6, 0xF1, 0xBD, 0xAB, 0x71, 0x2B, 0xBE, 0xA0, 0x37, 0x0D, 0x3E, 0x55, 0x0A, 0x8A, 0xBE, 0x52, 0x41, 0x83, 0x3D, 0x80, 0x8C, 0x37, 0xBC, 0xB2, 0x2B, 0x44, 0xBD, 0xA9, 0x6A, 0xA6, 0x3E, 0x0F, 0x8B, 0xB3, 0x3D, 0x59, 0x69, 0x19, 0x3E,
  0x77, 0x13, 0x9C, 0x3E, 0xEE, 0x1A, 0xF8, 0xBD, 0x66, 0xBB, 0x0E, 0xBE, 0x8A, 0x80, 0x99, 0xBE, 0x0C, 0xD3, 0x17, 0xBE, 0x70, 0x25, 0x73, 0x3C, 0x69, 0x75, 0x22, 0x3E, 0x63, 0x4D, 0x5F, 0x3E, 0x05, 0xFA, 0x29, 0xBD, 0xA5, 0xF7, 0x05, 0x3F,
  0xEB, 0xC7, 0x03, 0xBD, 0x32, 0x5A, 0x9D, 0x3C, 0xC8, 0x5E, 0x4E, 0xBC, 0x59, 0x2C, 0xB6, 0xBE, 0x85, 0xA1, 0xD6, 0x3C, 0x14, 0xFF, 0xE5, 0xBE, 0x7E, 0xD5, 0x62, 0x3E, 0xEA, 0xDB, 0x95, 0xBE, 0x3B, 0x55, 0xF3, 0x3D, 0x8D, 0x92, 0x5C, 0x3E,
  0x8C, 0x20, 0xB0, 0x3E, 0xFC, 0xAA, 0xE2, 0x3E, 0x3D, 0xDB, 0x94, 0xBD, 0x71, 0xF4, 0xC5, 0xBD, 0x5C, 0xC2, 0xE3, 0xBC, 0x62, 0xFE, 0xD7, 0x3E, 0x91, 0x44, 0x9E, 0xBE, 0xBD, 0x9A, 0x52, 0xBE, 0x1D, 0x65, 0xAC, 0xBE, 0xFD, 0x5F, 0x24, 0x3E,
  0x35, 0x92, 0x1F, 0x3E, 0x40, 0xF4, 0x98, 0xBC, 0x52, 0xD4, 0x0B, 0xBE, 0xCA, 0x92, 0x59, 0xBE, 0x94, 0x69, 0xBA, 0xBE, 0x32, 0xBB, 0x09, 0x3E, 0x65, 0xBD, 0x60, 0x3C, 0x2B, 0x27, 0x10, 0x3E, 0x42, 0xA0, 0x76, 0x3E, 0x73, 0xC7, 0x74, 0x3E,
  0x16, 0xD3, 0xF4, 0xBD, 0x84, 0xC3, 0x0C, 0x3D, 0x12, 0xB9, 0x86, 0xBE, 0x0B, 0xD5, 0x53, 0x3E, 0x9A, 0xC6, 0x04, 0xBF, 0xA0, 0xBB, 0x27, 0x3E, 0xD7, 0xDE, 0x80, 0xBE, 0x7B, 0xF6, 0x50, 0x3E, 0x7D, 0x7B, 0x1D, 0xBE, 0x2D, 0x7B, 0xDF, 0x3D,
  0x8B, 0x61, 0x1A, 0xBF, 0xB7, 0xB3, 0x9C, 0xBE, 0xDA, 0xE1, 0x93, 0xBE, 0x4C, 0xCA, 0x73, 0xBE, 0x69, 0xEE, 0x9B, 0xBE, 0xCE, 0x74, 0xBE, 0x3E, 0x96, 0x3E, 0x43, 0xBC, 0xD5, 0xB3, 0x2F, 0x3C, 0xDA, 0x46, 0x87, 0x3D, 0x44, 0x61, 0x3F, 0xBE,
  0x0C, 0x85, 0xCD, 0x3E, 0x6D, 0x99, 0x10, 0x3F, 0xDA, 0x5F, 0x01, 0x3E, 0x38, 0x06, 0xA2, 0x3D, 0xDD, 0x47, 0xB3, 0xBE, 0xEA, 0xB7, 0x4B, 0x3E, 0xDF, 0x1F, 0xE5, 0xBD, 0x35, 0x3E, 0x80, 0xBE, 0xD5, 0x6A, 0xA5, 0xBE, 0x94, 0xF1, 0x01, 0x3F,
  0x40, 0x4A, 0xEF, 0x3E, 0xA4, 0x77, 0x5E, 0xBE, 0x06, 0x55, 0xB0, 0xBE, 0x2D, 0x1B, 0x95, 0x3E, 0x63, 0x6B, 0x20, 0x3E, 0xE7, 0x72, 0x85, 0xBE, 0x66, 0xFD, 0xC0, 0xBE, 0xB2, 0xD1, 0x85, 0x3E, 0x0C, 0x9D, 0x10, 0x3E, 0x67, 0x49, 0xEA, 0x3E,
  0x50, 0xC9, 0x38, 0x3E, 0x1C, 0xD2, 0x04, 0x3E, 0x42, 0x78, 0xFA, 0x3B, 0x4E, 0x26, 0x52, 0x3B, 0x82, 0x9E, 0x09, 0x3D, 0x0B, 0x33, 0x94, 0xBE, 0x62, 0xFF, 0x41, 0xBE, 0x80, 0x38, 0xF4, 0xBD, 0xC1, 0xD2, 0xF9, 0x3C, 0x6F, 0xD0, 0x1F, 0x3E,
  0xD9, 0x7D, 0x2B, 0x3E, 0x94, 0x3B, 0x1F, 0xBD, 0xCA, 0x2B, 0xE0, 0xBE, 0x70, 0xAF, 0xDC, 0x3E, 0x12, 0xEA, 0x9B, 0xBE, 0x04, 0xAC, 0x2A, 0x3E, 0xD0, 0x06, 0x8E, 0xBE, 0xD1, 0x14, 0x9A, 0x3E, 0xF4, 0x09, 0xB9, 0x3D, 0x0B, 0xAF, 0x97, 0xBE,
  0x7D, 0x15, 0x7F, 0xBE, 0xF2, 0x7A, 0xCB, 0x3E, 0x10, 0x96, 0x60, 0x3E, 0x6A, 0xD0, 0x19, 0xBF, 0xF6, 0x21, 0x28, 0x3E, 0xB7, 0x76, 0xDD, 0xBE, 0x7B, 0x2D, 0x87, 0x3E, 0x56, 0x89, 0x03, 0xBF, 0x4D, 0x86, 0x2B, 0xBE, 0xC0, 0x65, 0xE2, 0x3C,
  0x39, 0xEB, 0xA7, 0x3D, 0x30, 0x06, 0xD8, 0xBE, 0x32, 0x4A, 0x81, 0x3E, 0x07, 0x9A, 0x89, 0xBE, 0xDE, 0x5C, 0x37, 0x3D, 0xF8, 0x06, 0x84, 0x3E, 0xDB, 0xD7, 0xD0, 0x3E, 0xE4, 0xBB, 0x9C, 0x3E, 0x96, 0xC1, 0xD8, 0xBD, 0xB1, 0x56, 0x9D, 0x3D,
  0xEF, 0xFD, 0x1B, 0x3C, 0x43, 0x63, 0x3F, 0xBD, 0x98, 0x73, 0x04, 0xBE, 0xAA, 0xAD, 0x7D, 0xBE, 0x22, 0xE2, 0x00, 0x3E, 0x48, 0x60, 0xEF, 0x3E, 0xB3, 0x3F, 0x5B, 0x3E, 0xD2, 0x3F, 0xCF, 0x3E, 0xC2, 0x2F, 0x1B, 0x3E, 0x74, 0x5E, 0xAF, 0xBD,
  0x4C, 0x05, 0xD0, 0xBE, 0xE3, 0xA5, 0x8A, 0x3D, 0x99, 0x8E, 0x8D, 0x3E, 0x1C, 0x28, 0x8B, 0x3E, 0xD4, 0x11, 0xD6, 0x3E, 0x79, 0xBD, 0x59, 0x3C, 0xA2, 0xE3, 0x93, 0x3E, 0xA2, 0x2C, 0x12, 0x3D, 0x17, 0xFC, 0xC2, 0x3E, 0x4F, 0x6E, 0x4F, 0xBE,
  0xEA, 0x06, 0x4D, 0x3E, 0xBF, 0xE2, 0x08, 0xBC, 0x8D, 0xEB, 0xFB, 0x3D, 0x56, 0xC4, 0x51, 0xBE, 0xF4, 0x08, 0x84, 0xBD, 0x8E, 0xEB, 0x2D, 0x3D, 0xC8, 0x54, 0x9E, 0xBE, 0x4B, 0xAD, 0xED, 0xBE, 0x3B, 0xA9, 0x90, 0x3E, 0x21, 0x89, 0x96, 0xBE,
  0x02, 0x79, 0xAE, 0xBE, 0x2F, 0xC3, 0x6A, 0xBD, 0xE6, 0x3C, 0x5D, 0x3E, 0xB5, 0xBD, 0xA2, 0x3E, 0xCF, 0xDE, 0x06, 0x3E, 0xA1, 0x99, 0x9B, 0xBD, 0x54, 0x89, 0x96, 0xBE, 0xF4, 0xF0, 0xA0, 0x3E, 0x1F, 0x68, 0x8E, 0x3D, 0x78, 0xC5, 0xBF, 0x3D,
  0x4A, 0x43, 0x78, 0xBD, 0xCB, 0x0C, 0xCD, 0xBD, 0xD6, 0x5F, 0xBB, 0xBC, 0xE3, 0x29, 0x8F, 0x3E, 0x53, 0x89, 0x52, 0xBD, 0x68, 0x91, 0xF7, 0xBC, 0x27, 0xDC, 0xCF, 0x3D, 0xA2, 0xD7, 0x46, 0xBD, 0x9E, 0x01, 0x52, 0xBE, 0xAF, 0xA9, 0xC1, 0x3E,
  0x81, 0x7F, 0x11, 0x3D, 0x65, 0x2E, 0x08, 0xBF, 0xFC, 0x66, 0x86, 0x3E, 0x04, 0x31, 0x6F, 0x3E, 0xDD, 0x76, 0xB2, 0xBD, 0xFC, 0x77, 0x72, 0xBE, 0x89, 0x19, 0x9D, 0xBE, 0xA0, 0xED, 0x25, 0x3C, 0x04, 0x94, 0x39, 0xBE, 0xC0, 0x70, 0x6D, 0x3E,
  0xA2, 0x04, 0x82, 0x3E, 0xB0, 0xA6, 0xFC, 0x3E, 0x5A, 0xEF, 0x04, 0xBE, 0x75, 0x4D, 0xC2, 0xBE, 0x97, 0x16, 0x15, 0x3E, 0x38, 0xC1, 0x82, 0xBE, 0x11, 0x5A, 0x13, 0x3F, 0xDB, 0xEB, 0x5E, 0xBD, 0xD7, 0xCF, 0x46, 0xBD, 0x98, 0x57, 0x20, 0xBE,
  0xFD, 0x86, 0xB5, 0x3E, 0x6A, 0xEB, 0x50, 0x3E, 0x2B, 0x3D, 0xAC, 0x3E, 0xC5, 0xDD, 0xEA, 0xBE, 0xA0, 0x7A, 0xFA, 0xBE, 0x28, 0xBF, 0x36, 0x3D, 0x17, 0xBF, 0xAD, 0xBA, 0x2B, 0x60, 0x13, 0xBE, 0xB2, 0x8D, 0x73, 0xBE, 0x87, 0xBF, 0x61, 0xBE,
  0xFE, 0x45, 0x89, 0xBE, 0x76, 0x9A, 0xD6, 0x3C, 0x1C, 0x77, 0xA1, 0x3B, 0x65, 0xC8, 0x10, 0xBE, 0x5D, 0xFA, 0x3C, 0x3E, 0xD4, 0x78, 0xF9, 0x3D, 0x8B, 0x8E, 0x25, 0xBD, 0xFF, 0x81, 0x05, 0x3E, 0x86, 0x08, 0x5B, 0x3D, 0x88, 0x16, 0x81, 0xBE,
  0xD6, 0x6D, 0x84, 0xBE, 0xC9, 0x74, 0x04, 0xBF, 0x37, 0xA7, 0x1C, 0xBE, 0x65, 0x2A, 0x85, 0x3B, 0xA3, 0x40, 0x31, 0x3E, 0x02, 0xD7, 0xA3, 0xBE, 0xCB, 0x49, 0xC5, 0x3D, 0xC6, 0x16, 0x7D, 0xBE, 0x6E, 0xEB, 0x01, 0x3E, 0xB2, 0x8B, 0xF5, 0x3D,
  0xC0, 0x9F, 0xF4, 0xBE, 0xEA, 0x69, 0x9F, 0x3D, 0xE6, 0x73, 0x52, 0xBD, 0xDD, 0x5A, 0xFE, 0xBE, 0x57, 0x18, 0x78, 0xBE, 0x9B, 0x33, 0xD5, 0x3E, 0xCB, 0x97, 0x92, 0x3E, 0xE4, 0x91, 0x8D, 0xBE, 0x44, 0xE6, 0x08, 0x3D, 0xF6, 0xEB, 0x35, 0xBE,
  0xB6, 0x4F, 0x6D, 0x3D, 0x8D, 0x58, 0x0B, 0x3F, 0x8C, 0x41, 0x4F, 0xBC, 0xA5, 0xB1, 0xE9, 0xBC, 0xA3, 0xD1, 0xBF, 0x3D, 0x64, 0xE9, 0xA6, 0xBE, 0xEE, 0x62, 0x82, 0xBE, 0xC2, 0x1E, 0x48, 0xBE, 0xD4, 0x6E, 0x28, 0xBD, 0xA0, 0x12, 0xF5, 0x3D,
  0x42, 0xEB, 0xF1, 0x3E, 0xC3, 0xDA, 0xD5, 0xBE, 0x55, 0x4B, 0x99, 0xBD, 0xD4, 0xD6, 0x6B, 0xBE, 0xC1, 0xF3, 0xB6, 0x3E, 0x95, 0x7D, 0x02, 0xBF, 0x2F, 0x5E, 0x11, 0xBE, 0x51, 0x39, 0xC1, 0x3D, 0x94, 0x29, 0x69, 0xBE, 0x4F, 0xAE, 0x52, 0xBE,
  0x82, 0x28, 0xC3, 0xBD, 0xC2, 0x5D, 0x24, 0xBD, 0x23, 0x58, 0x34, 0x3E, 0xF1, 0x08, 0xDF, 0x3D, 0x75, 0x35, 0x30, 0x3E, 0x36, 0x82, 0x02, 0x3F, 0xB8, 0xB6, 0x85, 0xBE, 0x9E, 0x8A, 0xF4, 0xBD, 0xF8, 0xB3, 0x43, 0x3E, 0x1B, 0x92, 0xDB, 0x3D,
  0x9B, 0xE9, 0x09, 0x3E, 0xB5, 0xF0, 0x13, 0x3F, 0x2C, 0x87, 0x9F, 0x3D, 0x5D, 0x66, 0xB5, 0x3E, 0x8E, 0x93, 0xC5, 0x3D, 0x50, 0x98, 0x06, 0x3D, 0x6D, 0x59, 0xBC, 0x3E, 0x5B, 0x6B, 0xA6, 0xBE, 0x59, 0x88, 0x73, 0xBE, 0x5F, 0xB0, 0x86, 0xBE,
  0x42, 0x55, 0x19, 0x3E, 0x7B, 0x83, 0xA5, 0xBC, 0x83, 0xB2, 0x0C, 0x3E, 0xA7, 0x0B, 0xC1, 0xBD, 0x0D, 0xDA, 0xDC, 0xBD, 0x77, 0x8D, 0xC7, 0x3D, 0xF7, 0x94, 0xB7, 0x3E, 0x17, 0xB9, 0xA7, 0x3C, 0xAC, 0xA9, 0x17, 0x3E, 0x13, 0x9C, 0x0D, 0x3E,
  0x90, 0xA8, 0xDB, 0x3C, 0xA4, 0x5F, 0xC1, 0x3E, 0x00, 0xF1, 0x36, 0x3B, 0x31, 0x97, 0xD6, 0xBE, 0x82, 0xD7, 0x14, 0x3E, 0x7B, 0x19, 0x81, 0x3E, 0x6D, 0xFB, 0x3D, 0x3E, 0xD7, 0xDD, 0xCF, 0xBC, 0x70, 0x8E, 0x48, 0x3E, 0xF8, 0x2F, 0xA9, 0xBE,
  0x66, 0x06, 0xB2, 0x3E, 0x12, 0xAE, 0x93, 0x3D, 0x9E, 0x9E, 0x34, 0x3D, 0x36, 0x16, 0x0B, 0xBD, 0x28, 0x11, 0xC7, 0xBE, 0x61, 0xA1, 0x36, 0x3D, 0xF2, 0x55, 0x32, 0x3E, 0x10, 0x3B, 0x9E, 0xBE, 0x72, 0x53, 0x33, 0x3E, 0xC7, 0x4B, 0x04, 0x3E,
  0x83, 0x22, 0xFF, 0x3D, 0x3A, 0x09, 0xB7, 0x3E, 0x46, 0xD6, 0x10, 0x3E, 0xF7, 0xDB, 0x26, 0xBE, 0xC1, 0x85, 0xE3, 0xBE, 0xB1, 0x64, 0x12, 0x3E, 0xB2, 0x26, 0x33, 0xBE, 0x74, 0xF2, 0x81, 0x3E, 0xAB, 0x72, 0xEA, 0xBE, 0xE7, 0x92, 0x15, 0x3F,
  0x96, 0x24, 0xB1, 0x3B, 0x98, 0x16, 0xA3, 0xBE, 0xE8, 0x52, 0x98, 0x3D, 0x19, 0xBC, 0x4F, 0x3E, 0x10, 0x00, 0x19, 0xBE, 0xF5, 0x10, 0xDA, 0xBD, 0xB2, 0xE2, 0x2D, 0xBD, 0x95, 0x55, 0x8B, 0x3E, 0x25, 0xC8, 0xE1, 0xBD, 0xA3, 0xF2, 0xA2, 0x3E,
  0x88, 0x4D, 0xB0, 0x3E, 0x11, 0x1E, 0xBF, 0xBE, 0x4A, 0x0C, 0xD3, 0x3E, 0x80, 0xFF, 0x2A, 0xBE, 0x76, 0x1E, 0xE1, 0x3D, 0xAB, 0x89, 0x94, 0x3E, 0x7A, 0xC8, 0x8D, 0x3E, 0x00, 0x9C, 0x47, 0x3E, 0x48, 0x4B, 0xC8, 0x3D, 0x58, 0x40, 0x07, 0x3E,
  0x6D, 0x17, 0xEF, 0xBE, 0xE2, 0xBA, 0x0F, 0xBF, 0x64, 0x05, 0xE5, 0xBE, 0x3E, 0x78, 0x3C, 0xBE, 0xD4, 0x14, 0x06, 0xBF, 0xDF, 0xF0, 0x65, 0xBE, 0xEB, 0xBA, 0x85, 0x3E, 0xBF, 0x2D, 0x2A, 0x3E, 0x13, 0x96, 0x08, 0xBF, 0x7C, 0x75, 0xA9, 0x3E,
  0x9D, 0xCE, 0xE2, 0x3E, 0x48, 0xC3, 0x7E, 0x3E, 0x75, 0x72, 0x05, 0x3D, 0x26, 0xFC, 0xC0, 0x3E, 0x9E, 0xC6, 0xF3, 0xBE, 0xB1, 0x16, 0xD5, 0xBE, 0x76, 0x35, 0xAE, 0xBE, 0x83, 0x47, 0xA3, 0x3D, 0xDD, 0xD6, 0xA4, 0x3E, 0x60, 0xCD, 0xC1, 0x3E,
  0x5E, 0x18, 0x03, 0x3E, 0x09, 0x1E, 0x44, 0xBE, 0x3E, 0x41, 0xF3, 0xBE, 0xAE, 0xE9, 0x97, 0x3D, 0xD3, 0x23, 0xB3, 0x3E, 0xA0, 0xE4, 0x4D, 0x3D, 0x5F, 0xA5, 0x4A, 0xBE, 0xD1, 0x3D, 0x0F, 0xBE, 0x3D, 0xE9, 0xF1, 0xBE, 0xD2, 0x29, 0xBC, 0xBE,
  0x17, 0x14, 0x2B, 0xBE, 0xF2, 0x15, 0xE7, 0xBC, 0x96, 0x01, 0x92, 0x3E, 0x6F, 0x47, 0x56, 0xBD, 0xDE, 0xF9, 0x91, 0x3C, 0xC7, 0xE7, 0x92, 0x3E, 0xA3, 0x05, 0x02, 0xBF, 0x24, 0x6C, 0x57, 0xBD, 0x49, 0xE3, 0x3F, 0xBE, 0x13, 0x33, 0x00, 0x3F,
  0xF2, 0xE9, 0xEE, 0x3E, 0x07, 0xE2, 0x85, 0x3E, 0x99, 0x8B, 0xF6, 0x3D, 0x1C, 0xE1, 0x52, 0xBE, 0x40, 0xF2, 0x9C, 0xBC, 0xE3, 0x64, 0xB1, 0xBE, 0x6D, 0xED, 0x0E, 0x3F, 0x75, 0x5C, 0x66, 0xBE, 0xEC, 0x65, 0xA4, 0xBE, 0xF9, 0x67, 0x25, 0xBE,
  0x16, 0xC0, 0xB2, 0x3E, 0xFD, 0xDB, 0x85, 0xBE, 0x33, 0xEF, 0x85, 0x3C, 0x0A, 0x68, 0x0A, 0x3E, 0x76, 0x52, 0x1E, 0x3D, 0x26, 0x54, 0x3A, 0x3E, 0xC5, 0x65, 0x16, 0xBF, 0xFF, 0xD0, 0x8C, 0xBD, 0xF8, 0x8B, 0x8E, 0x3E, 0x3C, 0x86, 0x24, 0x3D,
  0x85, 0x9F, 0x08, 0x3F, 0x3F, 0x3F, 0x80, 0x3B, 0xCB, 0x4D, 0xBF, 0xBD, 0xC1, 0x72, 0x01, 0xBE, 0xEE, 0x72, 0xA9, 0x3D, 0x27, 0x5F, 0xBF, 0x3B, 0x8C, 0xB3, 0x1A, 0xBE, 0x7F, 0x8E, 0xFF, 0x3E, 0x13, 0x36, 0xCD, 0xBE, 0xAB, 0x25, 0x91, 0x3E,
  0xB0, 0x84, 0xA2, 0xBE, 0x5F, 0x2A, 0xB3, 0xBE, 0x76, 0x00, 0xFC, 0x3D, 0x35, 0xE2, 0xB5, 0xBC, 0x3E, 0xAC, 0x13, 0x3F, 0x19, 0x89, 0x83, 0xBE, 0xF6, 0x2B, 0x3B, 0xBD, 0xD3, 0x4D, 0x8A, 0x3E, 0x58, 0x1C, 0x07, 0xBF, 0x0F, 0xC8, 0x96, 0xBE,
  0x05, 0xBC, 0x7B, 0x3E, 0xF0, 0x33, 0xBC, 0x3E, 0xCC, 0xF5, 0x9F, 0xBB, 0xDC, 0x2D, 0xA5, 0xBB, 0x4A, 0x11, 0xA6, 0x3E, 0x81, 0x30, 0x8D, 0xBE, 0x73, 0x1B, 0xAA, 0x3E, 0xCE, 0xAB, 0xB7, 0x3E, 0x41, 0x69, 0x32, 0xBC, 0x11, 0xD8, 0x49, 0x3E,
  0x01, 0x7E, 0xCB, 0x3E, 0xB4, 0xA7, 0xCA, 0xBE, 0xDB, 0x7D, 0xE9, 0xBD, 0x08, 0xBC, 0x91, 0xBD, 0x92, 0x55, 0x0A, 0x3E, 0xF3, 0xBC, 0x4F, 0x3E, 0x3F, 0x26, 0x90, 0x3D, 0x42, 0xA1, 0xED, 0xBE, 0x1A, 0xF2, 0x0F, 0xBF, 0xFD, 0x01, 0x43, 0xBD,
  0xD5, 0x3F, 0x68, 0x3E, 0x15, 0x15, 0xE7, 0xBD, 0x2F, 0x6E, 0xBB, 0x3D, 0x90, 0x8B, 0x37, 0xBE, 0x82, 0x80, 0xA1, 0x3E, 0x73, 0x29, 0x8D, 0xBE, 0x71, 0xB5, 0x86, 0x3E, 0x3D, 0x71, 0x5A, 0x3D, 0x0B, 0x3E, 0xAA, 0xBD, 0xD3, 0xEB, 0x81, 0x3E,
  0xD8, 0x89, 0xDA, 0x3E, 0xA7, 0x05, 0x2D, 0x3C, 0x52, 0xFA, 0xA1, 0xBE, 0x5B, 0x1B, 0x7E, 0xBD, 0x99, 0x2B, 0x0D, 0xBE, 0xE5, 0x1D, 0xC2, 0x3E, 0xEA, 0xDB, 0xFF, 0xFF, 0x04, 0x00, 0x00, 0x00, 0x40, 0x00, 0x00, 0x00, 0x00, 0x00, 0x00, 0x00,
  0x00, 0x00, 0x00, 0x00, 0x00, 0x00, 0x00, 0x00, 0x00, 0x00, 0x00, 0x00, 0x00, 0x00, 0x00, 0x00, 0x00, 0x00, 0x00, 0x00, 0x00, 0x00, 0x00, 0x00, 0x00, 0x00, 0x00, 0x00, 0x00, 0x00, 0x00, 0x00, 0x00, 0x00, 0x00, 0x00, 0x00, 0x00, 0x00, 0x00,
  0x00, 0x00, 0x00, 0x00, 0x00, 0x00, 0x00, 0x00, 0x00, 0x00, 0x00, 0x00, 0x00, 0x00, 0x00, 0x00, 0x00, 0x00, 0x00, 0x00, 0x36, 0xDC, 0xFF, 0xFF, 0x04, 0x00, 0x00, 0x00, 0x04, 0x00, 0x00, 0x00, 0x10, 0x00, 0x00, 0x00, 0x0C, 0x78, 0xFF, 0xFF,
  0x4A, 0xDC, 0xFF, 0xFF, 0x04, 0x00, 0x00, 0x00, 0x80, 0x01, 0x00, 0x00, 0x74, 0x9C, 0x1D, 0xBE, 0x48, 0x79, 0x92, 0x3F, 0x9E, 0xA7, 0xF4, 0x3E, 0x8F, 0x4B, 0xE4, 0xBE, 0x62, 0xB5, 0x3C, 0xBE, 0x7F, 0xAC, 0x6B, 0x3F, 0x31, 0xF3, 0xE3, 0xBD,
  0x16, 0x07, 0x51, 0x3E, 0x4A, 0x9A, 0x19, 0xBF, 0xEC, 0x36, 0x61, 0x3D, 0x6F, 0x1A, 0x87, 0x3E, 0x7A, 0x56, 0x46, 0x3E, 0xEC, 0x09, 0x25, 0xBF, 0x21, 0x0E, 0x29, 0xBE, 0x1C, 0xC2, 0x41, 0x3E, 0x80, 0x87, 0xCD, 0x3D, 0x45, 0x92, 0x13, 0x3E,
  0x77, 0xA8, 0xEF, 0x3E, 0xFE, 0xD6, 0x4A, 0xBF, 0x0D, 0x2C, 0xEC, 0x3E, 0xAD, 0x1A, 0x19, 0x3D, 0x83, 0xE9, 0x28, 0x3F, 0x36, 0x54, 0x97, 0xBE, 0x0E, 0x55, 0x6E, 0x3E, 0x06, 0x61, 0x63, 0xBF, 0x40, 0xB7, 0xE3, 0xBC, 0xE7, 0x47, 0x2A, 0x3E,
  0xC2, 0x7B, 0x02, 0x3F, 0xFC, 0xE5, 0x36, 0xBD, 0x23, 0x81, 0xAF, 0xBF, 0xA1, 0x36, 0xB9, 0x3E, 0xA7, 0xBF, 0x99, 0x3B, 0x86, 0x50, 0x08, 0xBE, 0xA9, 0xE9, 0x63, 0xBE, 0x41, 0x17, 0xD9, 0x3E, 0x23, 0xB3, 0x14, 0x3F, 0x2C, 0x44, 0x70, 0xBE,
  0x08, 0x80, 0x5F, 0x3E, 0x4F, 0x6B, 0x89, 0x3C, 0xF0, 0x05, 0x0B, 0xBF, 0x97, 0x1C, 0x63, 0x3E, 0x54, 0xBB, 0xCE, 0x3E, 0x75, 0x4A, 0x8F, 0x3F, 0xC9, 0x1B, 0xD2, 0x3E, 0xEA, 0x28, 0x37, 0x3E, 0x70, 0xB6, 0xE3, 0xBE, 0xB4, 0x26, 0x0B, 0x3F,
  0x4D, 0x61, 0x80, 0xBF, 0x4B, 0x9F, 0xD7, 0x3D, 0x4C, 0xA3, 0x18, 0x3F, 0x3A, 0xD3, 0x36, 0xBF, 0xAC, 0x25, 0x92, 0x3E, 0xD8, 0x54, 0x11, 0xBE, 0xD0, 0x04, 0x19, 0xBE, 0x05, 0x19, 0x9A, 0xBE, 0x7D, 0xF6, 0x40, 0x3E, 0x88, 0x73, 0x74, 0x3E,
  0x26, 0xD1, 0x05, 0x3F, 0x99, 0xDF, 0x2C, 0xBF, 0xCA, 0x15, 0x9A, 0x3F, 0x28, 0xFC, 0xBE, 0x3D, 0x1C, 0xA9, 0xCC, 0x3E, 0xD3, 0xBF, 0xEA, 0xBD, 0xF3, 0x09, 0x2D, 0xBF, 0x0F, 0xD2, 0x0E, 0x3E, 0x4E, 0xE8, 0xD9, 0xBD, 0xE8, 0xE3, 0x9C, 0x3E,
  0xE8, 0x7A, 0x06, 0xBF, 0x6D, 0x95, 0x9B, 0x3E, 0x5E, 0xAE, 0x0C, 0xBF, 0x75, 0xF0, 0xBF, 0x3D, 0x2E, 0x09, 0xC7, 0xBD, 0xBB, 0x92, 0xAD, 0xBF, 0xCE, 0xBA, 0x47, 0x3D, 0x92, 0x28, 0xA8, 0xBC, 0xC8, 0xF5, 0x0A, 0xBE, 0xEC, 0x95, 0x6D, 0x3C,
  0xA0, 0x8F, 0x5D, 0x3F, 0x4D, 0xB1, 0xB9, 0xBE, 0xCD, 0x14, 0x17, 0x3F, 0xCB, 0xE3, 0xB1, 0xBE, 0xFA, 0x06, 0xE8, 0xBE, 0x5A, 0x1E, 0x3C, 0x3E, 0xF8, 0x80, 0xC2, 0xBF, 0xDC, 0x37, 0x38, 0xBF, 0xB2, 0x0D, 0x92, 0xBD, 0xD0, 0x04, 0x9C, 0x3E,
  0x1F, 0x3A, 0xAD, 0x3E, 0x7F, 0x22, 0xAE, 0x3D, 0xC5, 0xF5, 0x47, 0x3E, 0x8B, 0x35, 0xE0, 0x3D, 0xD5, 0xBA, 0xF9, 0xBE, 0x2D, 0x5D, 0xF6, 0xBE, 0xDE, 0xDA, 0xFE, 0xBE, 0x62, 0x22, 0x48, 0xBF, 0x87, 0x63, 0x6D, 0x3E, 0xD6, 0xDD, 0xFF, 0xFF,
  0x04, 0x00, 0x00, 0x00, 0x08, 0x00, 0x00, 0x00, 0x00, 0x00, 0x00, 0x00, 0x00, 0x00, 0x00, 0x00, 0xEA, 0xDD, 0xFF, 0xFF, 0x04, 0x00, 0x00, 0x00, 0x08, 0x00, 0x00, 0x00, 0x01, 0x00, 0x00, 0x00, 0x02, 0x00, 0x00, 0x00, 0xFE, 0xDD, 0xFF, 0xFF,
  0x04, 0x00, 0x00, 0x00, 0x08, 0x00, 0x00, 0x00, 0x01, 0x00, 0x00, 0x00, 0x01, 0x00, 0x00, 0x00, 0x12, 0xDE, 0xFF, 0xFF, 0x04, 0x00, 0x00, 0x00, 0x40, 0x00, 0x00, 0x00, 0xE1, 0x7D, 0x80, 0xBF, 0x6D, 0x2C, 0xE0, 0x3E, 0xBF, 0x24, 0x25, 0x40,
  0x83, 0x57, 0x9B, 0x3F, 0xD8, 0xF7, 0xC4, 0x3E, 0x82, 0xFF, 0x71, 0xBF, 0x30, 0x25, 0x20, 0xBF, 0x5D, 0x04, 0x06, 0xBF, 0x57, 0x07, 0x08, 0x3F, 0xA4, 0x1F, 0x8C, 0x3E, 0x0E, 0x54, 0x18, 0x3F, 0xE0, 0x1D, 0xC6, 0x3F, 0xF6, 0x67, 0x22, 0x3F,
  0xC9, 0xCB, 0x81, 0x3F, 0x18, 0xF3, 0x85, 0xBC, 0x29, 0x2F, 0x0C, 0x3F, 0x5E, 0xDE, 0xFF, 0xFF, 0x04, 0x00, 0x00, 0x00, 0x40, 0x00, 0x00, 0x00, 0x9F, 0xDC, 0xDD, 0x3F, 0x1A, 0xA5, 0x9D, 0x3F, 0x7C, 0xBB, 0x1D, 0x40, 0x1B, 0xCD, 0x07, 0x40,
  0x3B, 0xC8, 0xB0, 0x3F, 0xBB, 0x19, 0xC1, 0x3F, 0x2B, 0x67, 0xCB, 0x3F, 0xD3, 0x9B, 0xA3, 0x3F, 0x3F, 0x66, 0xCC, 0x3F, 0x8D, 0x8E, 0xD1, 0x3F, 0x7C, 0x61, 0xBC, 0x3F, 0x5C, 0x3E, 0x02, 0x40, 0xE9, 0x48, 0xB6, 0x3F, 0x29, 0xD7, 0x8A, 0x3F,
  0x62, 0x18, 0xA8, 0x3F, 0xC1, 0xBD, 0xB9, 0x3F, 0xAA, 0xDE, 0xFF, 0xFF, 0x04, 0x00, 0x00, 0x00, 0x40, 0x00, 0x00, 0x00, 0x94, 0x44, 0xAD, 0x3E, 0x85, 0x9B, 0x2D, 0x3F, 0x93, 0x30, 0x09, 0x3F, 0x79, 0x06, 0xC7, 0x3F, 0x50, 0xB0, 0xB6, 0x3E,
  0x96, 0x9C, 0x06, 0x3F, 0x14, 0x18, 0x8C, 0xBF, 0x68, 0xE4, 0x09, 0x3F, 0xB7, 0x1F, 0x3E, 0xBF, 0x40, 0x98, 0xFE, 0xBF, 0x4E, 0x36, 0xC7, 0x3F, 0x50, 0x1A, 0x82, 0x3E, 0x3C, 0xDB, 0x4E, 0x3E, 0x19, 0x36, 0xEA, 0x3C, 0x80, 0x5C, 0x21, 0x3C,
  0x4F, 0x51, 0xF2, 0xBF, 0xF6, 0xDE, 0xFF, 0xFF, 0x04, 0x00, 0x00, 0x00, 0x40, 0x00, 0x00, 0x00, 0x69, 0x5C, 0xB5, 0x3E, 0x24, 0x95, 0x01, 0x3F, 0xE3, 0x9F, 0xF4, 0x3E, 0x54, 0x72, 0x93, 0x3E, 0xCE, 0x65, 0x03, 0x3F, 0x6C, 0x07, 0xB8, 0x3E,
  0xEC, 0x05, 0x17, 0x3F, 0x14, 0xA5, 0x00, 0x3F, 0x64, 0xAD, 0xC4, 0x3E, 0xC3, 0xC5, 0xFF, 0x3E, 0x56, 0xE7, 0x04, 0x3F, 0x98, 0x6C, 0xE3, 0x3E, 0xB8, 0x18, 0xEC, 0x3E, 0xD3, 0x52, 0x0B, 0x3F, 0x3D, 0xC5, 0x09, 0x3F, 0x15, 0x27, 0x95, 0x3E,
  0x42, 0xDF, 0xFF, 0xFF, 0x04, 0x00, 0x00, 0x00, 0x40, 0x00, 0x00, 0x00, 0xEC, 0x15, 0xC2, 0x3F, 0xE0, 0x6B, 0x12, 0x3E, 0x56, 0xA7, 0x82, 0x3F, 0x93, 0x59, 0x14, 0x3E, 0xE8, 0x34, 0x34, 0x3F, 0xD0, 0x5A, 0x45, 0xBE, 0xA1, 0xD2, 0x87, 0xBE,
  0x43, 0xD7, 0x95, 0x3F, 0x90, 0x33, 0x6A, 0xBE, 0xAA, 0x74, 0x12, 0x3F, 0x7F, 0xFF, 0xB6, 0x3E, 0xC4, 0x87, 0x3D, 0x3F, 0x20, 0x1A, 0x37, 0xBF, 0xEC, 0xDF, 0xA6, 0xBE, 0x1E, 0x9F, 0xB8, 0x3E, 0x64, 0xE6, 0x5C, 0xBE, 0x8E, 0xDF, 0xFF, 0xFF,
  0x04, 0x00, 0x00, 0x00, 0x40, 0x00, 0x00, 0x00, 0xA0, 0xF0, 0x6A, 0x3F, 0xB0, 0x80, 0xA8, 0x3F, 0xC1, 0x0B, 0xCF, 0x3F, 0xBF, 0x51, 0x8C, 0x3F, 0xA6, 0xF3, 0x48, 0x3F, 0xD2, 0x57, 0x52, 0x3F, 0x59, 0xFD, 0x8A, 0x3F, 0x06, 0x3D, 0x8C, 0x3F,
  0xE2, 0x81, 0x5C, 0x3F, 0x44, 0x71, 0x8C, 0x3F, 0x84, 0xFB, 0x90, 0x3F, 0xB8, 0x09, 0x5D, 0x3F, 0xCF, 0xA8, 0x5C, 0x3F, 0x46, 0x4D, 0x4D, 0x3F, 0x22, 0x98, 0x4B, 0x3F, 0x09, 0x1E, 0x90, 0x3F, 0xDA, 0xDF, 0xFF, 0xFF, 0x04, 0x00, 0x00, 0x00,
  0x40, 0x00, 0x00, 0x00, 0xA2, 0xEF, 0xC3, 0x3E, 0x47, 0x99, 0xBB, 0xBE, 0xFA, 0xC1, 0xE4, 0x3E, 0xEC, 0x93, 0x12, 0x3F, 0x81, 0x7B, 0x4E, 0xBE, 0x72, 0x0F, 0xB6, 0x3E, 0x6A, 0xB8, 0xDB, 0x3E, 0x44, 0x53, 0xEF, 0x3E, 0x21, 0x78, 0x42, 0xBF,
  0x40, 0x2C, 0xA7, 0x3E, 0x86, 0x73, 0x16, 0xBE, 0x8B, 0xB2, 0x15, 0x3F, 0x2E, 0x25, 0x07, 0x3E, 0x1F, 0xE0, 0xED, 0x3D, 0xAB, 0xF2, 0xA7, 0x3F, 0x74, 0x7A, 0xE2, 0xBF, 0x26, 0xE0, 0xFF, 0xFF, 0x04, 0x00, 0x00, 0x00, 0x40, 0x00, 0x00, 0x00,
  0x1A, 0x1C, 0x27, 0x3F, 0x90, 0xF1, 0x47, 0x3F, 0x62, 0xF0, 0x0C, 0x3F, 0x9B, 0xFE, 0x2B, 0x3F, 0x9C, 0xCD, 0xAD, 0x3E, 0x2F, 0xC9, 0x06, 0x3F, 0xF4, 0xCE, 0x44, 0x3F, 0x75, 0xDD, 0x55, 0x3F, 0x22, 0xBC, 0xF0, 0x3E, 0x9B, 0x16, 0x1A, 0x3F,
  0xA3, 0x67, 0x14, 0x3F, 0x31, 0xB3, 0x65, 0x3F, 0xD3, 0x6C, 0x25, 0x3F, 0x77, 0x4B, 0x40, 0x3F, 0xF7, 0xCA, 0xFD, 0x3E, 0xA5, 0x41, 0x0A, 0x3F, 0x72, 0xE0, 0xFF, 0xFF, 0x04, 0x00, 0x00, 0x00, 0x40, 0x00, 0x00, 0x00, 0xBC, 0xEB, 0x40, 0xBE,
  0x64, 0x5B, 0x27, 0xBE, 0xEE, 0xB8, 0xC1, 0x3E, 0x4A, 0x80, 0x83, 0xBE, 0x26, 0xF8, 0x76, 0x3C, 0xA2, 0x37, 0xAF, 0x3C, 0xD9, 0x69, 0x63, 0xBD, 0xB4, 0x61, 0xBB, 0xBC, 0x12, 0x60, 0x8E, 0xBD, 0x2B, 0xF6, 0x33, 0xBE, 0x9D, 0xA6, 0xFC, 0x3D,
  0xAB, 0x5C, 0xC9, 0x3C, 0x2C, 0x9F, 0x23, 0xBE, 0xEE, 0xFA, 0x4F, 0x3E, 0x5B, 0x6A, 0x47, 0x3E, 0xC8, 0x10, 0xEE, 0x3B, 0xBE, 0xE0, 0xFF, 0xFF, 0x04, 0x00, 0x00, 0x00, 0x40, 0x00, 0x00, 0x00, 0xE4, 0x13, 0x16, 0x3F, 0x0A, 0xD8, 0x85, 0x3F,
  0x7F, 0x98, 0xF8, 0x3E, 0x70, 0xA7, 0x72, 0x3F, 0x65, 0x5C, 0x62, 0x3F, 0xE0, 0x53, 0x3E, 0x3F, 0xCF, 0x5C, 0x22, 0x3F, 0x5B, 0x10, 0x0B, 0x3F, 0xDD, 0x58, 0xF1, 0x3E, 0x54, 0xE6, 0x67, 0x3F, 0x68, 0xC6, 0x3A, 0x3F, 0xE8, 0x6B, 0x4E, 0x3F,
  0xA5, 0xB5, 0x11, 0x3F, 0x03, 0x69, 0x33, 0x3F, 0x7E, 0xDD, 0xB0, 0x3F, 0x54, 0x2E, 0x92, 0x3F, 0x0A, 0xE1, 0xFF, 0xFF, 0x04, 0x00, 0x00, 0x00, 0x40, 0x00, 0x00, 0x00, 0x41, 0x61, 0x9A, 0xBE, 0x22, 0x53, 0x9A, 0x3F, 0x48, 0xAF, 0x08, 0x40,
  0x80, 0x2F, 0x03, 0xBF, 0xAE, 0xF6, 0xBA, 0x3F, 0xA6, 0xF7, 0x07, 0xBF, 0x4D, 0xBE, 0xBC, 0x3E, 0x9E, 0xE5, 0x31, 0x3F, 0x01, 0x18, 0x91, 0x3F, 0x29, 0x06, 0x0D, 0xBE, 0x3D, 0x85, 0xDC, 0x3E, 0x80, 0x43, 0x10, 0x3E, 0x00, 0x2D, 0xA1, 0x3B,
  0xE8, 0x95, 0x56, 0xBE, 0x07, 0x00, 0x03, 0x3F, 0x78, 0x6D, 0xC9, 0x3E, 0x56, 0xE1, 0xFF, 0xFF, 0x04, 0x00, 0x00, 0x00, 0x40, 0x00, 0x00, 0x00, 0x1C, 0x13, 0x1B, 0x3F, 0x4E, 0xED, 0x60, 0x3F, 0xEA, 0xE1, 0x97, 0x3F, 0x3D, 0x8D, 0x63, 0x3F,
  0xB9, 0x67, 0x26, 0x3F, 0xAA, 0xBD, 0x66, 0x3F, 0xA2, 0x32, 0x8F, 0x3F, 0xA3, 0x0D, 0x23, 0x3F, 0xF5, 0x1E, 0x0C, 0x3F, 0x13, 0x50, 0x3A, 0x3F, 0x1D, 0x12, 0x56, 0x3F, 0x54, 0xCA, 0x63, 0x3F, 0x26, 0xF9, 0x3B, 0x3F, 0x9B, 0x50, 0x6C, 0x3F,
  0xF1, 0xC3, 0xB4, 0x3F, 0xA6, 0x0F, 0x04, 0x3F, 0xA2, 0xE1, 0xFF, 0xFF, 0x04, 0x00, 0x00, 0x00, 0x40, 0x00, 0x00, 0x00, 0x0D, 0x0D, 0x4D, 0x36, 0x62, 0x86, 0x9D, 0x35, 0xFA, 0xF8, 0xCB, 0xB4, 0xAA, 0xFE, 0xEA, 0xB5, 0xA9, 0xF3, 0x3E, 0x34,
  0x57, 0x41, 0x5C, 0x34, 0x5F, 0xF4, 0x80, 0xB4, 0xE6, 0xB4, 0x3B, 0x35, 0xDA, 0x18, 0xB9, 0x36, 0x4A, 0xAA, 0x54, 0x35, 0xEE, 0xCA, 0xB9, 0xB5, 0x2C, 0x4E, 0xCC, 0xB5, 0x7F, 0x07, 0xD1, 0xB5, 0xA8, 0xFE, 0xA5, 0xB5, 0x48, 0x6E, 0x8A, 0x35,
  0xC1, 0x90, 0x8F, 0x35, 0xEE, 0xE1, 0xFF, 0xFF, 0x04, 0x00, 0x00, 0x00, 0x40, 0x00, 0x00, 0x00, 0x54, 0x37, 0xEC, 0x33, 0x83, 0xBF, 0x31, 0xB5, 0xDD, 0x92, 0x17, 0x35, 0xE5, 0x53, 0x55, 0x35, 0x8F, 0xF6, 0x0D, 0x34, 0xBD, 0xCA, 0x3E, 0x34,
  0x4B, 0xDF, 0xBB, 0x35, 0xFD, 0x2A, 0x1C, 0x35, 0x66, 0x9E, 0x4F, 0xB4, 0x1C, 0x73, 0xCE, 0xB5, 0x1F, 0x71, 0xAE, 0x35, 0x10, 0x58, 0xF8, 0xB3, 0x31, 0x9B, 0x1D, 0xB5, 0x2E, 0x52, 0xB1, 0xB5, 0x9F, 0xC6, 0x07, 0x35, 0xCF, 0x38, 0x72, 0x35,
  0x3A, 0xE2, 0xFF, 0xFF, 0x04, 0x00, 0x00, 0x00, 0x40, 0x00, 0x00, 0x00, 0x55, 0xC5, 0x90, 0xB4, 0x60, 0xA8, 0x4C, 0xB5, 0xD1, 0xFD, 0x98, 0x34, 0x94, 0x6E, 0x35, 0x34, 0x87, 0x16, 0x05, 0xB5, 0x43, 0xE0, 0x45, 0xB5, 0x83, 0x98, 0x88, 0xB5,
  0x89, 0x73, 0x4B, 0x36, 0xAE, 0x64, 0x81, 0x36, 0x62, 0x6C, 0xBB, 0xB4, 0x18, 0xB5, 0xC1, 0xB5, 0xF9, 0x83, 0x48, 0xB4, 0xF7, 0xF0, 0xAF, 0x34, 0x6C, 0x10, 0x89, 0x33, 0x62, 0x56, 0xBE, 0xB5, 0x03, 0x84, 0xAF, 0xB5, 0x86, 0xE2, 0xFF, 0xFF,
  0x04, 0x00, 0x00, 0x00, 0x40, 0x00, 0x00, 0x00, 0xCB, 0xE7, 0xB3, 0x35, 0x26, 0xAD, 0xBA, 0xB5, 0x22, 0x17, 0x8D, 0xB4, 0xC3, 0xAD, 0xEB, 0xB4, 0xF6, 0x0B, 0x17, 0xB4, 0x3D, 0x6D, 0x2C, 0x36, 0xCF, 0x20, 0x85, 0xB4, 0xEA, 0x55, 0xA8, 0xB4,
  0x8C, 0x26, 0x37, 0x35, 0x6E, 0xF8, 0xDA, 0x33, 0x1E, 0x67, 0xD6, 0xB3, 0xEA, 0xDC, 0x81, 0xB5, 0xD2, 0xEF, 0xAB, 0x33, 0x17, 0xBA, 0xC4, 0xB3, 0x98, 0x7F, 0x48, 0x34, 0xCC, 0x54, 0x2F, 0xB4, 0xD2, 0xE2, 0xFF, 0xFF, 0x04, 0x00, 0x00, 0x00,
  0x40, 0x00, 0x00, 0x00, 0xA8, 0x1E, 0x8E, 0xBB, 0x7C, 0x78, 0x69, 0x3D, 0x79, 0x6B, 0x8D, 0x3E, 0x14, 0xE7, 0x3A, 0xBE, 0xFB, 0xE2, 0x15, 0x3D, 0xF8, 0x38, 0x01, 0xBE, 0x04, 0x53, 0x2C, 0xBE, 0xA5, 0xA9, 0xD2, 0xBD, 0xB1, 0x93, 0x7F, 0xBD,
  0x9F, 0x6D, 0x07, 0x3E, 0x5C, 0x5F, 0x04, 0xBE, 0xB9, 0x45, 0xB8, 0xBD, 0xD6, 0xD1, 0xC4, 0x3C, 0x05, 0x26, 0x4C, 0x3E, 0x19, 0x63, 0x64, 0xBD, 0xC3, 0x19, 0x63, 0x3E, 0x1E, 0xE3, 0xFF, 0xFF, 0x04, 0x00, 0x00, 0x00, 0x40, 0x00, 0x00, 0x00,
  0xFA, 0x01, 0x95, 0x35, 0x9C, 0xED, 0x66, 0x35, 0xFC, 0xA2, 0x4F, 0xB6, 0xAC, 0x54, 0xAA, 0xB3, 0xF3, 0xB0, 0x2A, 0xB6, 0x39, 0x49, 0x25, 0x36, 0xCB, 0x0A, 0x97, 0x35, 0x56, 0x3B, 0x09, 0xB2, 0x63, 0xA7, 0xB8, 0xB4, 0x13, 0x05, 0xA1, 0x35,
  0xA4, 0x34, 0x7F, 0xB4, 0xD2, 0x0F, 0xD6, 0xB5, 0xF0, 0x34, 0x2D, 0xB5, 0x0E, 0x0B, 0xFC, 0xB5, 0x78, 0x7D, 0x7C, 0x35, 0x60, 0x74, 0x7E, 0x33, 0x6A, 0xE3, 0xFF, 0xFF, 0x04, 0x00, 0x00, 0x00, 0x40, 0x00, 0x00, 0x00, 0xC8, 0x07, 0xAF, 0xB4,
  0xCB, 0x7C, 0x6B, 0x36, 0x29, 0xCC, 0x26, 0x35, 0xA9, 0x22, 0x80, 0x35, 0xD6, 0x91, 0x80, 0xB5, 0x24, 0x83, 0x2B, 0xB4, 0x58, 0xB9, 0xE9, 0x35, 0x99, 0xA5, 0x26, 0xB5, 0x32, 0x45, 0xD6, 0x35, 0x16, 0xBB, 0xFA, 0x34, 0xCA, 0xC6, 0x3C, 0xB6,
  0x6D, 0xC2, 0x7D, 0xB5, 0x5C, 0xD8, 0xF3, 0x35, 0x4D, 0x82, 0x12, 0xB6, 0xFB, 0x13, 0x84, 0xB5, 0xA3, 0x1B, 0x89, 0xB3, 0xB6, 0xE3, 0xFF, 0xFF, 0x04, 0x00, 0x00, 0x00, 0x04, 0x00, 0x00, 0x00, 0x68, 0x23, 0x5C, 0xBE, 0xC6, 0xE3, 0xFF, 0xFF,
  0x04, 0x00, 0x00, 0x00, 0x04, 0x00, 0x00, 0x00, 0xA5, 0x1A, 0xEA, 0xBD, 0xD6, 0xE3, 0xFF, 0xFF, 0x04, 0x00, 0x00, 0x00, 0x04, 0x00, 0x00, 0x00, 0x08, 0x00, 0x00, 0x00, 0xAC, 0x7F, 0xFF, 0xFF, 0xEA, 0xE3, 0xFF, 0xFF, 0x04, 0x00, 0x00, 0x00,
  0x04, 0x00, 0x00, 0x00, 0x04, 0x00, 0x00, 0x00, 0xFA, 0xE3, 0xFF, 0xFF, 0x04, 0x00, 0x00, 0x00, 0x04, 0x00, 0x00, 0x00, 0xFD, 0xFF, 0xFF, 0xFF, 0xD0, 0x7F, 0xFF, 0xFF, 0x0E, 0xE4, 0xFF, 0xFF, 0x04, 0x00, 0x00, 0x00, 0x04, 0x00, 0x00, 0x00,
  0x01, 0x00, 0x00, 0x00, 0x1E, 0xE4, 0xFF, 0xFF, 0x04, 0x00, 0x00, 0x00, 0x04, 0x00, 0x00, 0x00, 0x00, 0x00, 0x00, 0x00, 0x2E, 0xE4, 0xFF, 0xFF, 0x04, 0x00, 0x00, 0x00, 0x04, 0x00, 0x00, 0x00, 0x02, 0x00, 0x00, 0x00, 0x3E, 0xE4, 0xFF, 0xFF,
  0x04, 0x00, 0x00, 0x00, 0x08, 0x00, 0x00, 0x00, 0x00, 0x00, 0x00, 0x00, 0x01, 0x00, 0x00, 0x00, 0x52, 0xE4, 0xFF, 0xFF, 0x04, 0x00, 0x00, 0x00, 0x40, 0x00, 0x00, 0x00, 0x2B, 0xC0, 0x13, 0x3E, 0x21, 0xE2, 0x30, 0xBF, 0x81, 0xB5, 0xF7, 0xBE,
  0xBB, 0x98, 0x51, 0xBF, 0xCE, 0x7C, 0xA7, 0xBE, 0x34, 0x6F, 0x9C, 0xBD, 0x5F, 0x7E, 0x07, 0x3E, 0x8D, 0xD3, 0x00, 0xBF, 0x0A, 0x61, 0x89, 0xBE, 0xE0, 0x99, 0xED, 0x3E, 0x57, 0xA5, 0xF4, 0x3E, 0x75, 0x35, 0x27, 0xBF, 0x96, 0x2C, 0xD8, 0xBD,
  0x55, 0xA5, 0xAF, 0xBE, 0xB0, 0x4B, 0xA7, 0x3E, 0xB8, 0x92, 0x46, 0xBF, 0x9E, 0xE4, 0xFF, 0xFF, 0x04, 0x00, 0x00, 0x00, 0x40, 0x00, 0x00, 0x00, 0x1D, 0x5B, 0x42, 0xBF, 0x78, 0xB5, 0xEF, 0x3C, 0x2B, 0xDA, 0x0D, 0xBE, 0x7B, 0x97, 0xA3, 0x3C,
  0x13, 0xE6, 0x20, 0xBF, 0x56, 0x74, 0x04, 0xBE, 0x92, 0x11, 0xDB, 0x3D, 0x5E, 0x32, 0xF3, 0xBE, 0xDE, 0x2C, 0x55, 0xBF, 0xC2, 0x50, 0xC8, 0x3B, 0xD3, 0xB5, 0xB5, 0xBE, 0x44, 0x3E, 0xC1, 0x3E, 0xD7, 0x32, 0xB9, 0x3E, 0xA4, 0xC2, 0x8A, 0x3E,
  0x72, 0x7F, 0x89, 0x3E, 0x35, 0xD6, 0x45, 0x3E, 0xB0, 0x80, 0xFF, 0xFF, 0xB4, 0x80, 0xFF, 0xFF, 0x0F, 0x00, 0x00, 0x00, 0x4D, 0x4C, 0x49, 0x52, 0x20, 0x43, 0x6F, 0x6E, 0x76, 0x65, 0x72, 0x74, 0x65, 0x64, 0x2E, 0x00, 0x01, 0x00, 0x00, 0x00,
  0x14, 0x00, 0x00, 0x00, 0x00, 0x00, 0x0E, 0x00, 0x18, 0x00, 0x14, 0x00, 0x10, 0x00, 0x0C, 0x00, 0x08, 0x00, 0x04, 0x00, 0x0E, 0x00, 0x00, 0x00, 0x14, 0x00, 0x00, 0x00, 0x1C, 0x00, 0x00, 0x00, 0x90, 0x1B, 0x00, 0x00, 0x98, 0x1B, 0x00, 0x00,
  0x9C, 0x1B, 0x00, 0x00, 0x04, 0x00, 0x00, 0x00, 0x6D, 0x61, 0x69, 0x6E, 0x00, 0x00, 0x00, 0x00, 0x83, 0x00, 0x00, 0x00, 0x48, 0x1B, 0x00, 0x00, 0xEC, 0x1A, 0x00, 0x00, 0x98, 0x1A, 0x00, 0x00, 0x64, 0x1A, 0x00, 0x00, 0x30, 0x1A, 0x00, 0x00,
  0xF0, 0x19, 0x00, 0x00, 0xC0, 0x19, 0x00, 0x00, 0x80, 0x19, 0x00, 0x00, 0x44, 0x19, 0x00, 0x00, 0x10, 0x19, 0x00, 0x00, 0xDC, 0x18, 0x00, 0x00, 0xA4, 0x18, 0x00, 0x00, 0x64, 0x18, 0x00, 0x00, 0x28, 0x18, 0x00, 0x00, 0xF4, 0x17, 0x00, 0x00,
  0xBC, 0x17, 0x00, 0x00, 0x88, 0x17, 0x00, 0x00, 0x38, 0x17, 0x00, 0x00, 0x10, 0x17, 0x00, 0x00, 0xD0, 0x16, 0x00, 0x00, 0xA8, 0x16, 0x00, 0x00, 0x74, 0x16, 0x00, 0x00, 0x4C, 0x16, 0x00, 0x00, 0x18, 0x16, 0x00, 0x00, 0xD8, 0x15, 0x00, 0x00,
  0xA0, 0x15, 0x00, 0x00, 0x78, 0x15, 0x00, 0x00, 0x2C, 0x15, 0x00, 0x00, 0xEC, 0x14, 0x00, 0x00, 0xB4, 0x14, 0x00, 0x00, 0x8C, 0x14, 0x00, 0x00, 0x48, 0x14, 0x00, 0x00, 0x1C, 0x14, 0x00, 0x00, 0xEC, 0x13, 0x00, 0x00, 0x9C, 0x13, 0x00, 0x00,
  0x60, 0x13, 0x00, 0x00, 0x34, 0x13, 0x00, 0x00, 0x00, 0x13, 0x00, 0x00, 0xCC, 0x12, 0x00, 0x00, 0x94, 0x12, 0x00, 0x00, 0x60, 0x12, 0x00, 0x00, 0x20, 0x12, 0x00, 0x00, 0xF8, 0x11, 0x00, 0x00, 0xC4, 0x11, 0x00, 0x00, 0x9C, 0x11, 0x00, 0x00,
  0x68, 0x11, 0x00, 0x00, 0x40, 0x11, 0x00, 0x00, 0x0C, 0x11, 0x00, 0x00, 0xCC, 0x10, 0x00, 0x00, 0x94, 0x10, 0x00, 0x00, 0x6C, 0x10, 0x00, 0x00, 0x28, 0x10, 0x00, 0x00, 0xE8, 0x0F, 0x00, 0x00, 0xB0, 0x0F, 0x00, 0x00, 0x88, 0x0F, 0x00, 0x00,
  0x44, 0x0F, 0x00, 0x00, 0x18, 0x0F, 0x00, 0x00, 0xE8, 0x0E, 0x00, 0x00, 0xA4, 0x0E, 0x00, 0x00, 0x68, 0x0E, 0x00, 0x00, 0x3C, 0x0E, 0x00, 0x00, 0x08, 0x0E, 0x00, 0x00, 0xD4, 0x0D, 0x00, 0x00, 0x9C, 0x0D, 0x00, 0x00, 0x68, 0x0D, 0x00, 0x00,
  0x30, 0x0D, 0x00, 0x00, 0xFC, 0x0C, 0x00, 0x00, 0xBC, 0x0C, 0x00, 0x00, 0x94, 0x0C, 0x00, 0x00, 0x60, 0x0C, 0x00, 0x00, 0x38, 0x0C, 0x00, 0x00, 0x04, 0x0C, 0x00, 0x00, 0xDC, 0x0B, 0x00, 0x00, 0xA8, 0x0B, 0x00, 0x00, 0x68, 0x0B, 0x00, 0x00,
  0x30, 0x0B, 0x00, 0x00, 0x08, 0x0B, 0x00, 0x00, 0xC4, 0x0A, 0x00, 0x00, 0x84, 0x0A, 0x00, 0x00, 0x4C, 0x0A, 0x00, 0x00, 0x24, 0x0A, 0x00, 0x00, 0xE0, 0x09, 0x00, 0x00, 0xB4, 0x09, 0x00, 0x00, 0x84, 0x09, 0x00, 0x00, 0x40, 0x09, 0x00, 0x00,
  0x04, 0x09, 0x00, 0x00, 0xD8, 0x08, 0x00, 0x00, 0xA4, 0x08, 0x00, 0x00, 0x70, 0x08, 0x00, 0x00, 0x38, 0x08, 0x00, 0x00, 0x04, 0x08, 0x00, 0x00, 0xC4, 0x07, 0x00, 0x00, 0x9C, 0x07, 0x00, 0x00, 0x68, 0x07, 0x00, 0x00, 0x40, 0x07, 0x00, 0x00,
  0x0C, 0x07, 0x00, 0x00, 0xE4, 0x06, 0x00, 0x00, 0xB0, 0x06, 0x00, 0x00, 0x70, 0x06, 0x00, 0x00, 0x38, 0x06, 0x00, 0x00, 0x10, 0x06, 0x00, 0x00, 0xCC, 0x05, 0x00, 0x00, 0x8C, 0x05, 0x00, 0x00, 0x54, 0x05, 0x00, 0x00, 0x2C, 0x05, 0x00, 0x00,
  0xE8, 0x04, 0x00, 0x00, 0xBC, 0x04, 0x00, 0x00, 0x8C, 0x04, 0x00, 0x00, 0x48, 0x04, 0x00, 0x00, 0x0C, 0x04, 0x00, 0x00, 0xE0, 0x03, 0x00, 0x00, 0xAC, 0x03, 0x00, 0x00, 0x78, 0x03, 0x00, 0x00, 0x40, 0x03, 0x00, 0x00, 0x0C, 0x03, 0x00, 0x00,
  0xD8, 0x02, 0x00, 0x00, 0xA4, 0x02, 0x00, 0x00, 0x70, 0x02, 0x00, 0x00, 0x3C, 0x02, 0x00, 0x00, 0x08, 0x02, 0x00, 0x00, 0xD4, 0x01, 0x00, 0x00, 0x9C, 0x01, 0x00, 0x00, 0x74, 0x01, 0x00, 0x00, 0x3C, 0x01, 0x00, 0x00, 0x14, 0x01, 0x00, 0x00,
  0xE0, 0x00, 0x00, 0x00, 0xBC, 0x00, 0x00, 0x00, 0x84, 0x00, 0x00, 0x00, 0x5C, 0x00, 0x00, 0x00, 0x28, 0x00, 0x00, 0x00, 0x04, 0x00, 0x00, 0x00, 0xBE, 0xEA, 0xFF, 0xFF, 0x0C, 0x00, 0x00, 0x00, 0x10, 0x00, 0x00, 0x00, 0x11, 0x00, 0x00, 0x00,
  0x01, 0x00, 0x00, 0x00, 0xB0, 0x00, 0x00, 0x00, 0x01, 0x00, 0x00, 0x00, 0xAF, 0x00, 0x00, 0x00, 0x4A, 0xE7, 0xFF, 0xFF, 0x14, 0x00, 0x00, 0x00, 0x00, 0x00, 0x00, 0x0B, 0x10, 0x00, 0x00, 0x00, 0x14, 0x00, 0x00, 0x00, 0x03, 0x00, 0x00, 0x00,
  0x50, 0x83, 0xFF, 0xFF, 0x01, 0x00, 0x00, 0x00, 0xAF, 0x00, 0x00, 0x00, 0x02, 0x00, 0x00, 0x00, 0xAE, 0x00, 0x00, 0x00, 0x0D, 0x00, 0x00, 0x00, 0x0E, 0xEB, 0xFF, 0xFF, 0x0C, 0x00, 0x00, 0x00, 0x10, 0x00, 0x00, 0x00, 0x07, 0x00, 0x00, 0x00,
  0x01, 0x00, 0x00, 0x00, 0xAE, 0x00, 0x00, 0x00, 0x02, 0x00, 0x00, 0x00, 0xAD, 0x00, 0x00, 0x00, 0xA4, 0x00, 0x00, 0x00, 0x9E, 0xE7, 0xFF, 0xFF, 0x14, 0x00, 0x00, 0x00, 0x00, 0x00, 0x00, 0x08, 0x10, 0x00, 0x00, 0x00, 0x14, 0x00, 0x00, 0x00,
  0x10, 0x00, 0x00, 0x00, 0xA4, 0x83, 0xFF, 0xFF, 0x01, 0x00, 0x00, 0x00, 0xAD, 0x00, 0x00, 0x00, 0x03, 0x00, 0x00, 0x00, 0xA8, 0x00, 0x00, 0x00, 0x01, 0x00, 0x00, 0x00, 0xFF, 0xFF, 0xFF, 0xFF, 0x66, 0xEB, 0xFF, 0xFF, 0x0C, 0x00, 0x00, 0x00,
  0x10, 0x00, 0x00, 0x00, 0x11, 0x00, 0x00, 0x00, 0x01, 0x00, 0x00, 0x00, 0xAC, 0x00, 0x00, 0x00, 0x01, 0x00, 0x00, 0x00, 0xAB, 0x00, 0x00, 0x00, 0xF2, 0xE7, 0xFF, 0xFF, 0x14, 0x00, 0x00, 0x00, 0x00, 0x00, 0x00, 0x0B, 0x10, 0x00, 0x00, 0x00,
  0x14, 0x00, 0x00, 0x00, 0x03, 0x00, 0x00, 0x00, 0xF8, 0x83, 0xFF, 0xFF, 0x01, 0x00, 0x00, 0x00, 0xAB, 0x00, 0x00, 0x00, 0x02, 0x00, 0x00, 0x00, 0xAA, 0x00, 0x00, 0x00, 0x0C, 0x00, 0x00, 0x00, 0xB6, 0xEB, 0xFF, 0xFF, 0x0C, 0x00, 0x00, 0x00,
  0x10, 0x00, 0x00, 0x00, 0x07, 0x00, 0x00, 0x00, 0x01, 0x00, 0x00, 0x00, 0xAA, 0x00, 0x00, 0x00, 0x02, 0x00, 0x00, 0x00, 0xA9, 0x00, 0x00, 0x00, 0xA4, 0x00, 0x00, 0x00, 0x46, 0xE8, 0xFF, 0xFF, 0x14, 0x00, 0x00, 0x00, 0x00, 0x00, 0x00, 0x08,
  0x10, 0x00, 0x00, 0x00, 0x14, 0x00, 0x00, 0x00, 0x10, 0x00, 0x00, 0x00, 0x4C, 0x84, 0xFF, 0xFF, 0x01, 0x00, 0x00, 0x00, 0xA9, 0x00, 0x00, 0x00, 0x03, 0x00, 0x00, 0x00, 0xA8, 0x00, 0x00, 0x00, 0x02, 0x00, 0x00, 0x00, 0xFF, 0xFF, 0xFF, 0xFF,
  0x0E, 0xEC, 0xFF, 0xFF, 0x0C, 0x00, 0x00, 0x00, 0x10, 0x00, 0x00, 0x00, 0x07, 0x00, 0x00, 0x00, 0x01, 0x00, 0x00, 0x00, 0xA8, 0x00, 0x00, 0x00, 0x02, 0x00, 0x00, 0x00, 0xA0, 0x00, 0x00, 0x00, 0xA7, 0x00, 0x00, 0x00, 0x9E, 0xE8, 0xFF, 0xFF,
  0x14, 0x00, 0x00, 0x00, 0x00, 0x00, 0x00, 0x3B, 0x14, 0x00, 0x00, 0x00, 0x18, 0x00, 0x00, 0x00, 0x0A, 0x00, 0x00, 0x00, 0xDE, 0xE8, 0xFF, 0xFF, 0x02, 0x00, 0x00, 0x00, 0x01, 0x00, 0x00, 0x00, 0xA7, 0x00, 0x00, 0x00, 0x02, 0x00, 0x00, 0x00,
  0xA3, 0x00, 0x00, 0x00, 0xA6, 0x00, 0x00, 0x00, 0xD2, 0xE8, 0xFF, 0xFF, 0x14, 0x00, 0x00, 0x00, 0x00, 0x00, 0x00, 0x1B, 0x10, 0x00, 0x00, 0x00, 0x14, 0x00, 0x00, 0x00, 0x0E, 0x00, 0x00, 0x00, 0xD8, 0x84, 0xFF, 0xFF, 0x01, 0x00, 0x00, 0x00,
  0xA6, 0x00, 0x00, 0x00, 0x02, 0x00, 0x00, 0x00, 0xA5, 0x00, 0x00, 0x00, 0x07, 0x00, 0x00, 0x00, 0x02, 0xE9, 0xFF, 0xFF, 0x14, 0x00, 0x00, 0x00, 0x00, 0x00, 0x00, 0x17, 0x10, 0x00, 0x00, 0x00, 0x14, 0x00, 0x00, 0x00, 0x0D, 0x00, 0x00, 0x00,
  0x08, 0x85, 0xFF, 0xFF, 0x01, 0x00, 0x00, 0x00, 0xA5, 0x00, 0x00, 0x00, 0x02, 0x00, 0x00, 0x00, 0xA1, 0x00, 0x00, 0x00, 0x04, 0x00, 0x00, 0x00, 0x32, 0xE9, 0xFF, 0xFF, 0x14, 0x00, 0x00, 0x00, 0x00, 0x00, 0x00, 0x0A, 0x10, 0x00, 0x00, 0x00,
  0x14, 0x00, 0x00, 0x00, 0x0F, 0x00, 0x00, 0x00, 0x38, 0x85, 0xFF, 0xFF, 0x01, 0x00, 0x00, 0x00, 0xA4, 0x00, 0x00, 0x00, 0x02, 0x00, 0x00, 0x00, 0xA2, 0x00, 0x00, 0x00, 0x06, 0x00, 0x00, 0x00, 0x62, 0xE9, 0xFF, 0xFF, 0x14, 0x00, 0x00, 0x00,
  0x00, 0x00, 0x00, 0x1B, 0x10, 0x00, 0x00, 0x00, 0x14, 0x00, 0x00, 0x00, 0x0E, 0x00, 0x00, 0x00, 0x68, 0x85, 0xFF, 0xFF, 0x01, 0x00, 0x00, 0x00, 0xA3, 0x00, 0x00, 0x00, 0x02, 0x00, 0x00, 0x00, 0xA2, 0x00, 0x00, 0x00, 0x07, 0x00, 0x00, 0x00,
  0x92, 0xE9, 0xFF, 0xFF, 0x14, 0x00, 0x00, 0x00, 0x00, 0x00, 0x00, 0x17, 0x10, 0x00, 0x00, 0x00, 0x14, 0x00, 0x00, 0x00, 0x0D, 0x00, 0x00, 0x00, 0x98, 0x85, 0xFF, 0xFF, 0x01, 0x00, 0x00, 0x00, 0xA2, 0x00, 0x00, 0x00, 0x02, 0x00, 0x00, 0x00,
  0xA1, 0x00, 0x00, 0x00, 0x03, 0x00, 0x00, 0x00, 0xC2, 0xE9, 0xFF, 0xFF, 0x14, 0x00, 0x00, 0x00, 0x00, 0x00, 0x00, 0x37, 0x14, 0x00, 0x00, 0x00, 0x18, 0x00, 0x00, 0x00, 0x05, 0x00, 0x00, 0x00, 0x9E, 0xEA, 0xFF, 0xFF, 0x00, 0x00, 0x00, 0x02,
  0x01, 0x00, 0x00, 0x00, 0xA1, 0x00, 0x00, 0x00, 0x01, 0x00, 0x00, 0x00, 0xA0, 0x00, 0x00, 0x00, 0xF2, 0xE9, 0xFF, 0xFF, 0x14, 0x00, 0x00, 0x00, 0x00, 0x00, 0x00, 0x0B, 0x10, 0x00, 0x00, 0x00, 0x14, 0x00, 0x00, 0x00, 0x03, 0x00, 0x00, 0x00,
  0xF8, 0x85, 0xFF, 0xFF, 0x01, 0x00, 0x00, 0x00, 0xA0, 0x00, 0x00, 0x00, 0x02, 0x00, 0x00, 0x00, 0x6E, 0x00, 0x00, 0x00, 0x9F, 0x00, 0x00, 0x00, 0x22, 0xEA, 0xFF, 0xFF, 0x14, 0x00, 0x00, 0x00, 0x00, 0x00, 0x00, 0x0B, 0x14, 0x00, 0x00, 0x00,
  0x18, 0x00, 0x00, 0x00, 0x03, 0x00, 0x00, 0x00, 0xFE, 0xEA, 0xFF, 0xFF, 0x00, 0x00, 0x00, 0x01, 0x01, 0x00, 0x00, 0x00, 0x9F, 0x00, 0x00, 0x00, 0x02, 0x00, 0x00, 0x00, 0x9E, 0x00, 0x00, 0x00, 0x20, 0x00, 0x00, 0x00, 0x56, 0xEA, 0xFF, 0xFF,
  0x14, 0x00, 0x00, 0x00, 0x00, 0x00, 0x00, 0x15, 0x10, 0x00, 0x00, 0x00, 0x14, 0x00, 0x00, 0x00, 0x04, 0x00, 0x00, 0x00, 0x5C, 0x86, 0xFF, 0xFF, 0x01, 0x00, 0x00, 0x00, 0x9E, 0x00, 0x00, 0x00, 0x02, 0x00, 0x00, 0x00, 0x9D, 0x00, 0x00, 0x00,
  0x1F, 0x00, 0x00, 0x00, 0x86, 0xEA, 0xFF, 0xFF, 0x14, 0x00, 0x00, 0x00, 0x00, 0x00, 0x00, 0x0B, 0x10, 0x00, 0x00, 0x00, 0x14, 0x00, 0x00, 0x00, 0x03, 0x00, 0x00, 0x00, 0x8C, 0x86, 0xFF, 0xFF, 0x01, 0x00, 0x00, 0x00, 0x9D, 0x00, 0x00, 0x00,
  0x02, 0x00, 0x00, 0x00, 0x9C, 0x00, 0x00, 0x00, 0x14, 0x00, 0x00, 0x00, 0x4A, 0xEE, 0xFF, 0xFF, 0x0C, 0x00, 0x00, 0x00, 0x10, 0x00, 0x00, 0x00, 0x0C, 0x00, 0x00, 0x00, 0x01, 0x00, 0x00, 0x00, 0x9C, 0x00, 0x00, 0x00, 0x03, 0x00, 0x00, 0x00,
  0x9B, 0x00, 0x00, 0x00, 0x09, 0x00, 0x00, 0x00, 0x97, 0x00, 0x00, 0x00, 0xDE, 0xEA, 0xFF, 0xFF, 0x14, 0x00, 0x00, 0x00, 0x00, 0x00, 0x00, 0x1E, 0x1C, 0x00, 0x00, 0x00, 0x20, 0x00, 0x00, 0x00, 0x02, 0x00, 0x00, 0x00, 0x1E, 0xEB, 0xFF, 0xFF,
  0x04, 0x00, 0x00, 0x00, 0x01, 0x00, 0x00, 0x00, 0xFD, 0xFF, 0xFF, 0xFF, 0x01, 0x00, 0x00, 0x00, 0x9B, 0x00, 0x00, 0x00, 0x01, 0x00, 0x00, 0x00, 0x9A, 0x00, 0x00, 0x00, 0x16, 0xEB, 0xFF, 0xFF, 0x14, 0x00, 0x00, 0x00, 0x00, 0x00, 0x00, 0x01,
  0x1C, 0x00, 0x00, 0x00, 0x20, 0x00, 0x00, 0x00, 0x01, 0x00, 0x00, 0x00, 0xD2, 0xF1, 0xFF, 0xFF, 0x01, 0x00, 0x00, 0x00, 0x01, 0x00, 0x00, 0x00, 0x00, 0x00, 0x00, 0x01, 0x01, 0x00, 0x00, 0x00, 0x9A, 0x00, 0x00, 0x00, 0x03, 0x00, 0x00, 0x00,
  0x99, 0x00, 0x00, 0x00, 0x2D, 0x00, 0x00, 0x00, 0x27, 0x00, 0x00, 0x00, 0xFE, 0xEA, 0xFF, 0xFF, 0x10, 0x00, 0x00, 0x00, 0x00, 0x00, 0x00, 0x34, 0x0C, 0x00, 0x00, 0x00, 0x10, 0x00, 0x00, 0x00, 0x58, 0x87, 0xFF, 0xFF, 0x01, 0x00, 0x00, 0x00,
  0x99, 0x00, 0x00, 0x00, 0x02, 0x00, 0x00, 0x00, 0x98, 0x00, 0x00, 0x00, 0x08, 0x00, 0x00, 0x00, 0x16, 0xEF, 0xFF, 0xFF, 0x0C, 0x00, 0x00, 0x00, 0x10, 0x00, 0x00, 0x00, 0x0B, 0x00, 0x00, 0x00, 0x01, 0x00, 0x00, 0x00, 0x98, 0x00, 0x00, 0x00,
  0x03, 0x00, 0x00, 0x00, 0x87, 0x00, 0x00, 0x00, 0x09, 0x00, 0x00, 0x00, 0x93, 0x00, 0x00, 0x00, 0xAA, 0xEB, 0xFF, 0xFF, 0x14, 0x00, 0x00, 0x00, 0x00, 0x00, 0x00, 0x20, 0x18, 0x00, 0x00, 0x00, 0x1C, 0x00, 0x00, 0x00, 0x06, 0x00, 0x00, 0x00,
  0xF4, 0xF0, 0xFF, 0xFF, 0x02, 0x00, 0x00, 0x00, 0x02, 0x00, 0x00, 0x00, 0x01, 0x00, 0x00, 0x00, 0x97, 0x00, 0x00, 0x00, 0x04, 0x00, 0x00, 0x00, 0x96, 0x00, 0x00, 0x00, 0x23, 0x00, 0x00, 0x00, 0x22, 0x00, 0x00, 0x00, 0x21, 0x00, 0x00, 0x00,
  0x7E, 0xEF, 0xFF, 0xFF, 0x0C, 0x00, 0x00, 0x00, 0x10, 0x00, 0x00, 0x00, 0x07, 0x00, 0x00, 0x00, 0x01, 0x00, 0x00, 0x00, 0x96, 0x00, 0x00, 0x00, 0x02, 0x00, 0x00, 0x00, 0x95, 0x00, 0x00, 0x00, 0x22, 0x00, 0x00, 0x00, 0x0E, 0xEC, 0xFF, 0xFF,
  0x14, 0x00, 0x00, 0x00, 0x00, 0x00, 0x00, 0x3B, 0x14, 0x00, 0x00, 0x00, 0x18, 0x00, 0x00, 0x00, 0x0A, 0x00, 0x00, 0x00, 0x4E, 0xEC, 0xFF, 0xFF, 0x02, 0x00, 0x00, 0x00, 0x01, 0x00, 0x00, 0x00, 0x95, 0x00, 0x00, 0x00, 0x02, 0x00, 0x00, 0x00,
  0x05, 0x00, 0x00, 0x00, 0x94, 0x00, 0x00, 0x00, 0x42, 0xEC, 0xFF, 0xFF, 0x14, 0x00, 0x00, 0x00, 0x00, 0x00, 0x00, 0x20, 0x14, 0x00, 0x00, 0x00, 0x18, 0x00, 0x00, 0x00, 0x06, 0x00, 0x00, 0x00, 0xA6, 0xEF, 0xFF, 0xFF, 0x01, 0x00, 0x00, 0x00,
  0x01, 0x00, 0x00, 0x00, 0x94, 0x00, 0x00, 0x00, 0x04, 0x00, 0x00, 0x00, 0x8E, 0x00, 0x00, 0x00, 0x07, 0x00, 0x00, 0x00, 0x06, 0x00, 0x00, 0x00, 0x06, 0x00, 0x00, 0x00, 0x7E, 0xEC, 0xFF, 0xFF, 0x14, 0x00, 0x00, 0x00, 0x00, 0x00, 0x00, 0x20,
  0x18, 0x00, 0x00, 0x00, 0x1C, 0x00, 0x00, 0x00, 0x06, 0x00, 0x00, 0x00, 0xC8, 0xF1, 0xFF, 0xFF, 0x02, 0x00, 0x00, 0x00, 0x02, 0x00, 0x00, 0x00, 0x01, 0x00, 0x00, 0x00, 0x93, 0x00, 0x00, 0x00, 0x04, 0x00, 0x00, 0x00, 0x92, 0x00, 0x00, 0x00,
  0x23, 0x00, 0x00, 0x00, 0x22, 0x00, 0x00, 0x00, 0x21, 0x00, 0x00, 0x00, 0x52, 0xF0, 0xFF, 0xFF, 0x0C, 0x00, 0x00, 0x00, 0x10, 0x00, 0x00, 0x00, 0x07, 0x00, 0x00, 0x00, 0x01, 0x00, 0x00, 0x00, 0x92, 0x00, 0x00, 0x00, 0x02, 0x00, 0x00, 0x00,
  0x91, 0x00, 0x00, 0x00, 0x22, 0x00, 0x00, 0x00, 0xE2, 0xEC, 0xFF, 0xFF, 0x14, 0x00, 0x00, 0x00, 0x00, 0x00, 0x00, 0x3B, 0x14, 0x00, 0x00, 0x00, 0x18, 0x00, 0x00, 0x00, 0x0A, 0x00, 0x00, 0x00, 0x22, 0xED, 0xFF, 0xFF, 0x02, 0x00, 0x00, 0x00,
  0x01, 0x00, 0x00, 0x00, 0x91, 0x00, 0x00, 0x00, 0x02, 0x00, 0x00, 0x00, 0x0B, 0x00, 0x00, 0x00, 0x90, 0x00, 0x00, 0x00, 0x16, 0xED, 0xFF, 0xFF, 0x14, 0x00, 0x00, 0x00, 0x00, 0x00, 0x00, 0x20, 0x14, 0x00, 0x00, 0x00, 0x18, 0x00, 0x00, 0x00,
  0x06, 0x00, 0x00, 0x00, 0x7A, 0xF0, 0xFF, 0xFF, 0x01, 0x00, 0x00, 0x00, 0x01, 0x00, 0x00, 0x00, 0x90, 0x00, 0x00, 0x00, 0x04, 0x00, 0x00, 0x00, 0x8F, 0x00, 0x00, 0x00, 0x07, 0x00, 0x00, 0x00, 0x06, 0x00, 0x00, 0x00, 0x06, 0x00, 0x00, 0x00,
  0x52, 0xED, 0xFF, 0xFF, 0x14, 0x00, 0x00, 0x00, 0x00, 0x00, 0x00, 0x0B, 0x10, 0x00, 0x00, 0x00, 0x14, 0x00, 0x00, 0x00, 0x03, 0x00, 0x00, 0x00, 0x58, 0x89, 0xFF, 0xFF, 0x01, 0x00, 0x00, 0x00, 0x8F, 0x00, 0x00, 0x00, 0x02, 0x00, 0x00, 0x00,
  0x8E, 0x00, 0x00, 0x00, 0x25, 0x00, 0x00, 0x00, 0x16, 0xF1, 0xFF, 0xFF, 0x0C, 0x00, 0x00, 0x00, 0x10, 0x00, 0x00, 0x00, 0x08, 0x00, 0x00, 0x00, 0x01, 0x00, 0x00, 0x00, 0x8E, 0x00, 0x00, 0x00, 0x02, 0x00, 0x00, 0x00, 0x8D, 0x00, 0x00, 0x00,
  0x09, 0x00, 0x00, 0x00, 0xA6, 0xED, 0xFF, 0xFF, 0x14, 0x00, 0x00, 0x00, 0x00, 0x00, 0x00, 0x1C, 0x10, 0x00, 0x00, 0x00, 0x14, 0x00, 0x00, 0x00, 0x09, 0x00, 0x00, 0x00, 0xAC, 0x89, 0xFF, 0xFF, 0x01, 0x00, 0x00, 0x00, 0x8D, 0x00, 0x00, 0x00,
  0x02, 0x00, 0x00, 0x00, 0x09, 0x00, 0x00, 0x00, 0x8C, 0x00, 0x00, 0x00, 0x6A, 0xF1, 0xFF, 0xFF, 0x0C, 0x00, 0x00, 0x00, 0x10, 0x00, 0x00, 0x00, 0x08, 0x00, 0x00, 0x00, 0x01, 0x00, 0x00, 0x00, 0x8C, 0x00, 0x00, 0x00, 0x02, 0x00, 0x00, 0x00,
  0x8B, 0x00, 0x00, 0x00, 0x09, 0x00, 0x00, 0x00, 0xFA, 0xED, 0xFF, 0xFF, 0x14, 0x00, 0x00, 0x00, 0x00, 0x00, 0x00, 0x0B, 0x10, 0x00, 0x00, 0x00, 0x14, 0x00, 0x00, 0x00, 0x03, 0x00, 0x00, 0x00, 0x00, 0x8A, 0xFF, 0xFF, 0x01, 0x00, 0x00, 0x00,
  0x8B, 0x00, 0x00, 0x00, 0x02, 0x00, 0x00, 0x00, 0x8A, 0x00, 0x00, 0x00, 0x26, 0x00, 0x00, 0x00, 0xBE, 0xF1, 0xFF, 0xFF, 0x0C, 0x00, 0x00, 0x00, 0x10, 0x00, 0x00, 0x00, 0x07, 0x00, 0x00, 0x00, 0x01, 0x00, 0x00, 0x00, 0x8A, 0x00, 0x00, 0x00,
  0x02, 0x00, 0x00, 0x00, 0x89, 0x00, 0x00, 0x00, 0x06, 0x00, 0x00, 0x00, 0x4E, 0xEE, 0xFF, 0xFF, 0x14, 0x00, 0x00, 0x00, 0x00, 0x00, 0x00, 0x20, 0x14, 0x00, 0x00, 0x00, 0x18, 0x00, 0x00, 0x00, 0x06, 0x00, 0x00, 0x00, 0xB2, 0xF1, 0xFF, 0xFF,
  0x01, 0x00, 0x00, 0x00, 0x01, 0x00, 0x00, 0x00, 0x89, 0x00, 0x00, 0x00, 0x04, 0x00, 0x00, 0x00, 0x88, 0x00, 0x00, 0x00, 0x06, 0x00, 0x00, 0x00, 0x04, 0x00, 0x00, 0x00, 0x06, 0x00, 0x00, 0x00, 0x8A, 0xEE, 0xFF, 0xFF, 0x14, 0x00, 0x00, 0x00,
  0x00, 0x00, 0x00, 0x37, 0x14, 0x00, 0x00, 0x00, 0x18, 0x00, 0x00, 0x00, 0x05, 0x00, 0x00, 0x00, 0x66, 0xEF, 0xFF, 0xFF, 0x00, 0x00, 0x00, 0x02, 0x01, 0x00, 0x00, 0x00, 0x88, 0x00, 0x00, 0x00, 0x01, 0x00, 0x00, 0x00, 0x87, 0x00, 0x00, 0x00,
  0xBA, 0xEE, 0xFF, 0xFF, 0x14, 0x00, 0x00, 0x00, 0x00, 0x00, 0x00, 0x0B, 0x14, 0x00, 0x00, 0x00, 0x18, 0x00, 0x00, 0x00, 0x03, 0x00, 0x00, 0x00, 0x96, 0xEF, 0xFF, 0xFF, 0x00, 0x00, 0x00, 0x01, 0x01, 0x00, 0x00, 0x00, 0x87, 0x00, 0x00, 0x00,
  0x02, 0x00, 0x00, 0x00, 0x86, 0x00, 0x00, 0x00, 0x1E, 0x00, 0x00, 0x00, 0xEE, 0xEE, 0xFF, 0xFF, 0x14, 0x00, 0x00, 0x00, 0x00, 0x00, 0x00, 0x15, 0x10, 0x00, 0x00, 0x00, 0x14, 0x00, 0x00, 0x00, 0x04, 0x00, 0x00, 0x00, 0xF4, 0x8A, 0xFF, 0xFF,
  0x01, 0x00, 0x00, 0x00, 0x86, 0x00, 0x00, 0x00, 0x02, 0x00, 0x00, 0x00, 0x85, 0x00, 0x00, 0x00, 0x1D, 0x00, 0x00, 0x00, 0x1E, 0xEF, 0xFF, 0xFF, 0x14, 0x00, 0x00, 0x00, 0x00, 0x00, 0x00, 0x0B, 0x10, 0x00, 0x00, 0x00, 0x14, 0x00, 0x00, 0x00,
  0x03, 0x00, 0x00, 0x00, 0x24, 0x8B, 0xFF, 0xFF, 0x01, 0x00, 0x00, 0x00, 0x85, 0x00, 0x00, 0x00, 0x02, 0x00, 0x00, 0x00, 0x84, 0x00, 0x00, 0x00, 0x13, 0x00, 0x00, 0x00, 0xE2, 0xF2, 0xFF, 0xFF, 0x0C, 0x00, 0x00, 0x00, 0x10, 0x00, 0x00, 0x00,
  0x0C, 0x00, 0x00, 0x00, 0x01, 0x00, 0x00, 0x00, 0x84, 0x00, 0x00, 0x00, 0x03, 0x00, 0x00, 0x00, 0x83, 0x00, 0x00, 0x00, 0x09, 0x00, 0x00, 0x00, 0x7F, 0x00, 0x00, 0x00, 0x76, 0xEF, 0xFF, 0xFF, 0x14, 0x00, 0x00, 0x00, 0x00, 0x00, 0x00, 0x1E,
  0x1C, 0x00, 0x00, 0x00, 0x20, 0x00, 0x00, 0x00, 0x02, 0x00, 0x00, 0x00, 0xB6, 0xEF, 0xFF, 0xFF, 0x04, 0x00, 0x00, 0x00, 0x01, 0x00, 0x00, 0x00, 0xFD, 0xFF, 0xFF, 0xFF, 0x01, 0x00, 0x00, 0x00, 0x83, 0x00, 0x00, 0x00, 0x01, 0x00, 0x00, 0x00,
  0x82, 0x00, 0x00, 0x00, 0xAE, 0xEF, 0xFF, 0xFF, 0x14, 0x00, 0x00, 0x00, 0x00, 0x00, 0x00, 0x01, 0x1C, 0x00, 0x00, 0x00, 0x20, 0x00, 0x00, 0x00, 0x01, 0x00, 0x00, 0x00, 0x6A, 0xF6, 0xFF, 0xFF, 0x01, 0x00, 0x00, 0x00, 0x01, 0x00, 0x00, 0x00,
  0x00, 0x00, 0x00, 0x01, 0x01, 0x00, 0x00, 0x00, 0x82, 0x00, 0x00, 0x00, 0x03, 0x00, 0x00, 0x00, 0x81, 0x00, 0x00, 0x00, 0x2C, 0x00, 0x00, 0x00, 0x27, 0x00, 0x00, 0x00, 0x96, 0xEF, 0xFF, 0xFF, 0x10, 0x00, 0x00, 0x00, 0x00, 0x00, 0x00, 0x34,
  0x0C, 0x00, 0x00, 0x00, 0x10, 0x00, 0x00, 0x00, 0xF0, 0x8B, 0xFF, 0xFF, 0x01, 0x00, 0x00, 0x00, 0x81, 0x00, 0x00, 0x00, 0x02, 0x00, 0x00, 0x00, 0x80, 0x00, 0x00, 0x00, 0x08, 0x00, 0x00, 0x00, 0xAE, 0xF3, 0xFF, 0xFF, 0x0C, 0x00, 0x00, 0x00,
  0x10, 0x00, 0x00, 0x00, 0x0B, 0x00, 0x00, 0x00, 0x01, 0x00, 0x00, 0x00, 0x80, 0x00, 0x00, 0x00, 0x03, 0x00, 0x00, 0x00, 0x6F, 0x00, 0x00, 0x00, 0x09, 0x00, 0x00, 0x00, 0x7B, 0x00, 0x00, 0x00, 0x42, 0xF0, 0xFF, 0xFF, 0x14, 0x00, 0x00, 0x00,
  0x00, 0x00, 0x00, 0x20, 0x18, 0x00, 0x00, 0x00, 0x1C, 0x00, 0x00, 0x00, 0x06, 0x00, 0x00, 0x00, 0x8C, 0xF5, 0xFF, 0xFF, 0x02, 0x00, 0x00, 0x00, 0x02, 0x00, 0x00, 0x00, 0x01, 0x00, 0x00, 0x00, 0x7F, 0x00, 0x00, 0x00, 0x04, 0x00, 0x00, 0x00,
  0x7E, 0x00, 0x00, 0x00, 0x23, 0x00, 0x00, 0x00, 0x22, 0x00, 0x00, 0x00, 0x21, 0x00, 0x00, 0x00, 0x16, 0xF4, 0xFF, 0xFF, 0x0C, 0x00, 0x00, 0x00, 0x10, 0x00, 0x00, 0x00, 0x07, 0x00, 0x00, 0x00, 0x01, 0x00, 0x00, 0x00, 0x7E, 0x00, 0x00, 0x00,
  0x02, 0x00, 0x00, 0x00, 0x7D, 0x00, 0x00, 0x00, 0x22, 0x00, 0x00, 0x00, 0xA6, 0xF0, 0xFF, 0xFF, 0x14, 0x00, 0x00, 0x00, 0x00, 0x00, 0x00, 0x3B, 0x14, 0x00, 0x00, 0x00, 0x18, 0x00, 0x00, 0x00, 0x0A, 0x00, 0x00, 0x00, 0xE6, 0xF0, 0xFF, 0xFF,
  0x02, 0x00, 0x00, 0x00, 0x01, 0x00, 0x00, 0x00, 0x7D, 0x00, 0x00, 0x00, 0x02, 0x00, 0x00, 0x00, 0x05, 0x00, 0x00, 0x00, 0x7C, 0x00, 0x00, 0x00, 0xDA, 0xF0, 0xFF, 0xFF, 0x14, 0x00, 0x00, 0x00, 0x00, 0x00, 0x00, 0x20, 0x14, 0x00, 0x00, 0x00,
  0x18, 0x00, 0x00, 0x00, 0x06, 0x00, 0x00, 0x00, 0x3E, 0xF4, 0xFF, 0xFF, 0x01, 0x00, 0x00, 0x00, 0x01, 0x00, 0x00, 0x00, 0x7C, 0x00, 0x00, 0x00, 0x04, 0x00, 0x00, 0x00, 0x76, 0x00, 0x00, 0x00, 0x07, 0x00, 0x00, 0x00, 0x06, 0x00, 0x00, 0x00,
  0x06, 0x00, 0x00, 0x00, 0x16, 0xF1, 0xFF, 0xFF, 0x14, 0x00, 0x00, 0x00, 0x00, 0x00, 0x00, 0x20, 0x18, 0x00, 0x00, 0x00, 0x1C, 0x00, 0x00, 0x00, 0x06, 0x00, 0x00, 0x00, 0x60, 0xF6, 0xFF, 0xFF, 0x02, 0x00, 0x00, 0x00, 0x02, 0x00, 0x00, 0x00,
  0x01, 0x00, 0x00, 0x00, 0x7B, 0x00, 0x00, 0x00, 0x04, 0x00, 0x00, 0x00, 0x7A, 0x00, 0x00, 0x00, 0x23, 0x00, 0x00, 0x00, 0x22, 0x00, 0x00, 0x00, 0x21, 0x00, 0x00, 0x00, 0xEA, 0xF4, 0xFF, 0xFF, 0x0C, 0x00, 0x00, 0x00, 0x10, 0x00, 0x00, 0x00,
  0x07, 0x00, 0x00, 0x00, 0x01, 0x00, 0x00, 0x00, 0x7A, 0x00, 0x00, 0x00, 0x02, 0x00, 0x00, 0x00, 0x79, 0x00, 0x00, 0x00, 0x22, 0x00, 0x00, 0x00, 0x7A, 0xF1, 0xFF, 0xFF, 0x14, 0x00, 0x00, 0x00, 0x00, 0x00, 0x00, 0x3B, 0x14, 0x00, 0x00, 0x00,
  0x18, 0x00, 0x00, 0x00, 0x0A, 0x00, 0x00, 0x00, 0xBA, 0xF1, 0xFF, 0xFF, 0x02, 0x00, 0x00, 0x00, 0x01, 0x00, 0x00, 0x00, 0x79, 0x00, 0x00, 0x00, 0x02, 0x00, 0x00, 0x00, 0x0B, 0x00, 0x00, 0x00, 0x78, 0x00, 0x00, 0x00, 0xAE, 0xF1, 0xFF, 0xFF,
  0x14, 0x00, 0x00, 0x00, 0x00, 0x00, 0x00, 0x20, 0x14, 0x00, 0x00, 0x00, 0x18, 0x00, 0x00, 0x00, 0x06, 0x00, 0x00, 0x00, 0x12, 0xF5, 0xFF, 0xFF, 0x01, 0x00, 0x00, 0x00, 0x01, 0x00, 0x00, 0x00, 0x78, 0x00, 0x00, 0x00, 0x04, 0x00, 0x00, 0x00,
  0x77, 0x00, 0x00, 0x00, 0x07, 0x00, 0x00, 0x00, 0x06, 0x00, 0x00, 0x00, 0x06, 0x00, 0x00, 0x00, 0xEA, 0xF1, 0xFF, 0xFF, 0x14, 0x00, 0x00, 0x00, 0x00, 0x00, 0x00, 0x0B, 0x10, 0x00, 0x00, 0x00, 0x14, 0x00, 0x00, 0x00, 0x03, 0x00, 0x00, 0x00,
  0xF0, 0x8D, 0xFF, 0xFF, 0x01, 0x00, 0x00, 0x00, 0x77, 0x00, 0x00, 0x00, 0x02, 0x00, 0x00, 0x00, 0x76, 0x00, 0x00, 0x00, 0x25, 0x00, 0x00, 0x00, 0xAE, 0xF5, 0xFF, 0xFF, 0x0C, 0x00, 0x00, 0x00, 0x10, 0x00, 0x00, 0x00, 0x08, 0x00, 0x00, 0x00,
  0x01, 0x00, 0x00, 0x00, 0x76, 0x00, 0x00, 0x00, 0x02, 0x00, 0x00, 0x00, 0x75, 0x00, 0x00, 0x00, 0x09, 0x00, 0x00, 0x00, 0x3E, 0xF2, 0xFF, 0xFF, 0x14, 0x00, 0x00, 0x00, 0x00, 0x00, 0x00, 0x1C, 0x10, 0x00, 0x00, 0x00, 0x14, 0x00, 0x00, 0x00,
  0x09, 0x00, 0x00, 0x00, 0x44, 0x8E, 0xFF, 0xFF, 0x01, 0x00, 0x00, 0x00, 0x75, 0x00, 0x00, 0x00, 0x02, 0x00, 0x00, 0x00, 0x09, 0x00, 0x00, 0x00, 0x74, 0x00, 0x00, 0x00, 0x02, 0xF6, 0xFF, 0xFF, 0x0C, 0x00, 0x00, 0x00, 0x10, 0x00, 0x00, 0x00,
  0x08, 0x00, 0x00, 0x00, 0x01, 0x00, 0x00, 0x00, 0x74, 0x00, 0x00, 0x00, 0x02, 0x00, 0x00, 0x00, 0x73, 0x00, 0x00, 0x00, 0x09, 0x00, 0x00, 0x00, 0x92, 0xF2, 0xFF, 0xFF, 0x14, 0x00, 0x00, 0x00, 0x00, 0x00, 0x00, 0x0B, 0x10, 0x00, 0x00, 0x00,
  0x14, 0x00, 0x00, 0x00, 0x03, 0x00, 0x00, 0x00, 0x98, 0x8E, 0xFF, 0xFF, 0x01, 0x00, 0x00, 0x00, 0x73, 0x00, 0x00, 0x00, 0x02, 0x00, 0x00, 0x00, 0x72, 0x00, 0x00, 0x00, 0x26, 0x00, 0x00, 0x00, 0x56, 0xF6, 0xFF, 0xFF, 0x0C, 0x00, 0x00, 0x00,
  0x10, 0x00, 0x00, 0x00, 0x07, 0x00, 0x00, 0x00, 0x01, 0x00, 0x00, 0x00, 0x72, 0x00, 0x00, 0x00, 0x02, 0x00, 0x00, 0x00, 0x71, 0x00, 0x00, 0x00, 0x06, 0x00, 0x00, 0x00, 0xE6, 0xF2, 0xFF, 0xFF, 0x14, 0x00, 0x00, 0x00, 0x00, 0x00, 0x00, 0x20,
  0x14, 0x00, 0x00, 0x00, 0x18, 0x00, 0x00, 0x00, 0x06, 0x00, 0x00, 0x00, 0x4A, 0xF6, 0xFF, 0xFF, 0x01, 0x00, 0x00, 0x00, 0x01, 0x00, 0x00, 0x00, 0x71, 0x00, 0x00, 0x00, 0x04, 0x00, 0x00, 0x00, 0x70, 0x00, 0x00, 0x00, 0x06, 0x00, 0x00, 0x00,
  0x04, 0x00, 0x00, 0x00, 0x06, 0x00, 0x00, 0x00, 0x22, 0xF3, 0xFF, 0xFF, 0x14, 0x00, 0x00, 0x00, 0x00, 0x00, 0x00, 0x37, 0x14, 0x00, 0x00, 0x00, 0x18, 0x00, 0x00, 0x00, 0x05, 0x00, 0x00, 0x00, 0xFE, 0xF3, 0xFF, 0xFF, 0x00, 0x00, 0x00, 0x02,
  0x01, 0x00, 0x00, 0x00, 0x70, 0x00, 0x00, 0x00, 0x01, 0x00, 0x00, 0x00, 0x6F, 0x00, 0x00, 0x00, 0x52, 0xF3, 0xFF, 0xFF, 0x14, 0x00, 0x00, 0x00, 0x00, 0x00, 0x00, 0x0B, 0x14, 0x00, 0x00, 0x00, 0x18, 0x00, 0x00, 0x00, 0x03, 0x00, 0x00, 0x00,
  0x2E, 0xF4, 0xFF, 0xFF, 0x00, 0x00, 0x00, 0x01, 0x01, 0x00, 0x00, 0x00, 0x6F, 0x00, 0x00, 0x00, 0x02, 0x00, 0x00, 0x00, 0x3D, 0x00, 0x00, 0x00, 0x6D, 0x00, 0x00, 0x00, 0x86, 0xF3, 0xFF, 0xFF, 0x14, 0x00, 0x00, 0x00, 0x00, 0x00, 0x00, 0x0B,
  0x10, 0x00, 0x00, 0x00, 0x14, 0x00, 0x00, 0x00, 0x03, 0x00, 0x00, 0x00, 0x8C, 0x8F, 0xFF, 0xFF, 0x01, 0x00, 0x00, 0x00, 0x6E, 0x00, 0x00, 0x00, 0x02, 0x00, 0x00, 0x00, 0x39, 0x00, 0x00, 0x00, 0x6D, 0x00, 0x00, 0x00, 0xB6, 0xF3, 0xFF, 0xFF,
  0x14, 0x00, 0x00, 0x00, 0x00, 0x00, 0x00, 0x0B, 0x14, 0x00, 0x00, 0x00, 0x18, 0x00, 0x00, 0x00, 0x03, 0x00, 0x00, 0x00, 0x92, 0xF4, 0xFF, 0xFF, 0x00, 0x00, 0x00, 0x01, 0x01, 0x00, 0x00, 0x00, 0x6D, 0x00, 0x00, 0x00, 0x02, 0x00, 0x00, 0x00,
  0x6C, 0x00, 0x00, 0x00, 0x1C, 0x00, 0x00, 0x00, 0xEA, 0xF3, 0xFF, 0xFF, 0x14, 0x00, 0x00, 0x00, 0x00, 0x00, 0x00, 0x15, 0x10, 0x00, 0x00, 0x00, 0x14, 0x00, 0x00, 0x00, 0x04, 0x00, 0x00, 0x00, 0xF0, 0x8F, 0xFF, 0xFF, 0x01, 0x00, 0x00, 0x00,
  0x6C, 0x00, 0x00, 0x00, 0x02, 0x00, 0x00, 0x00, 0x6B, 0x00, 0x00, 0x00, 0x1B, 0x00, 0x00, 0x00, 0x1A, 0xF4, 0xFF, 0xFF, 0x14, 0x00, 0x00, 0x00, 0x00, 0x00, 0x00, 0x0B, 0x10, 0x00, 0x00, 0x00, 0x14, 0x00, 0x00, 0x00, 0x03, 0x00, 0x00, 0x00,
  0x20, 0x90, 0xFF, 0xFF, 0x01, 0x00, 0x00, 0x00, 0x6B, 0x00, 0x00, 0x00, 0x02, 0x00, 0x00, 0x00, 0x6A, 0x00, 0x00, 0x00, 0x12, 0x00, 0x00, 0x00, 0xDE, 0xF7, 0xFF, 0xFF, 0x0C, 0x00, 0x00, 0x00, 0x10, 0x00, 0x00, 0x00, 0x0C, 0x00, 0x00, 0x00,
  0x01, 0x00, 0x00, 0x00, 0x6A, 0x00, 0x00, 0x00, 0x03, 0x00, 0x00, 0x00, 0x69, 0x00, 0x00, 0x00, 0x04, 0x00, 0x00, 0x00, 0x65, 0x00, 0x00, 0x00, 0x72, 0xF4, 0xFF, 0xFF, 0x14, 0x00, 0x00, 0x00, 0x00, 0x00, 0x00, 0x1E, 0x1C, 0x00, 0x00, 0x00,
  0x20, 0x00, 0x00, 0x00, 0x02, 0x00, 0x00, 0x00, 0xB2, 0xF4, 0xFF, 0xFF, 0x04, 0x00, 0x00, 0x00, 0x01, 0x00, 0x00, 0x00, 0xFD, 0xFF, 0xFF, 0xFF, 0x01, 0x00, 0x00, 0x00, 0x69, 0x00, 0x00, 0x00, 0x01, 0x00, 0x00, 0x00, 0x68, 0x00, 0x00, 0x00,
  0xAA, 0xF4, 0xFF, 0xFF, 0x14, 0x00, 0x00, 0x00, 0x00, 0x00, 0x00, 0x01, 0x1C, 0x00, 0x00, 0x00, 0x20, 0x00, 0x00, 0x00, 0x01, 0x00, 0x00, 0x00, 0x66, 0xFB, 0xFF, 0xFF, 0x01, 0x00, 0x00, 0x00, 0x01, 0x00, 0x00, 0x00, 0x00, 0x00, 0x00, 0x01,
