
/* Copyright 2019 The TensorFlow Authors. All Rights Reserved.

Licensed under the Apache License, Version 2.0 (the "License");
you may not use this file except in compliance with the License.
You may obtain a copy of the License at

    http://www.apache.org/licenses/LICENSE-2.0

Unless required by applicable law or agreed to in writing, software
distributed under the License is distributed on an "AS IS" BASIS,
WITHOUT WARRANTIES OR CONDITIONS OF ANY KIND, either express or implied.
See the License for the specific language governing permissions and
limitations under the License.
==============================================================================*/

// This is a TensorFlow Lite model file that has been converted into a C data
// array using the tensorflow.lite.util.convert_bytes_to_c_source() function.
// This form is useful for compiling into a binary for devices that don't have a
// file system.

#include "person_detect_model_data.h"

// Keep model aligned to 8 bytes to guarantee aligned 64-bit accesses.
alignas(8) const unsigned char g_person_detect_model_data[] = {
  0x20, 0x00, 0x00, 0x00, 0x54, 0x46, 0x4c, 0x33, 0x00, 0x00, 0x00, 0x00,
  0x14, 0x00, 0x20, 0x00, 0x1c, 0x00, 0x18, 0x00, 0x14, 0x00, 0x10, 0x00,
  0x0c, 0x00, 0x00, 0x00, 0x08, 0x00, 0x04, 0x00, 0x14, 0x00, 0x00, 0x00,
  0x1c, 0x00, 0x00, 0x00, 0xac, 0x00, 0x00, 0x00, 0xfc, 0x00, 0x00, 0x00,
  0x28, 0x30, 0x00, 0x00, 0x38, 0x30, 0x00, 0x00, 0x6c, 0xae, 0x00, 0x00,
  0x03, 0x00, 0x00, 0x00, 0x01, 0x00, 0x00, 0x00, 0x04, 0x00, 0x00, 0x00,
  0x4e, 0xb8, 0xff, 0xff, 0x0c, 0x00, 0x00, 0x00, 0x1c, 0x00, 0x00, 0x00,
  0x64, 0x00, 0x00, 0x00, 0x0f, 0x00, 0x00, 0x00, 0x73, 0x65, 0x72, 0x76,
  0x69, 0x6e, 0x67, 0x5f, 0x64, 0x65, 0x66, 0x61, 0x75, 0x6c, 0x74, 0x00,
  0x02, 0x00, 0x00, 0x00, 0x28, 0x00, 0x00, 0x00, 0x04, 0x00, 0x00, 0x00,
  0x1c, 0xba, 0xff, 0xff, 0xb0, 0x00, 0x00, 0x00, 0x04, 0x00, 0x00, 0x00,
  0x0f, 0x00, 0x00, 0x00, 0x69, 0x6e, 0x69, 0x74, 0x69, 0x61, 0x6c, 0x5f,
  0x63, 0x6f, 0x6e, 0x74, 0x61, 0x63, 0x74, 0x00, 0x3c, 0xba, 0xff, 0xff,
  0xac, 0x00, 0x00, 0x00, 0x04, 0x00, 0x00, 0x00, 0x0d, 0x00, 0x00, 0x00,
  0x66, 0x69, 0x6e, 0x61, 0x6c, 0x5f, 0x63, 0x6f, 0x6e, 0x74, 0x61, 0x63,
  0x74, 0x00, 0x00, 0x00, 0x01, 0x00, 0x00, 0x00, 0x04, 0x00, 0x00, 0x00,
  0x5a, 0xb5, 0xff, 0xff, 0x04, 0x00, 0x00, 0x00, 0x06, 0x00, 0x00, 0x00,
  0x69, 0x6e, 0x70, 0x75, 0x74, 0x73, 0x00, 0x00, 0x02, 0x00, 0x00, 0x00,
  0x2c, 0x00, 0x00, 0x00, 0x04, 0x00, 0x00, 0x00, 0x84, 0xba, 0xff, 0xff,
  0xb3, 0x00, 0x00, 0x00, 0x04, 0x00, 0x00, 0x00, 0x13, 0x00, 0x00, 0x00,
  0x43, 0x4f, 0x4e, 0x56, 0x45, 0x52, 0x53, 0x49, 0x4f, 0x4e, 0x5f, 0x4d,
  0x45, 0x54, 0x41, 0x44, 0x41, 0x54, 0x41, 0x00, 0xa8, 0xba, 0xff, 0xff,
  0xb2, 0x00, 0x00, 0x00, 0x04, 0x00, 0x00, 0x00, 0x13, 0x00, 0x00, 0x00,
  0x6d, 0x69, 0x6e, 0x5f, 0x72, 0x75, 0x6e, 0x74, 0x69, 0x6d, 0x65, 0x5f,
  0x76, 0x65, 0x72, 0x73, 0x69, 0x6f, 0x6e, 0x00, 0xb4, 0x00, 0x00, 0x00,
  0x28, 0x2f, 0x00, 0x00, 0x20, 0x2f, 0x00, 0x00, 0xd0, 0x2e, 0x00, 0x00,
  0x80, 0x2e, 0x00, 0x00, 0x68, 0x2e, 0x00, 0x00, 0x54, 0x2e, 0x00, 0x00,
  0x40, 0x2e, 0x00, 0x00, 0x2c, 0x2e, 0x00, 0x00, 0x24, 0x2e, 0x00, 0x00,
  0x10, 0x2e, 0x00, 0x00, 0xfc, 0x2d, 0x00, 0x00, 0xf4, 0x2d, 0x00, 0x00,
  0xe0, 0x2d, 0x00, 0x00, 0xcc, 0x2d, 0x00, 0x00, 0xb8, 0x2d, 0x00, 0x00,
  0x68, 0x2d, 0x00, 0x00, 0x18, 0x2d, 0x00, 0x00, 0xc8, 0x2c, 0x00, 0x00,
  0x78, 0x2c, 0x00, 0x00, 0x28, 0x2c, 0x00, 0x00, 0xd8, 0x2b, 0x00, 0x00,
  0x88, 0x2b, 0x00, 0x00, 0x38, 0x2b, 0x00, 0x00, 0xe8, 0x2a, 0x00, 0x00,
  0x98, 0x2a, 0x00, 0x00, 0x48, 0x2a, 0x00, 0x00, 0xf8, 0x29, 0x00, 0x00,
  0xa8, 0x29, 0x00, 0x00, 0x58, 0x29, 0x00, 0x00, 0x08, 0x29, 0x00, 0x00,
  0xb8, 0x28, 0x00, 0x00, 0x68, 0x28, 0x00, 0x00, 0x18, 0x28, 0x00, 0x00,
  0xc8, 0x27, 0x00, 0x00, 0xb0, 0x27, 0x00, 0x00, 0x98, 0x27, 0x00, 0x00,
  0x80, 0x27, 0x00, 0x00, 0xf0, 0x25, 0x00, 0x00, 0xe8, 0x25, 0x00, 0x00,
  0xd4, 0x25, 0x00, 0x00, 0x84, 0x25, 0x00, 0x00, 0xf4, 0x1d, 0x00, 0x00,
  0xe4, 0x18, 0x00, 0x00, 0xd4, 0x13, 0x00, 0x00, 0xc4, 0x0e, 0x00, 0x00,
  0xb4, 0x09, 0x00, 0x00, 0xa4, 0x04, 0x00, 0x00, 0x9c, 0x04, 0x00, 0x00,
  0x94, 0x04, 0x00, 0x00, 0x8c, 0x04, 0x00, 0x00, 0x84, 0x04, 0x00, 0x00,
  0x7c, 0x04, 0x00, 0x00, 0x74, 0x04, 0x00, 0x00, 0x6c, 0x04, 0x00, 0x00,
  0x64, 0x04, 0x00, 0x00, 0x5c, 0x04, 0x00, 0x00, 0x54, 0x04, 0x00, 0x00,
  0x4c, 0x04, 0x00, 0x00, 0x44, 0x04, 0x00, 0x00, 0x3c, 0x04, 0x00, 0x00,
  0x34, 0x04, 0x00, 0x00, 0x2c, 0x04, 0x00, 0x00, 0x24, 0x04, 0x00, 0x00,
  0x1c, 0x04, 0x00, 0x00, 0x14, 0x04, 0x00, 0x00, 0x0c, 0x04, 0x00, 0x00,
  0x04, 0x04, 0x00, 0x00, 0xfc, 0x03, 0x00, 0x00, 0xf4, 0x03, 0x00, 0x00,
  0xec, 0x03, 0x00, 0x00, 0xe4, 0x03, 0x00, 0x00, 0xdc, 0x03, 0x00, 0x00,
  0xd4, 0x03, 0x00, 0x00, 0xcc, 0x03, 0x00, 0x00, 0xc4, 0x03, 0x00, 0x00,
  0xbc, 0x03, 0x00, 0x00, 0xb4, 0x03, 0x00, 0x00, 0xac, 0x03, 0x00, 0x00,
  0xa4, 0x03, 0x00, 0x00, 0x9c, 0x03, 0x00, 0x00, 0x94, 0x03, 0x00, 0x00,
  0x8c, 0x03, 0x00, 0x00, 0x84, 0x03, 0x00, 0x00, 0x7c, 0x03, 0x00, 0x00,
  0x74, 0x03, 0x00, 0x00, 0x6c, 0x03, 0x00, 0x00, 0x64, 0x03, 0x00, 0x00,
  0x5c, 0x03, 0x00, 0x00, 0x54, 0x03, 0x00, 0x00, 0x4c, 0x03, 0x00, 0x00,
  0x44, 0x03, 0x00, 0x00, 0x3c, 0x03, 0x00, 0x00, 0x34, 0x03, 0x00, 0x00,
  0x2c, 0x03, 0x00, 0x00, 0x24, 0x03, 0x00, 0x00, 0x1c, 0x03, 0x00, 0x00,
  0x14, 0x03, 0x00, 0x00, 0x0c, 0x03, 0x00, 0x00, 0x04, 0x03, 0x00, 0x00,
  0xfc, 0x02, 0x00, 0x00, 0xf4, 0x02, 0x00, 0x00, 0xec, 0x02, 0x00, 0x00,
  0xe4, 0x02, 0x00, 0x00, 0xdc, 0x02, 0x00, 0x00, 0xd4, 0x02, 0x00, 0x00,
  0xcc, 0x02, 0x00, 0x00, 0xc4, 0x02, 0x00, 0x00, 0xbc, 0x02, 0x00, 0x00,
  0xb4, 0x02, 0x00, 0x00, 0xac, 0x02, 0x00, 0x00, 0xa4, 0x02, 0x00, 0x00,
  0x9c, 0x02, 0x00, 0x00, 0x94, 0x02, 0x00, 0x00, 0x8c, 0x02, 0x00, 0x00,
  0x84, 0x02, 0x00, 0x00, 0x7c, 0x02, 0x00, 0x00, 0x74, 0x02, 0x00, 0x00,
  0x6c, 0x02, 0x00, 0x00, 0x64, 0x02, 0x00, 0x00, 0x5c, 0x02, 0x00, 0x00,
  0x54, 0x02, 0x00, 0x00, 0x4c, 0x02, 0x00, 0x00, 0x44, 0x02, 0x00, 0x00,
  0x3c, 0x02, 0x00, 0x00, 0x34, 0x02, 0x00, 0x00, 0x2c, 0x02, 0x00, 0x00,
  0x24, 0x02, 0x00, 0x00, 0x1c, 0x02, 0x00, 0x00, 0x14, 0x02, 0x00, 0x00,
  0x0c, 0x02, 0x00, 0x00, 0x04, 0x02, 0x00, 0x00, 0xfc, 0x01, 0x00, 0x00,
  0xf4, 0x01, 0x00, 0x00, 0xec, 0x01, 0x00, 0x00, 0xe4, 0x01, 0x00, 0x00,
  0xdc, 0x01, 0x00, 0x00, 0xd4, 0x01, 0x00, 0x00, 0xcc, 0x01, 0x00, 0x00,
  0xc4, 0x01, 0x00, 0x00, 0xbc, 0x01, 0x00, 0x00, 0xb4, 0x01, 0x00, 0x00,
  0xac, 0x01, 0x00, 0x00, 0xa4, 0x01, 0x00, 0x00, 0x9c, 0x01, 0x00, 0x00,
  0x94, 0x01, 0x00, 0x00, 0x8c, 0x01, 0x00, 0x00, 0x84, 0x01, 0x00, 0x00,
  0x7c, 0x01, 0x00, 0x00, 0x74, 0x01, 0x00, 0x00, 0x6c, 0x01, 0x00, 0x00,
  0x64, 0x01, 0x00, 0x00, 0x5c, 0x01, 0x00, 0x00, 0x54, 0x01, 0x00, 0x00,
  0x4c, 0x01, 0x00, 0x00, 0x44, 0x01, 0x00, 0x00, 0x3c, 0x01, 0x00, 0x00,
  0x34, 0x01, 0x00, 0x00, 0x2c, 0x01, 0x00, 0x00, 0x24, 0x01, 0x00, 0x00,
  0x1c, 0x01, 0x00, 0x00, 0x14, 0x01, 0x00, 0x00, 0x0c, 0x01, 0x00, 0x00,
  0x04, 0x01, 0x00, 0x00, 0xfc, 0x00, 0x00, 0x00, 0xf4, 0x00, 0x00, 0x00,
  0xec, 0x00, 0x00, 0x00, 0xe4, 0x00, 0x00, 0x00, 0xdc, 0x00, 0x00, 0x00,
  0xd4, 0x00, 0x00, 0x00, 0xcc, 0x00, 0x00, 0x00, 0xc4, 0x00, 0x00, 0x00,
  0xbc, 0x00, 0x00, 0x00, 0xb4, 0x00, 0x00, 0x00, 0xac, 0x00, 0x00, 0x00,
  0xa4, 0x00, 0x00, 0x00, 0x9c, 0x00, 0x00, 0x00, 0x94, 0x00, 0x00, 0x00,
  0x8c, 0x00, 0x00, 0x00, 0x6c, 0x00, 0x00, 0x00, 0x04, 0x00, 0x00, 0x00,
  0x96, 0xb8, 0xff, 0xff, 0x04, 0x00, 0x00, 0x00, 0x58, 0x00, 0x00, 0x00,
  0x0c, 0x00, 0x00, 0x00, 0x08, 0x00, 0x0e, 0x00, 0x08, 0x00, 0x04, 0x00,
  0x08, 0x00, 0x00, 0x00, 0x10, 0x00, 0x00, 0x00, 0x28, 0x00, 0x00, 0x00,
  0x00, 0x00, 0x06, 0x00, 0x08, 0x00, 0x04, 0x00, 0x06, 0x00, 0x00, 0x00,
  0x04, 0x00, 0x00, 0x00, 0x01, 0x00, 0x00, 0x00, 0xea, 0x03, 0x00, 0x00,
  0x00, 0x00, 0x0a, 0x00, 0x10, 0x00, 0x0c, 0x00, 0x08, 0x00, 0x04, 0x00,
  0x0a, 0x00, 0x00, 0x00, 0x02, 0x00, 0x00, 0x00, 0x02, 0x00, 0x00, 0x00,
  0x04, 0x00, 0x00, 0x00, 0x06, 0x00, 0x00, 0x00, 0x32, 0x2e, 0x31, 0x34,
  0x2e, 0x30, 0x00, 0x00, 0xfa, 0xb8, 0xff, 0xff, 0x04, 0x00, 0x00, 0x00,
  0x10, 0x00, 0x00, 0x00, 0x32, 0x2e, 0x34, 0x2e, 0x30, 0x00, 0x00, 0x00,
  0x00, 0x00, 0x00, 0x00, 0x00, 0x00, 0x00, 0x00, 0xdc, 0x54, 0xff, 0xff,
  0xe0, 0x54, 0xff, 0xff, 0xe4, 0x54, 0xff, 0xff, 0xe8, 0x54, 0xff, 0xff,
  0xec, 0x54, 0xff, 0xff, 0xf0, 0x54, 0xff, 0xff, 0xf4, 0x54, 0xff, 0xff,
  0xf8, 0x54, 0xff, 0xff, 0xfc, 0x54, 0xff, 0xff, 0x00, 0x55, 0xff, 0xff,
  0x04, 0x55, 0xff, 0xff, 0x08, 0x55, 0xff, 0xff, 0x0c, 0x55, 0xff, 0xff,
  0x10, 0x55, 0xff, 0xff, 0x14, 0x55, 0xff, 0xff, 0x18, 0x55, 0xff, 0xff,
  0x1c, 0x55, 0xff, 0xff, 0x20, 0x55, 0xff, 0xff, 0x24, 0x55, 0xff, 0xff,
  0x28, 0x55, 0xff, 0xff, 0x2c, 0x55, 0xff, 0xff, 0x30, 0x55, 0xff, 0xff,
  0x34, 0x55, 0xff, 0xff, 0x38, 0x55, 0xff, 0xff, 0x3c, 0x55, 0xff, 0xff,
  0x40, 0x55, 0xff, 0xff, 0x44, 0x55, 0xff, 0xff, 0x48, 0x55, 0xff, 0xff,
  0x4c, 0x55, 0xff, 0xff, 0x50, 0x55, 0xff, 0xff, 0x54, 0x55, 0xff, 0xff,
  0x58, 0x55, 0xff, 0xff, 0x5c, 0x55, 0xff, 0xff, 0x60, 0x55, 0xff, 0xff,
  0x64, 0x55, 0xff, 0xff, 0x68, 0x55, 0xff, 0xff, 0x6c, 0x55, 0xff, 0xff,
  0x70, 0x55, 0xff, 0xff, 0x74, 0x55, 0xff, 0xff, 0x78, 0x55, 0xff, 0xff,
  0x7c, 0x55, 0xff, 0xff, 0x80, 0x55, 0xff, 0xff, 0x84, 0x55, 0xff, 0xff,
  0x88, 0x55, 0xff, 0xff, 0x8c, 0x55, 0xff, 0xff, 0x90, 0x55, 0xff, 0xff,
  0x94, 0x55, 0xff, 0xff, 0x98, 0x55, 0xff, 0xff, 0x9c, 0x55, 0xff, 0xff,
  0xa0, 0x55, 0xff, 0xff, 0xa4, 0x55, 0xff, 0xff, 0xa8, 0x55, 0xff, 0xff,
  0xac, 0x55, 0xff, 0xff, 0xb0, 0x55, 0xff, 0xff, 0xb4, 0x55, 0xff, 0xff,
  0xb8, 0x55, 0xff, 0xff, 0xbc, 0x55, 0xff, 0xff, 0xc0, 0x55, 0xff, 0xff,
  0xc4, 0x55, 0xff, 0xff, 0xc8, 0x55, 0xff, 0xff, 0xcc, 0x55, 0xff, 0xff,
  0xd0, 0x55, 0xff, 0xff, 0xd4, 0x55, 0xff, 0xff, 0xd8, 0x55, 0xff, 0xff,
  0xdc, 0x55, 0xff, 0xff, 0xe0, 0x55, 0xff, 0xff, 0xe4, 0x55, 0xff, 0xff,
  0xe8, 0x55, 0xff, 0xff, 0xec, 0x55, 0xff, 0xff, 0xf0, 0x55, 0xff, 0xff,
  0xf4, 0x55, 0xff, 0xff, 0xf8, 0x55, 0xff, 0xff, 0xfc, 0x55, 0xff, 0xff,
  0x00, 0x56, 0xff, 0xff, 0x04, 0x56, 0xff, 0xff, 0x08, 0x56, 0xff, 0xff,
  0x0c, 0x56, 0xff, 0xff, 0x10, 0x56, 0xff, 0xff, 0x14, 0x56, 0xff, 0xff,
  0x18, 0x56, 0xff, 0xff, 0x1c, 0x56, 0xff, 0xff, 0x20, 0x56, 0xff, 0xff,
  0x24, 0x56, 0xff, 0xff, 0x28, 0x56, 0xff, 0xff, 0x2c, 0x56, 0xff, 0xff,
  0x30, 0x56, 0xff, 0xff, 0x34, 0x56, 0xff, 0xff, 0x38, 0x56, 0xff, 0xff,
  0x3c, 0x56, 0xff, 0xff, 0x40, 0x56, 0xff, 0xff, 0x44, 0x56, 0xff, 0xff,
  0x48, 0x56, 0xff, 0xff, 0x4c, 0x56, 0xff, 0xff, 0x50, 0x56, 0xff, 0xff,
  0x54, 0x56, 0xff, 0xff, 0x58, 0x56, 0xff, 0xff, 0x5c, 0x56, 0xff, 0xff,
  0x60, 0x56, 0xff, 0xff, 0x64, 0x56, 0xff, 0xff, 0x68, 0x56, 0xff, 0xff,
  0x6c, 0x56, 0xff, 0xff, 0x70, 0x56, 0xff, 0xff, 0x74, 0x56, 0xff, 0xff,
  0x78, 0x56, 0xff, 0xff, 0x7c, 0x56, 0xff, 0xff, 0x80, 0x56, 0xff, 0xff,
  0x84, 0x56, 0xff, 0xff, 0x88, 0x56, 0xff, 0xff, 0x8c, 0x56, 0xff, 0xff,
  0x90, 0x56, 0xff, 0xff, 0x94, 0x56, 0xff, 0xff, 0x98, 0x56, 0xff, 0xff,
  0x9c, 0x56, 0xff, 0xff, 0xa0, 0x56, 0xff, 0xff, 0xa4, 0x56, 0xff, 0xff,
  0xa8, 0x56, 0xff, 0xff, 0xac, 0x56, 0xff, 0xff, 0xb0, 0x56, 0xff, 0xff,
  0xb4, 0x56, 0xff, 0xff, 0xb8, 0x56, 0xff, 0xff, 0xbc, 0x56, 0xff, 0xff,
  0xc0, 0x56, 0xff, 0xff, 0xc4, 0x56, 0xff, 0xff, 0xc8, 0x56, 0xff, 0xff,
  0xcc, 0x56, 0xff, 0xff, 0xd0, 0x56, 0xff, 0xff, 0xd4, 0x56, 0xff, 0xff,
  0xd8, 0x56, 0xff, 0xff, 0xdc, 0x56, 0xff, 0xff, 0xe0, 0x56, 0xff, 0xff,
  0xe4, 0x56, 0xff, 0xff, 0x22, 0xbb, 0xff, 0xff, 0x04, 0x00, 0x00, 0x00,
  0x00, 0x05, 0x00, 0x00, 0x11, 0xd1, 0xe1, 0x15, 0xce, 0x5a, 0x1f, 0x0f,
  0x0a, 0xa7, 0xca, 0x1f, 0x24, 0xdd, 0xeb, 0xd4, 0xf9, 0xfc, 0xf4, 0x32,
  0x40, 0x3e, 0x1c, 0x36, 0x1d, 0xfe, 0xed, 0x2f, 0x0f, 0xff, 0xf7, 0x10,
  0x35, 0x16, 0x15, 0x15, 0x1e, 0x7f, 0xd3, 0x24, 0x3d, 0x0d, 0x17, 0xd8,
  0xf0, 0xd1, 0x36, 0xff, 0xf6, 0xe6, 0x1b, 0x4c, 0x1f, 0x14, 0xdb, 0x35,
  0x2b, 0xfc, 0xee, 0xc2, 0xd6, 0xb5, 0xc9, 0x0d, 0xc8, 0x1d, 0xec, 0x0f,
  0x0d, 0x26, 0xf2, 0x01, 0xee, 0xff, 0x18, 0x23, 0xfc, 0xd7, 0xc6, 0x11,
  0x0b, 0xd4, 0x41, 0x5b, 0xd7, 0xe7, 0xd0, 0xea, 0x0e, 0xd4, 0x04, 0xec,
  0xe4, 0x17, 0xf3, 0x1d, 0xc5, 0xf3, 0x9b, 0x24, 0xbf, 0xd3, 0xd9, 0xea,
  0x01, 0xe9, 0x1a, 0xdd, 0xfe, 0xff, 0xff, 0x35, 0xbe, 0xfe, 0x81, 0xc0,
  0x14, 0x58, 0x56, 0xb7, 0xad, 0x19, 0x18, 0x2e, 0x1d, 0xf5, 0x64, 0x15,
  0x2b, 0xb2, 0x06, 0xa6, 0x33, 0x3b, 0x6d, 0xac, 0xeb, 0x81, 0xec, 0x05,
  0x30, 0x1e, 0x1e, 0xf2, 0x5f, 0x0e, 0x60, 0x30, 0x78, 0xd2, 0x3b, 0x01,
  0xec, 0xaf, 0x5a, 0xd3, 0x47, 0x28, 0x07, 0x19, 0xae, 0xc6, 0xed, 0xc5,
  0x06, 0xf4, 0xd7, 0xcd, 0xba, 0x1b, 0xf3, 0x3e, 0x61, 0xd0, 0x28, 0x3b,
  0xbb, 0xde, 0xe3, 0xac, 0xbf, 0x02, 0xb7, 0x08, 0xe6, 0xff, 0xb9, 0x60,
  0xf9, 0x16, 0x61, 0x2e, 0x16, 0x4e, 0xac, 0xd7, 0xcf, 0xcd, 0xed, 0xd9,
  0xf9, 0xe9, 0xa2, 0xf5, 0x0b, 0xaf, 0x0c, 0xf9, 0xf8, 0x3a, 0x12, 0xdd,
  0xda, 0x2a, 0xf6, 0x05, 0x37, 0x5d, 0x9e, 0x05, 0x1f, 0x05, 0x2b, 0x9f,
  0x31, 0x5b, 0xdc, 0xfd, 0xed, 0x2d, 0xfb, 0x4a, 0x0f, 0x07, 0xdc, 0x95,
  0xe3, 0x81, 0x04, 0x09, 0xb8, 0xe9, 0xe5, 0xd7, 0x1e, 0x8f, 0xaf, 0x2f,
  0x0d, 0x20, 0xed, 0xeb, 0xd8, 0x1a, 0x11, 0x4b, 0xeb, 0xdb, 0x26, 0xed,
  0x2c, 0x21, 0x18, 0x53, 0xca, 0x17, 0x06, 0x3f, 0xf1, 0x93, 0xe6, 0x3b,
  0x28, 0xf0, 0x05, 0x03, 0x0e, 0x21, 0xd2, 0x67, 0xfb, 0xba, 0x05, 0x3d,
  0x0d, 0xce, 0xee, 0x2f, 0xe5, 0x0a, 0x5e, 0x34, 0xcc, 0xca, 0xf0, 0xe3,
  0x3e, 0x19, 0xf4, 0x1f, 0x81, 0x0f, 0x08, 0x33, 0x1f, 0x34, 0xbe, 0xd0,
  0xf0, 0x81, 0x1f, 0x6a, 0x99, 0xde, 0x07, 0xf1, 0xae, 0x90, 0x59, 0x15,
  0xe3, 0x15, 0xa6, 0x37, 0xf8, 0x30, 0x12, 0x3a, 0xe2, 0xca, 0xe9, 0xe7,
  0xeb, 0xbb, 0xab, 0x39, 0x65, 0x1b, 0xd0, 0x14, 0xb8, 0xe0, 0xba, 0x2a,
  0x05, 0xf4, 0xf3, 0x12, 0xc0, 0xcd, 0xd7, 0x0b, 0xf5, 0xf6, 0xe7, 0x24,
  0xef, 0x09, 0x1b, 0xf2, 0xe7, 0x0a, 0xe3, 0x2b, 0xe8, 0x55, 0xcc, 0xde,
  0x0c, 0x2a, 0x9e, 0x25, 0x2b, 0xe1, 0x3d, 0x13, 0xd2, 0xa4, 0x1f, 0xf2,
  0xf5, 0x15, 0xe2, 0x7f, 0x44, 0x5d, 0x40, 0x76, 0x08, 0xd5, 0x22, 0xe2,
  0x9e, 0xad, 0xc9, 0x09, 0x2b, 0x43, 0x02, 0x35, 0xa2, 0x2d, 0x17, 0x4b,
  0xf5, 0xfd, 0x50, 0xd5, 0x0f, 0x1c, 0x1a, 0x00, 0x8d, 0x19, 0x3c, 0x24,
  0xde, 0x49, 0xbf, 0xda, 0x54, 0x3b, 0xe2, 0x1c, 0xfb, 0xee, 0xfd, 0x20,
  0xa9, 0xb0, 0x3a, 0x27, 0x7f, 0xc3, 0x0b, 0x55, 0xac, 0xdf, 0xf0, 0x35,
  0x5d, 0x32, 0x46, 0x00, 0x61, 0xaa, 0xd5, 0x0f, 0x02, 0xfe, 0xf5, 0x14,
  0x15, 0x19, 0xc5, 0x09, 0x05, 0xf4, 0x27, 0x55, 0x55, 0x0e, 0xf4, 0x6b,
  0x0c, 0xac, 0xe6, 0x49, 0xf1, 0x38, 0xdf, 0xd4, 0x1c, 0xcb, 0xfc, 0xb9,
  0x04, 0xde, 0xe5, 0xaf, 0x1a, 0x06, 0xf4, 0xf9, 0xfc, 0xf1, 0x04, 0x48,
  0xfe, 0xf1, 0x3e, 0x7f, 0x2b, 0xf1, 0x0b, 0xcd, 0x1d, 0x45, 0x00, 0x35,
  0x3b, 0xe3, 0xc4, 0xd8, 0xf4, 0xdb, 0xde, 0x3a, 0xeb, 0x39, 0xa9, 0x1c,
  0xff, 0xf2, 0x34, 0x17, 0x14, 0xb4, 0xb0, 0xe1, 0xdc, 0xe1, 0xf9, 0x37,
  0x9c, 0xda, 0x43, 0x2a, 0x45, 0xef, 0x05, 0xbe, 0x13, 0x07, 0xbf, 0x4d,
  0x00, 0x38, 0x3d, 0x12, 0x2b, 0x1f, 0xe7, 0x13, 0xcc, 0x09, 0xbb, 0xf2,
  0x05, 0x1b, 0xcd, 0xcf, 0x5a, 0x0e, 0x5b, 0x00, 0xf2, 0x50, 0xb7, 0xba,
  0xd1, 0x02, 0xb8, 0xe5, 0x99, 0xc4, 0xfb, 0x1f, 0xdb, 0xe6, 0x20, 0x3b,
  0x52, 0x0e, 0x31, 0x01, 0xf2, 0x06, 0x8d, 0x3e, 0xdd, 0xe3, 0x36, 0xc1,
  0xf8, 0xdb, 0xbc, 0x0d, 0x31, 0xc0, 0x11, 0xdc, 0xfd, 0x6c, 0xf9, 0xf5,
  0xd4, 0x10, 0x0d, 0x0d, 0x3f, 0x04, 0x08, 0x54, 0x77, 0x13, 0x4a, 0x46,
  0x29, 0x1c, 0x0d, 0x6f, 0x43, 0xe5, 0xe6, 0xc3, 0x4a, 0x2e, 0x9a, 0x25,
  0x09, 0x12, 0x2c, 0x05, 0x2f, 0xf9, 0x14, 0x7f, 0x0a, 0xaa, 0xcf, 0x18,
  0xc5, 0x06, 0xb4, 0x32, 0xfc, 0xb0, 0xfe, 0xea, 0xbc, 0xf9, 0x0c, 0x65,
  0xe4, 0x08, 0xd7, 0xa1, 0x04, 0x13, 0xd7, 0x27, 0xa6, 0x4e, 0x0e, 0x55,
  0x20, 0xda, 0xd5, 0xca, 0xdd, 0x47, 0x09, 0xe0, 0x29, 0xea, 0x2d, 0xdb,
  0xf5, 0xcb, 0x81, 0x98, 0xfa, 0x0e, 0xf8, 0x2a, 0x00, 0x07, 0xd1, 0xea,
  0x24, 0xef, 0x06, 0xc7, 0x1f, 0xce, 0xab, 0xe5, 0xe1, 0x75, 0xfc, 0xfd,
  0x22, 0x24, 0xea, 0xcf, 0x58, 0xe8, 0xf8, 0x37, 0x66, 0x25, 0x9f, 0xdc,
  0xf6, 0x3e, 0x09, 0x40, 0x72, 0xe0, 0x65, 0xb5, 0xe7, 0x00, 0x4a, 0xb2,
  0x31, 0xf4, 0xed, 0x33, 0xd5, 0xf5, 0xc9, 0x17, 0x2e, 0x2f, 0x79, 0x04,
  0x1b, 0x9e, 0x2a, 0x43, 0xdf, 0xfb, 0x50, 0x02, 0x0a, 0xf3, 0x0b, 0x08,
  0xbc, 0x41, 0x53, 0xae, 0xe7, 0x18, 0x70, 0x10, 0x05, 0xe7, 0x09, 0x97,
  0x02, 0x16, 0x3d, 0xd5, 0xcf, 0x1f, 0x0c, 0x20, 0xf3, 0x09, 0x00, 0xc9,
  0x81, 0xef, 0xfc, 0xdb, 0x10, 0xf2, 0xfa, 0xfb, 0xc6, 0x0f, 0x02, 0xdb,
  0x18, 0xdd, 0xff, 0x1c, 0xe8, 0xbc, 0x0c, 0x34, 0xa6, 0xc9, 0xcf, 0x33,
  0xe7, 0xec, 0xd8, 0xe0, 0x2a, 0xe4, 0x3e, 0x55, 0x0e, 0xc5, 0xe2, 0x63,
  0x04, 0xd4, 0xe2, 0xf8, 0x11, 0x7f, 0x35, 0xc2, 0x1d, 0xd9, 0x3c, 0x15,
  0x0f, 0x05, 0x24, 0xd4, 0xd9, 0x2f, 0xf7, 0x2b, 0xe6, 0x29, 0x03, 0xfa,
  0x10, 0x8f, 0xf5, 0x4d, 0xcd, 0xda, 0xda, 0x09, 0x27, 0x23, 0x34, 0xfb,
  0x51, 0x11, 0x17, 0x11, 0xef, 0xa7, 0x42, 0xcd, 0x0f, 0x23, 0xdc, 0x03,
  0xc1, 0xc3, 0x57, 0xe4, 0x85, 0x94, 0xc6, 0xf5, 0x13, 0x28, 0x3f, 0xb4,
  0xda, 0x37, 0x2c, 0x26, 0xde, 0x87, 0x5c, 0xfc, 0x90, 0xd5, 0xd5, 0x96,
  0x2a, 0x6f, 0x30, 0x17, 0xbb, 0x1c, 0xc3, 0x04, 0xfb, 0x25, 0xe8, 0x90,
  0xde, 0xe9, 0x15, 0x17, 0x1e, 0x08, 0xf6, 0x28, 0x19, 0xed, 0xda, 0x16,
  0x1f, 0x00, 0xd2, 0x08, 0xec, 0xf6, 0x17, 0x07, 0x22, 0x18, 0xc0, 0x1a,
  0xc0, 0x99, 0x2b, 0xfa, 0xb4, 0xee, 0x3b, 0x97, 0x93, 0xf5, 0xf5, 0xfa,
  0xe3, 0xfa, 0xbd, 0x19, 0xfe, 0x35, 0x1a, 0xd5, 0xde, 0xd1, 0xcd, 0xf9,
  0xca, 0x39, 0x14, 0x2f, 0x81, 0x29, 0xf8, 0x9f, 0xda, 0x08, 0xe8, 0xd2,
  0x32, 0xda, 0x0b, 0xba, 0x43, 0x1a, 0xd0, 0x69, 0x0b, 0x0e, 0x5f, 0xbf,
  0x09, 0xe7, 0x35, 0xe1, 0x24, 0x08, 0x59, 0xda, 0xe5, 0x02, 0x4c, 0xb7,
  0xf5, 0xb9, 0x13, 0x3c, 0x91, 0xc4, 0xea, 0x02, 0xa7, 0x81, 0x2d, 0xd6,
  0xfa, 0xaf, 0xd9, 0xfb, 0x04, 0x02, 0x75, 0x3a, 0xad, 0xc4, 0xd3, 0x20,
  0xe9, 0xa2, 0xe7, 0xeb, 0xd9, 0x42, 0x03, 0x1e, 0x00, 0xd4, 0xf3, 0x6a,
  0xa0, 0x18, 0x06, 0xc8, 0xf8, 0x05, 0xf4, 0xcc, 0x3f, 0x32, 0x35, 0x29,
  0x27, 0x44, 0x24, 0xf2, 0xf1, 0xba, 0x11, 0xd4, 0x32, 0x1d, 0xb2, 0x8f,
  0xcb, 0x04, 0x41, 0x50, 0xda, 0x24, 0x21, 0x00, 0x5e, 0xc2, 0x47, 0xf5,
  0xf7, 0xfe, 0x1a, 0xfa, 0xfe, 0xac, 0x0a, 0x2e, 0x05, 0x15, 0x11, 0xc9,
  0xb0, 0xf9, 0xda, 0x10, 0xcf, 0xe5, 0x2b, 0xf9, 0x40, 0xc4, 0x37, 0x0e,
  0x1e, 0xca, 0x3c, 0x5a, 0xde, 0xc8, 0xe1, 0xf3, 0xc6, 0xf2, 0xe9, 0x1b,
  0x0d, 0xe3, 0x2a, 0x31, 0x81, 0xd7, 0xfd, 0x1e, 0x0d, 0x0b, 0x21, 0xe6,
  0xa8, 0x09, 0xbb, 0xa2, 0xf0, 0xfa, 0x1e, 0x4d, 0xf9, 0xfb, 0xeb, 0x0b,
  0x20, 0x31, 0x2e, 0xe5, 0x1f, 0xb0, 0x1b, 0xd4, 0x15, 0xf5, 0xf9, 0xe2,
  0xb2, 0xdd, 0x0e, 0x18, 0xe2, 0xd8, 0x01, 0xff, 0xd7, 0x02, 0x32, 0x4c,
  0x40, 0xd6, 0xd1, 0x4f, 0xe6, 0xd6, 0xf9, 0x3d, 0x55, 0x08, 0x10, 0xf4,
  0xf7, 0x51, 0x11, 0xb2, 0x46, 0xa1, 0xfa, 0xe1, 0xc4, 0xbf, 0xc3, 0xcc,
  0x33, 0xfa, 0xc8, 0xd2, 0x19, 0xbb, 0x16, 0x43, 0x2e, 0xc9, 0x59, 0x0b,
  0x06, 0xe0, 0x74, 0x4c, 0x01, 0xf1, 0x2a, 0xde, 0xbf, 0x02, 0x55, 0xbe,
  0xca, 0xf5, 0x90, 0x38, 0xb0, 0xdf, 0x47, 0x53, 0x81, 0x1e, 0x1f, 0x07,
  0xe6, 0x17, 0xee, 0xbd, 0x54, 0x6d, 0x07, 0xa1, 0x08, 0x66, 0x39, 0x2f,
  0xa8, 0x16, 0x9f, 0xea, 0xd9, 0x25, 0x3c, 0xc9, 0x20, 0x1b, 0xf5, 0x01,
  0x2d, 0x22, 0xff, 0xa3, 0xfc, 0xfb, 0x9f, 0x49, 0x81, 0x05, 0x08, 0x1f,
  0xda, 0xe4, 0xec, 0x47, 0x26, 0x3a, 0x27, 0x2a, 0x24, 0x07, 0xba, 0x07,
  0xd3, 0xb0, 0x55, 0xb3, 0x1f, 0x42, 0x08, 0x45, 0x0f, 0xcc, 0xe0, 0xf7,
  0x1e, 0xc0, 0xf2, 0xd7, 0xf4, 0xe9, 0x1c, 0x9b, 0xef, 0xcc, 0x0e, 0x1b,
  0xbd, 0xf5, 0xe9, 0x15, 0x19, 0x23, 0xde, 0xf6, 0xff, 0xf7, 0xf4, 0x0a,
  0x16, 0x9b, 0xf9, 0x58, 0xe1, 0xe8, 0x18, 0xef, 0x5f, 0x4c, 0xfe, 0x1a,
  0x2e, 0xc0, 0xff, 0xff, 0x04, 0x00, 0x00, 0x00, 0x00, 0x05, 0x00, 0x00,
  0xfd, 0x41, 0xd6, 0xad, 0xdd, 0xde, 0x0e, 0x0c, 0x14, 0xfd, 0x0d, 0x43,
  0xe8, 0xf2, 0xeb, 0x81, 0x34, 0xe6, 0x08, 0xf5, 0x01, 0x0a, 0xf4, 0x35,
  0xeb, 0xe7, 0xfb, 0x12, 0xea, 0x1e, 0xda, 0xbb, 0x2a, 0x39, 0xd6, 0x26,
  0xf1, 0x40, 0x45, 0xcd, 0xdf, 0x41, 0xe7, 0x2b, 0x15, 0xf9, 0xff, 0xa2,
  0x00, 0x30, 0xe2, 0x0e, 0xf5, 0x05, 0xcd, 0x13, 0xd1, 0x46, 0x48, 0x1f,
  0x28, 0xf9, 0x03, 0xc5, 0x28, 0x00, 0xe6, 0x21, 0x06, 0x42, 0xe1, 0x02,
  0xaf, 0x27, 0xd6, 0xed, 0xff, 0xf9, 0x18, 0x06, 0xfb, 0xdd, 0xf4, 0x26,
  0xeb, 0xfc, 0xe8, 0xd0, 0xce, 0x1b, 0x35, 0xeb, 0x25, 0x10, 0xe6, 0x01,
  0x04, 0x10, 0x16, 0x16, 0xf7, 0x27, 0x00, 0xf2, 0x0a, 0x14, 0xe0, 0xc0,
  0xdd, 0x13, 0xf4, 0xce, 0x07, 0x2d, 0x1e, 0xdd, 0xee, 0xf0, 0xf4, 0x21,
  0xc1, 0xe8, 0x00, 0xe5, 0xd1, 0x09, 0x13, 0xd9, 0x1c, 0xea, 0x3d, 0xa1,
  0x22, 0xe1, 0xc8, 0x08, 0x16, 0xdf, 0x1a, 0xfa, 0xcf, 0xd8, 0xfd, 0xed,
  0xec, 0x5c, 0x3d, 0xf7, 0x28, 0x2e, 0x81, 0x29, 0xd4, 0x28, 0x10, 0x09,
  0x91, 0xd9, 0x07, 0x04, 0x1f, 0x0e, 0x02, 0x06, 0x43, 0xe8, 0x07, 0xe4,
  0xcc, 0xe2, 0xd5, 0x07, 0xde, 0xc0, 0xd4, 0xf5, 0x28, 0xe2, 0x1e, 0x08,
  0xe2, 0x1d, 0xaa, 0xb5, 0xf2, 0xec, 0xf2, 0xd5, 0xd6, 0x0e, 0x30, 0xcc,
  0x4b, 0x16, 0x06, 0x34, 0xfa, 0x26, 0x20, 0xe7, 0x0b, 0xf1, 0xfc, 0xfa,
  0x29, 0xf0, 0x42, 0xfc, 0x5d, 0xe9, 0x05, 0x37, 0xdf, 0x53, 0x95, 0xbd,
  0xf4, 0xff, 0x42, 0x48, 0x05, 0x00, 0x25, 0xfd, 0xfe, 0xbb, 0xd7, 0xa6,
  0x2a, 0x90, 0xb9, 0x70, 0x2b, 0x81, 0xd7, 0xc7, 0xfd, 0x00, 0xee, 0xcb,
  0x0a, 0x03, 0xdb, 0x12, 0x09, 0x11, 0x00, 0xe1, 0xff, 0xef, 0x36, 0xc3,
  0xe1, 0x9c, 0xc6, 0xde, 0x32, 0x13, 0xd8, 0xc2, 0x11, 0x03, 0xe5, 0xbd,
  0xf5, 0xaa, 0xb8, 0x0f, 0xe1, 0x9b, 0x81, 0xd3, 0xf6, 0x37, 0x0c, 0xc3,
  0xf0, 0xfb, 0x10, 0xf9, 0xed, 0x25, 0x16, 0xe7, 0xc8, 0x8f, 0xde, 0xef,
  0xd9, 0x3c, 0xb4, 0x27, 0xe6, 0x61, 0xca, 0xca, 0x10, 0x41, 0x1e, 0xe2,
  0xed, 0x9f, 0xf3, 0x0d, 0x26, 0x4f, 0x0e, 0xb2, 0x39, 0xfb, 0x22, 0xbf,
  0x36, 0xd7, 0xef, 0x12, 0xf4, 0x96, 0xb3, 0xed, 0xd4, 0xc0, 0x07, 0xd1,
  0x05, 0x04, 0x15, 0xed, 0xe1, 0xe7, 0x23, 0x21, 0x14, 0x97, 0x00, 0x22,
  0xa2, 0x04, 0xe4, 0x04, 0xcf, 0xbd, 0xe7, 0xb9, 0x08, 0x34, 0x32, 0x1d,
  0x5c, 0x34, 0xf0, 0x46, 0x81, 0x48, 0x47, 0xfc, 0xde, 0xca, 0xd6, 0x0a,
  0xe3, 0xe0, 0x13, 0xda, 0x41, 0xfa, 0xd6, 0x53, 0xe5, 0x28, 0xda, 0xff,
  0x33, 0x1e, 0x0d, 0x2b, 0x9e, 0x23, 0x1e, 0x2a, 0xc8, 0xea, 0xe4, 0x1c,
  0x34, 0x0d, 0xf8, 0x42, 0x0d, 0x18, 0x24, 0x10, 0xb0, 0xe8, 0x41, 0xe8,
  0x46, 0x3e, 0x8d, 0xe7, 0xe7, 0x59, 0x81, 0x37, 0x10, 0x20, 0x07, 0x4d,
  0xbf, 0xca, 0xbb, 0x7d, 0xed, 0xfd, 0xd7, 0x48, 0xe7, 0x3d, 0xa1, 0x1a,
  0xcf, 0x2b, 0xe9, 0xbb, 0x05, 0x3d, 0x4e, 0xf3, 0xca, 0xe3, 0x09, 0x02,
  0x30, 0xeb, 0xb8, 0xe1, 0x08, 0x07, 0xf5, 0x0a, 0xe9, 0xbe, 0xe1, 0xff,
  0xe7, 0x50, 0xdb, 0x04, 0x21, 0xba, 0xf4, 0xca, 0x22, 0xa8, 0xef, 0x2d,
  0x3d, 0xba, 0x4f, 0xff, 0xe5, 0x06, 0x17, 0xe1, 0xee, 0x25, 0xde, 0x12,
  0x24, 0x90, 0xe4, 0x12, 0xdc, 0xcc, 0xeb, 0xfe, 0x22, 0x5c, 0x0c, 0xbf,
  0x47, 0x7f, 0x26, 0xe9, 0x0e, 0x3b, 0x36, 0x13, 0x02, 0x38, 0xfa, 0xed,
  0xcd, 0xaf, 0xdf, 0xc2, 0x5a, 0x39, 0x13, 0xbd, 0x41, 0xba, 0xf6, 0xea,
  0xe2, 0x3f, 0x27, 0xd4, 0xe6, 0x01, 0x1e, 0xe3, 0xa7, 0xdb, 0xc8, 0xcd,
  0x71, 0xf1, 0xed, 0xf5, 0x4b, 0x29, 0x31, 0xed, 0x4b, 0x16, 0x16, 0x28,
  0xc1, 0xb7, 0xae, 0xd9, 0x1a, 0x1c, 0x3e, 0x9a, 0x3c, 0x5a, 0x0a, 0x57,
  0x56, 0x02, 0x3a, 0xf5, 0xbf, 0xf6, 0x10, 0x41, 0xe9, 0x1e, 0x18, 0xf3,
  0x1d, 0xf4, 0xbc, 0x28, 0x07, 0x25, 0x04, 0x32, 0x20, 0xfc, 0x1c, 0xf8,
  0x2a, 0x2d, 0x18, 0x10, 0x3a, 0xd5, 0x19, 0x81, 0xf4, 0xe1, 0xb8, 0xf5,
  0x13, 0xdb, 0xfd, 0x08, 0xd8, 0x06, 0xe8, 0xc9, 0x14, 0xfe, 0x17, 0x1b,
  0x1c, 0xec, 0x04, 0xeb, 0x1a, 0xed, 0x05, 0x16, 0xd6, 0xd3, 0x21, 0x0a,
  0xd8, 0x15, 0x06, 0xfd, 0xba, 0xd8, 0x1b, 0x20, 0xed, 0xca, 0xf0, 0x05,
  0x31, 0xeb, 0x03, 0x2b, 0xea, 0x46, 0x01, 0x45, 0xdf, 0xf0, 0xb2, 0xfc,
  0xec, 0x1e, 0x03, 0x16, 0x19, 0xdb, 0xcd, 0xf6, 0xfe, 0x14, 0x39, 0x1a,
  0xae, 0xc9, 0xc6, 0x2e, 0x4d, 0xcc, 0x13, 0x04, 0x7d, 0x18, 0xd1, 0xec,
  0xce, 0xdf, 0xef, 0x0d, 0x29, 0x19, 0xd3, 0x4e, 0xe0, 0xe2, 0x1f, 0x41,
  0xf0, 0xbd, 0xf9, 0xe1, 0xc8, 0xcc, 0x1e, 0x2e, 0x34, 0xd9, 0x0c, 0xca,
  0x63, 0x22, 0x48, 0x24, 0x08, 0xbe, 0x20, 0x29, 0x27, 0xd4, 0x54, 0xfe,
  0x01, 0xc1, 0xd6, 0x27, 0xee, 0x15, 0x5a, 0x10, 0xdb, 0xfc, 0x4b, 0xd2,
  0x00, 0xf8, 0x35, 0xa8, 0xb0, 0x1a, 0x30, 0x28, 0x00, 0x0a, 0x67, 0x04,
  0xcb, 0xab, 0x25, 0x00, 0x2e, 0xc4, 0x04, 0x81, 0x36, 0x10, 0x38, 0xf6,
  0xf6, 0x6a, 0x10, 0x05, 0x11, 0x18, 0x59, 0x2a, 0x20, 0xdb, 0x40, 0x39,
  0x35, 0x05, 0x08, 0x09, 0xcf, 0xd8, 0xe3, 0xdc, 0x1b, 0xf9, 0x4c, 0xec,
  0x31, 0x1e, 0xf9, 0x39, 0x11, 0xf3, 0x43, 0x05, 0xec, 0x13, 0x7f, 0x74,
  0xeb, 0x20, 0x23, 0x14, 0x07, 0x1a, 0xfa, 0x3f, 0x26, 0xe2, 0xee, 0x13,
  0x22, 0x28, 0x5e, 0x4f, 0x34, 0xcf, 0xfa, 0x56, 0x21, 0xd6, 0x25, 0x41,
  0xbf, 0xd6, 0xad, 0xfd, 0x01, 0xed, 0x09, 0x38, 0x4c, 0xc3, 0x2b, 0x09,
  0x0c, 0x18, 0x9f, 0x94, 0xde, 0xf6, 0xca, 0x95, 0xf3, 0x7f, 0x9f, 0xec,
  0xbf, 0xee, 0x07, 0xf7, 0xca, 0x10, 0xf1, 0x3d, 0xb5, 0x1b, 0x3e, 0xe7,
  0xe6, 0x23, 0xee, 0x23, 0x18, 0xb0, 0x09, 0xd7, 0x10, 0xc1, 0xf6, 0x31,
  0x05, 0x1d, 0xc7, 0xa9, 0xbe, 0x1f, 0xe1, 0x00, 0xbf, 0xd1, 0x1b, 0xf4,
  0x08, 0x00, 0xc8, 0xf1, 0xfe, 0x19, 0xd5, 0xe7, 0x13, 0x38, 0x25, 0xed,
  0xb4, 0xed, 0xaa, 0xf3, 0x2b, 0x2d, 0xe3, 0x18, 0x29, 0xf6, 0x19, 0x15,
  0x12, 0xab, 0x34, 0x2a, 0xee, 0x34, 0xa4, 0xf0, 0xfe, 0xeb, 0x3a, 0x1f,
  0xbe, 0xa2, 0x4d, 0xfd, 0xe2, 0x20, 0x09, 0x0b, 0x2a, 0xba, 0x1e, 0x18,
  0xe5, 0xb8, 0x14, 0xdf, 0xe1, 0xe8, 0xbd, 0x11, 0x00, 0xd7, 0x0d, 0x67,
  0xba, 0x14, 0x02, 0x14, 0xbb, 0x48, 0xd8, 0x0e, 0xe3, 0x08, 0x05, 0x23,
  0xaf, 0xf0, 0x05, 0x43, 0xe2, 0x17, 0x21, 0x16, 0xed, 0x59, 0x5c, 0x0f,
  0x0a, 0xaa, 0x00, 0x2d, 0xf0, 0x1b, 0x08, 0xdf, 0xdc, 0x3b, 0x21, 0x17,
  0x03, 0x40, 0x37, 0x49, 0x23, 0x9e, 0x38, 0x1d, 0x2c, 0xb1, 0xff, 0x16,
  0x0c, 0x11, 0xf1, 0x81, 0xb8, 0xf0, 0xd2, 0xf3, 0x00, 0xde, 0x57, 0x8c,
  0x16, 0xf8, 0xfe, 0x38, 0xbf, 0x0d, 0x33, 0x56, 0x2f, 0x24, 0xfd, 0x35,
  0x08, 0x17, 0xf7, 0xf8, 0xd7, 0x36, 0xdb, 0x24, 0x1c, 0x45, 0x02, 0x0e,
  0xad, 0xca, 0xd4, 0x25, 0x24, 0x01, 0x22, 0xd0, 0x00, 0xc4, 0x96, 0x2e,
  0xee, 0xf6, 0x15, 0xde, 0x32, 0x69, 0x1f, 0xef, 0xde, 0xe2, 0x28, 0xd4,
  0x18, 0xec, 0xd8, 0xe1, 0xe7, 0xfb, 0xd5, 0x16, 0x41, 0x01, 0x06, 0x28,
  0x01, 0xf6, 0xb6, 0x03, 0xb6, 0x07, 0x8e, 0xf9, 0x15, 0x17, 0xf3, 0xeb,
  0x03, 0x7f, 0xa8, 0xfe, 0xb8, 0x48, 0xf9, 0x3a, 0x33, 0xd9, 0x03, 0xce,
  0x07, 0xe0, 0xf9, 0xf0, 0x1a, 0x00, 0x38, 0xf3, 0xe7, 0x07, 0xe8, 0xdf,
  0x25, 0x15, 0xa0, 0xf4, 0xc0, 0xdd, 0x81, 0xb5, 0xf3, 0x07, 0x10, 0x15,
  0x05, 0x30, 0x31, 0x04, 0x1f, 0x14, 0x22, 0xff, 0x0b, 0x44, 0xc0, 0x11,
  0x12, 0x21, 0xd7, 0x1a, 0xe6, 0x0f, 0x21, 0x41, 0x22, 0xc4, 0xff, 0xef,
  0x22, 0xfe, 0xc6, 0x0b, 0xf6, 0xed, 0xd7, 0xfc, 0x23, 0x38, 0x04, 0xe0,
  0x02, 0x91, 0xf8, 0xdb, 0x31, 0xe8, 0xc6, 0x12, 0x04, 0xe9, 0xd4, 0x0a,
  0x0d, 0x35, 0x45, 0x48, 0x48, 0x2c, 0x47, 0xe3, 0xe9, 0x03, 0xe8, 0xda,
  0xca, 0xe7, 0x0e, 0x81, 0x2b, 0x9c, 0xf0, 0xa1, 0x19, 0x21, 0x3a, 0x2f,
  0xfb, 0xa6, 0x1b, 0xf0, 0xcc, 0xd8, 0x9f, 0xc6, 0xd1, 0xd6, 0x02, 0x20,
  0xdc, 0x4c, 0xe8, 0xee, 0x3b, 0xe2, 0xd1, 0x1e, 0x02, 0x2f, 0x02, 0x55,
  0xd6, 0x38, 0xd1, 0xea, 0xf9, 0x20, 0x14, 0xd5, 0xd1, 0x68, 0x28, 0xfa,
  0x25, 0x14, 0x14, 0x25, 0x3f, 0xcf, 0x04, 0x69, 0x5b, 0x05, 0x0e, 0xea,
  0xc3, 0xd0, 0xa9, 0xf6, 0xde, 0x2c, 0xff, 0x1d, 0x30, 0xbd, 0xee, 0x2b,
  0x2e, 0xf2, 0x3f, 0x21, 0x0b, 0x13, 0x1a, 0x3c, 0x04, 0x2b, 0x4f, 0x1a,
  0x60, 0x39, 0x47, 0x38, 0xe7, 0x31, 0xd6, 0x0d, 0x17, 0x13, 0xc9, 0xdc,
  0x4d, 0x4a, 0xcb, 0x7f, 0xe4, 0x49, 0xfd, 0x0d, 0xfb, 0x37, 0xd1, 0xb5,
  0x32, 0x3e, 0x02, 0x02, 0x31, 0x4f, 0x14, 0x34, 0x18, 0x41, 0xac, 0xe7,
  0x37, 0x58, 0xbd, 0xfd, 0xf9, 0xe9, 0x17, 0xd7, 0xf3, 0xf8, 0xfc, 0x48,
  0xf2, 0xf8, 0x57, 0xc7, 0xea, 0x0e, 0x05, 0xf0, 0x12, 0x08, 0x37, 0xcd,
  0xe4, 0x1c, 0x41, 0x08, 0x07, 0x56, 0x4d, 0x7e, 0x3a, 0xc5, 0xff, 0xff,
  0x04, 0x00, 0x00, 0x00, 0x00, 0x05, 0x00, 0x00, 0x8a, 0xde, 0xad, 0x1e,
  0x0e, 0x1d, 0xfd, 0xbd, 0x0a, 0xc8, 0xed, 0x66, 0xf7, 0x28, 0xea, 0x3c,
  0xe3, 0x18, 0xfd, 0xaf, 0xcd, 0xe3, 0xad, 0xe4, 0xfa, 0x12, 0x2a, 0x00,
  0x81, 0x07, 0xac, 0xe3, 0xfb, 0x0e, 0xe1, 0x04, 0x4e, 0xfa, 0x07, 0x2c,
  0x30, 0xe0, 0x12, 0x08, 0xd7, 0x27, 0xc7, 0x14, 0xaf, 0x08, 0xb6, 0x0a,
  0x09, 0x0b, 0xcc, 0x46, 0xeb, 0x44, 0xf7, 0x02, 0xa8, 0x21, 0xc1, 0xd3,
  0xea, 0xe8, 0x95, 0x03, 0x1e, 0x26, 0xe3, 0xe8, 0x03, 0xc4, 0xdb, 0x00,
  0x8b, 0xf4, 0x3a, 0xef, 0x73, 0xcf, 0xea, 0xe9, 0xe3, 0xdb, 0x19, 0xb2,
  0x10, 0x0c, 0x24, 0xe6, 0x28, 0xee, 0x0f, 0xe7, 0x16, 0xf0, 0x7b, 0xb3,
  0xe7, 0xb4, 0xcf, 0xe7, 0x36, 0x3a, 0xc8, 0xf7, 0x14, 0xdd, 0xf0, 0xe8,
  0xc7, 0xe8, 0x7f, 0xd2, 0xd8, 0xe0, 0xe4, 0x43, 0x31, 0x0a, 0x08, 0xc7,
  0xf1, 0xfe, 0x0a, 0x19, 0x2c, 0x21, 0x1b, 0xbf, 0xec, 0xe3, 0xb0, 0x1c,
  0x31, 0xfd, 0xf7, 0x22, 0x03, 0x1b, 0x23, 0xf1, 0x30, 0x0a, 0x54, 0xf0,
  0x96, 0xa1, 0xf5, 0x37, 0x3e, 0x46, 0x2f, 0xe5, 0x23, 0xca, 0xff, 0x39,
  0x55, 0xf3, 0x1d, 0xf4, 0x44, 0xe1, 0xd4, 0x0e, 0x25, 0x0e, 0x16, 0x24,
  0xed, 0xf1, 0xb1, 0xcb, 0x37, 0xbf, 0xd2, 0xc6, 0xbb, 0x35, 0xb4, 0x0e,
  0xce, 0x02, 0x10, 0xd4, 0xd1, 0x14, 0xca, 0xfe, 0x44, 0x08, 0xea, 0xf1,
  0xcc, 0x25, 0x0c, 0xc4, 0x91, 0xbc, 0x1f, 0xa7, 0x07, 0x3f, 0x13, 0x10,
  0x2a, 0xe8, 0xeb, 0x00, 0x4f, 0x48, 0xe1, 0xb3, 0xc8, 0xb3, 0xcc, 0xcd,
  0x10, 0x1b, 0x36, 0x27, 0x1d, 0xef, 0xa2, 0x0f, 0x30, 0x7f, 0x63, 0xf6,
  0xf0, 0xcc, 0xcf, 0x29, 0xfd, 0x10, 0x34, 0x07, 0x0c, 0x14, 0x44, 0x99,
  0x37, 0x07, 0xac, 0x3e, 0x75, 0xb8, 0xcd, 0xde, 0x22, 0x28, 0xf1, 0xd2,
  0xf4, 0xff, 0x13, 0x12, 0xe2, 0x1e, 0x3e, 0x11, 0x02, 0xc0, 0xd1, 0xdd,
  0xdf, 0xc2, 0xda, 0xd2, 0x0a, 0x18, 0x0f, 0x22, 0x50, 0xe4, 0x7f, 0x1f,
  0xf1, 0x17, 0x22, 0x32, 0xe8, 0x63, 0x9c, 0xb3, 0x97, 0xec, 0xa5, 0x14,
  0x07, 0x37, 0x40, 0x32, 0xe7, 0x29, 0x01, 0xdb, 0xd8, 0x03, 0xf1, 0x57,
  0xdf, 0xf5, 0xb8, 0xc6, 0xf5, 0x60, 0x73, 0x01, 0xcd, 0xd4, 0x31, 0xc8,
  0x0a, 0x5b, 0xb4, 0xd5, 0x81, 0xf9, 0xfe, 0x00, 0x24, 0x03, 0xfc, 0x03,
  0x0e, 0xf9, 0xe2, 0xe6, 0x15, 0x1e, 0xf7, 0xe7, 0xe1, 0xd1, 0xb5, 0xea,
  0x18, 0x06, 0x2a, 0x33, 0x02, 0x1e, 0xdf, 0xfe, 0xe8, 0x27, 0xe9, 0x21,
  0xfa, 0xd0, 0xc2, 0xd3, 0x4b, 0x03, 0xe7, 0x18, 0x20, 0x36, 0xb3, 0x0b,
  0xe9, 0xf1, 0xdf, 0x1a, 0x34, 0xcc, 0x23, 0xd5, 0x44, 0xe9, 0x28, 0xc7,
  0x1b, 0x0b, 0x03, 0x1e, 0x36, 0xdf, 0xf6, 0x09, 0x0d, 0x10, 0x98, 0xd5,
  0x45, 0xc5, 0x19, 0xc7, 0x05, 0x07, 0xc8, 0x03, 0xdf, 0x19, 0xd0, 0xd1,
  0xff, 0x0f, 0x55, 0x3a, 0xda, 0x0f, 0x75, 0x18, 0xef, 0xe3, 0xef, 0xc5,
  0x2a, 0x2b, 0xc2, 0xeb, 0x00, 0xcc, 0x07, 0x65, 0xdf, 0x21, 0x07, 0x1d,
  0x16, 0xf7, 0xf1, 0xbb, 0x41, 0x2c, 0x36, 0x81, 0x40, 0x17, 0x17, 0x16,
  0xfb, 0xbc, 0x1f, 0x28, 0x9f, 0xf2, 0x49, 0xee, 0x4d, 0x49, 0xdd, 0xb0,
  0xef, 0x3d, 0xe5, 0xb7, 0x0d, 0x03, 0x1e, 0x00, 0xb1, 0x19, 0x10, 0xb8,
  0xf1, 0x2e, 0xdd, 0x1c, 0x12, 0x18, 0xe3, 0xb2, 0xc7, 0xea, 0x27, 0xd3,
  0xf9, 0x40, 0x17, 0xe2, 0x32, 0x70, 0x16, 0xf1, 0x4c, 0xf0, 0x39, 0x44,
  0xdb, 0xe1, 0xfa, 0x31, 0xd9, 0xf1, 0xbc, 0x1a, 0xfe, 0xff, 0x1e, 0x36,
  0x01, 0x1c, 0x34, 0x56, 0x81, 0xd1, 0x0f, 0x40, 0x13, 0x04, 0x33, 0x1e,
  0x07, 0xc2, 0xfb, 0xbd, 0x0e, 0x05, 0xdd, 0xca, 0x22, 0x31, 0xe2, 0x5c,
  0x38, 0xd4, 0x29, 0xf0, 0xca, 0xfd, 0xe9, 0xc7, 0xed, 0x17, 0xb0, 0x04,
  0xdb, 0x0a, 0x36, 0x49, 0x29, 0xfe, 0x1e, 0xd9, 0x13, 0xda, 0xf5, 0xbd,
  0x1c, 0x56, 0x98, 0x2a, 0x03, 0x17, 0x55, 0x58, 0x13, 0x19, 0xfb, 0xd8,
  0x3f, 0xdf, 0xeb, 0xbc, 0xee, 0x41, 0x35, 0x6a, 0x04, 0x4d, 0x08, 0x23,
  0x22, 0x81, 0xa2, 0x1a, 0x3f, 0x3f, 0x14, 0x08, 0xdf, 0xe1, 0xdb, 0x1d,
  0xd3, 0xe0, 0xac, 0x06, 0x9d, 0xd8, 0xea, 0x0e, 0x1d, 0x16, 0xde, 0x2c,
  0xb5, 0xf6, 0x1b, 0x27, 0xdc, 0xbc, 0xa7, 0x08, 0x1f, 0x9b, 0xca, 0x2c,
  0x34, 0xf6, 0x1a, 0xb9, 0xea, 0xaa, 0x9a, 0x34, 0xf7, 0x08, 0xd0, 0x34,
  0xb7, 0x25, 0x2e, 0xd3, 0x23, 0xf8, 0xf7, 0xe8, 0xc7, 0xb4, 0x00, 0xde,
  0xc1, 0x01, 0xba, 0xf4, 0x50, 0xf2, 0xe5, 0xc7, 0x4c, 0xe2, 0x3a, 0x0f,
  0xf8, 0xb6, 0x3e, 0xdd, 0x03, 0x0e, 0x8a, 0xef, 0xf1, 0x8f, 0xe6, 0xfa,
  0xfa, 0x3c, 0x01, 0xd1, 0x2f, 0x97, 0x2b, 0x5b, 0x33, 0x31, 0xcd, 0x2e,
  0x14, 0xe2, 0xff, 0xe2, 0x20, 0x16, 0x1a, 0x2d, 0x25, 0xe3, 0xda, 0x22,
  0xe7, 0x29, 0xdf, 0xe9, 0xca, 0x4a, 0x36, 0x0a, 0xe6, 0x41, 0x49, 0x42,
  0xdd, 0x0a, 0xf2, 0x5d, 0xd0, 0x3f, 0xc5, 0xf4, 0xf3, 0x01, 0x52, 0x1e,
  0x02, 0xeb, 0x4f, 0xae, 0xf2, 0xdf, 0x12, 0x7f, 0x34, 0x3d, 0xac, 0xf7,
  0x13, 0x27, 0x24, 0x0b, 0xe2, 0xd8, 0x4e, 0x09, 0xdf, 0x00, 0xeb, 0xc8,
  0xe3, 0x14, 0xd0, 0x19, 0x2a, 0x36, 0xc2, 0x05, 0x7f, 0xb3, 0xe7, 0xd1,
  0xdb, 0xd5, 0xba, 0x0e, 0x02, 0xd4, 0x37, 0x03, 0xe9, 0x15, 0xf0, 0x07,
  0x12, 0x13, 0x58, 0x01, 0xeb, 0x25, 0xfc, 0x15, 0x14, 0xd7, 0xfc, 0xc3,
  0xcc, 0x49, 0x04, 0x11, 0xc0, 0xf9, 0xf7, 0xf8, 0xf7, 0x19, 0x56, 0x94,
  0xd6, 0x19, 0xd0, 0xc6, 0x0f, 0x9f, 0x00, 0x17, 0xed, 0xd5, 0xcc, 0x29,
  0x30, 0x21, 0x12, 0xcf, 0x47, 0xc1, 0xa4, 0x2a, 0xef, 0xb6, 0xb2, 0x4c,
  0xe1, 0xf0, 0x19, 0x38, 0x09, 0xef, 0xf5, 0x11, 0xe7, 0x02, 0xd7, 0x46,
  0xd8, 0x1b, 0x1e, 0x2b, 0xcb, 0x66, 0x11, 0x0c, 0x47, 0xf5, 0x20, 0x3f,
  0xbf, 0x3a, 0x14, 0x2f, 0x0e, 0xed, 0x61, 0x1d, 0xec, 0xec, 0x23, 0xc0,
  0xf7, 0xe2, 0x28, 0x34, 0xca, 0x02, 0xe9, 0xf3, 0x31, 0xf8, 0x38, 0x20,
  0xf9, 0xcb, 0xee, 0xd8, 0x27, 0xfa, 0xd7, 0x35, 0xcd, 0xcd, 0x05, 0x1c,
  0xfa, 0xec, 0x1e, 0xd5, 0x27, 0xf9, 0xf2, 0xdf, 0x09, 0xf3, 0xcb, 0xbc,
  0xfd, 0xef, 0xe2, 0xf4, 0xff, 0xec, 0x37, 0x1b, 0xe9, 0xe3, 0x0f, 0x81,
  0x34, 0x31, 0xc9, 0xe8, 0xec, 0xab, 0xd5, 0x0e, 0x3b, 0xf7, 0xbb, 0xb8,
  0x0f, 0x24, 0xfe, 0xbe, 0xed, 0x15, 0x06, 0x07, 0xd2, 0xdd, 0x2d, 0x15,
  0xb5, 0x30, 0xe7, 0x8c, 0x1b, 0x3b, 0xc2, 0xfc, 0xd8, 0xe9, 0xcb, 0x4f,
  0xde, 0xd4, 0x21, 0x01, 0x3a, 0x27, 0xd2, 0x10, 0xc9, 0x57, 0xb6, 0xed,
  0xef, 0xe7, 0x3d, 0x21, 0x05, 0xfa, 0x09, 0x33, 0xd2, 0xf1, 0x02, 0xc7,
  0x1e, 0x1e, 0xac, 0xb8, 0xf5, 0x22, 0x01, 0xd0, 0x22, 0xf1, 0x24, 0x30,
  0xc3, 0xf8, 0xd3, 0x81, 0xca, 0xdf, 0x01, 0x23, 0x18, 0x0b, 0xfe, 0x26,
  0x45, 0x29, 0xec, 0xc6, 0xf2, 0xf4, 0x49, 0xe9, 0xba, 0xcd, 0x2f, 0x25,
  0x30, 0x33, 0xda, 0x4e, 0xe4, 0xdf, 0x0d, 0xdf, 0x3d, 0xed, 0x17, 0x41,
  0x31, 0x19, 0x04, 0xb7, 0x50, 0x0e, 0x08, 0x05, 0x1a, 0xd9, 0xee, 0x1e,
  0xf8, 0xd0, 0x1d, 0x04, 0x1b, 0x01, 0x0a, 0x0f, 0xaa, 0x07, 0x17, 0x44,
  0x14, 0xc2, 0x16, 0x40, 0x07, 0xfc, 0x06, 0xcd, 0xd5, 0x2f, 0xfe, 0x37,
  0x21, 0xdc, 0xa7, 0x15, 0xa3, 0x0a, 0x7f, 0x31, 0x13, 0x1b, 0x18, 0xc4,
  0x12, 0x2c, 0xfc, 0xc8, 0x25, 0x21, 0x2a, 0x0b, 0xb7, 0x38, 0x47, 0x0e,
  0x1e, 0xc0, 0xc3, 0xe9, 0x2a, 0x03, 0xe6, 0x59, 0x50, 0x12, 0x1e, 0x0f,
  0x92, 0x00, 0xee, 0x18, 0x5c, 0xe8, 0x16, 0xa6, 0xc1, 0xff, 0x9e, 0xd0,
  0x3d, 0xb4, 0x23, 0x06, 0x81, 0x0c, 0x49, 0x41, 0xe9, 0xee, 0xcc, 0x38,
  0x32, 0x42, 0x27, 0x38, 0x4e, 0x4d, 0x16, 0x0d, 0x84, 0x07, 0x48, 0xf8,
  0x56, 0x6f, 0xca, 0xb4, 0xfc, 0xea, 0xe9, 0x1f, 0xe7, 0x3c, 0xe5, 0xd1,
  0xd7, 0x13, 0xf1, 0x0b, 0x19, 0x27, 0x3c, 0xc5, 0xde, 0xfc, 0x60, 0xe1,
  0xd8, 0xa0, 0x29, 0xf6, 0xa7, 0xd6, 0xb9, 0x0a, 0xfc, 0xfc, 0xd1, 0xd2,
  0x2f, 0x1e, 0x38, 0xfd, 0x1b, 0xbf, 0x09, 0x3a, 0x81, 0x8a, 0xf0, 0xc3,
  0x14, 0x1d, 0xe8, 0xd9, 0xf6, 0x4d, 0xb5, 0x01, 0x15, 0x55, 0xe4, 0x0d,
  0x2b, 0xfb, 0x06, 0x39, 0x1c, 0x6d, 0x06, 0x25, 0x1a, 0xad, 0xde, 0xe5,
  0x22, 0xfd, 0xaa, 0x46, 0xb7, 0x16, 0xcf, 0xff, 0xa6, 0xd6, 0x37, 0xf4,
  0x34, 0xac, 0x1e, 0x26, 0x03, 0xb0, 0xb2, 0x79, 0xd6, 0xf0, 0x22, 0xec,
  0x66, 0x5a, 0x15, 0x16, 0xa1, 0xb7, 0xe4, 0x72, 0x3d, 0x3b, 0x3d, 0x09,
  0xf4, 0x18, 0xf3, 0x1e, 0xee, 0xe2, 0x11, 0xfb, 0x70, 0x51, 0xe5, 0xb7,
  0x53, 0x1d, 0x2c, 0x47, 0xb1, 0x1d, 0x2e, 0x3e, 0x19, 0x25, 0xc5, 0xd1,
  0x28, 0x0a, 0xc5, 0x1d, 0x38, 0x0e, 0x4a, 0x00, 0xb7, 0xe8, 0x81, 0x0c,
  0xee, 0x39, 0xd9, 0x18, 0xe4, 0x23, 0xae, 0x09, 0xb1, 0x1e, 0xf0, 0x3c,
  0x08, 0xe0, 0xdf, 0x02, 0xe2, 0x14, 0xed, 0xac, 0xd2, 0x12, 0x2f, 0xee,
  0xfc, 0x36, 0xf1, 0x11, 0xa3, 0x22, 0x10, 0xda, 0x5e, 0xe7, 0xc7, 0xa4,
  0x25, 0x27, 0x44, 0xc5, 0x46, 0xca, 0xff, 0xff, 0x04, 0x00, 0x00, 0x00,
  0x00, 0x05, 0x00, 0x00, 0xf2, 0xba, 0xf6, 0xf3, 0x64, 0x18, 0x05, 0x16,
  0xc5, 0xd1, 0xcd, 0xff, 0x16, 0x53, 0x19, 0xdc, 0x1b, 0x9e, 0x05, 0xd8,
  0xf9, 0x20, 0xe0, 0x32, 0xf8, 0xe9, 0x9e, 0x4a, 0xdc, 0x3d, 0x27, 0x1a,
  0x45, 0x0d, 0x42, 0xe0, 0xf6, 0x1f, 0x30, 0xf2, 0x09, 0xcb, 0xfa, 0xf8,
  0x0a, 0xc0, 0x25, 0xff, 0xe7, 0xbf, 0x0f, 0xef, 0xf6, 0x02, 0x1a, 0xef,
  0x02, 0x25, 0xd4, 0x2b, 0xd5, 0x1b, 0xf3, 0xfc, 0xf2, 0x81, 0x0b, 0xb3,
  0xc1, 0xec, 0xdd, 0xc5, 0xf7, 0x33, 0xf2, 0x05, 0xfe, 0x1d, 0xbb, 0x0d,
  0xcc, 0x3a, 0xf0, 0xbf, 0xe2, 0x26, 0xfe, 0xe7, 0xe5, 0x07, 0xee, 0xdd,
  0xea, 0xeb, 0x43, 0x03, 0x60, 0x12, 0x30, 0xed, 0x18, 0xed, 0xf1, 0xed,
  0x15, 0x33, 0x3f, 0x44, 0xd3, 0xfa, 0xed, 0x06, 0xcd, 0x41, 0xeb, 0xc4,
  0xda, 0x2d, 0xc9, 0xf3, 0x41, 0xdb, 0xba, 0x2c, 0xff, 0x26, 0x50, 0x0d,
  0x73, 0x4b, 0xcd, 0x61, 0xb0, 0xc9, 0x00, 0x0e, 0x16, 0xb0, 0xcd, 0x2d,
  0xc9, 0xa9, 0xd2, 0x7f, 0x33, 0xb4, 0x00, 0x22, 0x3b, 0x0a, 0xff, 0xff,
  0x35, 0x4a, 0xb7, 0xe0, 0xff, 0x41, 0x0d, 0xad, 0xec, 0x1f, 0xf6, 0xd9,
  0x3f, 0xdc, 0x81, 0xd4, 0xf6, 0xe1, 0xe0, 0xd0, 0xf1, 0x27, 0xfc, 0x3a,
  0xb6, 0x5b, 0xff, 0x83, 0x3d, 0xf4, 0xd0, 0x05, 0x0c, 0x15, 0xf3, 0x3a,
  0x06, 0x4c, 0xe8, 0xf5, 0xc4, 0x48, 0x07, 0x0c, 0xba, 0xb2, 0xbb, 0x10,
  0xb3, 0x18, 0x77, 0x3b, 0x29, 0xdd, 0xf7, 0xec, 0x01, 0x23, 0x24, 0xfe,
  0x19, 0x04, 0x28, 0x57, 0xe2, 0xac, 0xb4, 0x14, 0x10, 0x9f, 0x18, 0x9a,
  0xdf, 0xbf, 0xe2, 0x44, 0x1d, 0x4c, 0xd3, 0x26, 0x73, 0xb9, 0xdc, 0x33,
  0xcb, 0xe3, 0xd1, 0xec, 0xe1, 0x40, 0x00, 0xb9, 0xd5, 0xb0, 0x3f, 0x06,
  0xfc, 0x15, 0x1f, 0xd1, 0x04, 0x1b, 0xf4, 0x02, 0xb7, 0xf8, 0xdc, 0x1d,
  0x57, 0x6a, 0xe7, 0xe8, 0x35, 0x26, 0xf7, 0x81, 0xe5, 0xe9, 0x32, 0xc7,
  0xe4, 0x30, 0x03, 0xb6, 0x27, 0x17, 0xd5, 0x05, 0xe3, 0xe4, 0x5b, 0x26,
  0x2e, 0x5c, 0x10, 0xe1, 0xc5, 0xe2, 0x32, 0xcf, 0x1b, 0x3b, 0xf8, 0xc2,
  0xc5, 0x44, 0x01, 0x30, 0xf1, 0xf9, 0xdc, 0xa0, 0xf3, 0x56, 0xe1, 0x37,
  0x09, 0xd2, 0x16, 0xf7, 0xb9, 0xa2, 0x32, 0xe8, 0x0c, 0x38, 0xb8, 0xb0,
  0xec, 0xc9, 0x0a, 0x4b, 0x16, 0x1e, 0x60, 0x04, 0x17, 0xeb, 0xa6, 0x13,
  0x1c, 0xf1, 0xd7, 0xef, 0x0b, 0xde, 0x6e, 0x32, 0x49, 0x03, 0x4e, 0x90,
  0x4b, 0xf7, 0x2a, 0xc5, 0xfe, 0x81, 0xfa, 0xe9, 0x4f, 0xcc, 0x54, 0x08,
  0x1f, 0xf7, 0xf0, 0xe8, 0x25, 0xf1, 0xbc, 0x0b, 0x3c, 0x22, 0x00, 0x13,
  0xff, 0xfd, 0x24, 0x79, 0xc9, 0x4d, 0xbd, 0x2a, 0xef, 0xeb, 0x44, 0xac,
  0x17, 0xbb, 0x07, 0x08, 0x33, 0x04, 0x3e, 0xf5, 0xd0, 0x0b, 0x0f, 0xaa,
  0x2e, 0xf7, 0x9f, 0x83, 0x57, 0x70, 0x2a, 0xeb, 0xcc, 0x05, 0xc5, 0x20,
  0xfa, 0x55, 0xcd, 0xee, 0x15, 0x4a, 0x19, 0x1a, 0xcb, 0xf2, 0x69, 0x5a,
  0xe8, 0xd7, 0xe0, 0x0f, 0xeb, 0xab, 0x19, 0x1c, 0xdd, 0x2b, 0x48, 0x15,
  0x19, 0x81, 0xba, 0xe1, 0xf1, 0x36, 0x5e, 0xf0, 0x18, 0x2f, 0x05, 0x09,
  0x4f, 0xf2, 0xe1, 0xbd, 0x3b, 0x00, 0xe9, 0x9b, 0x0a, 0x33, 0xca, 0x10,
  0xdb, 0xfb, 0xf2, 0x05, 0x02, 0x22, 0xbf, 0x49, 0xea, 0xd4, 0x22, 0xc2,
  0x1e, 0x4c, 0xdd, 0x12, 0xbb, 0x2b, 0xec, 0x18, 0xf0, 0xf0, 0xa5, 0xea,
  0x5c, 0xa5, 0x0b, 0xdf, 0x14, 0xf8, 0x03, 0xdd, 0xc2, 0xbc, 0x17, 0x12,
  0xf4, 0x3a, 0xd5, 0xc2, 0x12, 0xce, 0x1b, 0xde, 0x20, 0x20, 0x22, 0x03,
  0xdb, 0xfa, 0x10, 0xc0, 0xea, 0xf7, 0xb7, 0x05, 0x04, 0xf3, 0x2d, 0x04,
  0xfd, 0x33, 0xad, 0x09, 0x0e, 0xea, 0x0e, 0x31, 0x14, 0xfd, 0xd2, 0x6a,
  0xdc, 0x0e, 0x36, 0x2d, 0x18, 0x10, 0xdf, 0xda, 0x1a, 0xe7, 0x2b, 0x5f,
  0x16, 0x12, 0x01, 0x40, 0xe3, 0xdc, 0xfe, 0xfa, 0x11, 0xbd, 0x91, 0xf4,
  0x01, 0xf1, 0x1a, 0x2c, 0x23, 0x5f, 0xbb, 0xe1, 0xe7, 0x81, 0xf6, 0x25,
  0x23, 0x1e, 0x0d, 0x9a, 0xd1, 0xf7, 0xf6, 0xce, 0xe4, 0xe1, 0xc6, 0x81,
  0x5e, 0x34, 0x1b, 0x4e, 0xb3, 0x54, 0x36, 0x59, 0xc1, 0xe1, 0x20, 0x01,
  0x19, 0x6e, 0x37, 0x0e, 0x0a, 0xdf, 0x2d, 0xbe, 0x4e, 0x06, 0xc3, 0x1e,
  0xaa, 0xbd, 0xbd, 0xbc, 0xdf, 0x1a, 0xbb, 0xaf, 0xe7, 0xd8, 0xfd, 0x86,
  0x23, 0x4a, 0xe0, 0x0b, 0x5a, 0x15, 0x64, 0x56, 0xed, 0xe7, 0x16, 0x66,
  0xdf, 0x01, 0x3b, 0xbb, 0xce, 0x1f, 0xcb, 0x09, 0x25, 0x05, 0x1f, 0x06,
  0x5a, 0xc9, 0xcc, 0xea, 0xc5, 0x05, 0xbb, 0x14, 0x2f, 0x15, 0x13, 0xfb,
  0x4b, 0x0e, 0xe7, 0x0a, 0xee, 0x24, 0x48, 0xff, 0x0d, 0xd1, 0x26, 0xb3,
  0xe2, 0xd9, 0x3e, 0x46, 0x5d, 0x3a, 0x41, 0xcd, 0x0d, 0x26, 0xbb, 0xfd,
  0xef, 0x16, 0x39, 0xbf, 0x0b, 0x28, 0xf7, 0x2f, 0xef, 0xd4, 0x20, 0x37,
  0x34, 0xde, 0xfd, 0xcd, 0x35, 0x1f, 0x20, 0x1a, 0xd2, 0xe0, 0x7d, 0x40,
  0xb9, 0xe7, 0x13, 0xea, 0x19, 0xc8, 0x43, 0x03, 0xeb, 0xee, 0xf6, 0xda,
  0x12, 0x29, 0xfc, 0x3d, 0xea, 0xe9, 0xfb, 0xd1, 0x7f, 0xda, 0x67, 0x99,
  0x24, 0xcb, 0x4f, 0xd1, 0x52, 0x28, 0xf9, 0x2f, 0xf8, 0xfc, 0xe0, 0xdb,
  0xde, 0xed, 0x2e, 0x03, 0xe8, 0xe8, 0xc2, 0xe1, 0x34, 0x5f, 0x03, 0x03,
  0x20, 0x0f, 0xe9, 0xea, 0xe9, 0x00, 0xeb, 0x2a, 0xef, 0x03, 0xf0, 0xfe,
  0x17, 0x5a, 0x07, 0x29, 0xfd, 0xbd, 0xdf, 0xff, 0xea, 0xd2, 0x11, 0xf8,
  0x13, 0x06, 0x06, 0xd8, 0x05, 0xf2, 0xed, 0x31, 0xfd, 0xd5, 0xf7, 0xca,
  0x04, 0x0a, 0x01, 0x48, 0xcc, 0xd3, 0x04, 0xda, 0xfd, 0x2f, 0x81, 0x25,
  0xf4, 0x35, 0x3b, 0xe1, 0x28, 0xe0, 0xe0, 0x27, 0xdd, 0x21, 0x2d, 0xdb,
  0x30, 0x38, 0x23, 0xe1, 0xd8, 0x71, 0xe4, 0x8d, 0xdc, 0xd0, 0x1f, 0xef,
  0xd1, 0xfd, 0xc4, 0xcf, 0x1f, 0x0a, 0xb0, 0x2a, 0xcc, 0xc0, 0x27, 0xf1,
  0xf2, 0xde, 0x32, 0xe3, 0xbe, 0xbb, 0xe4, 0xc6, 0xd1, 0x30, 0x39, 0xd5,
  0xd9, 0x40, 0x4f, 0x20, 0x27, 0x57, 0x0e, 0x05, 0xc5, 0xde, 0x16, 0x9d,
  0x29, 0x55, 0x3b, 0x2a, 0xe1, 0x20, 0x48, 0xf7, 0xb6, 0xc7, 0x3d, 0xe0,
  0x43, 0xdf, 0xdf, 0x63, 0xb2, 0x1f, 0x16, 0x0a, 0xf3, 0x1b, 0xf2, 0x7f,
  0xde, 0xc2, 0x7d, 0xf1, 0x1d, 0x36, 0x45, 0xf0, 0x17, 0xb2, 0x81, 0xb6,
  0xd2, 0xc8, 0x97, 0x11, 0x35, 0x4d, 0xcb, 0xec, 0x98, 0x0a, 0x98, 0x26,
  0x1f, 0x02, 0x93, 0x17, 0x45, 0x39, 0x39, 0xfe, 0x3e, 0x4c, 0x17, 0x08,
  0x06, 0xda, 0xec, 0x0f, 0xf1, 0x35, 0xb4, 0xe6, 0x06, 0xf7, 0xff, 0xeb,
  0x09, 0x1d, 0x35, 0xf2, 0x3e, 0x30, 0x01, 0x1c, 0xd9, 0xd9, 0xf9, 0xe2,
  0x23, 0x68, 0xf8, 0xd1, 0x36, 0xee, 0x3f, 0xbe, 0x43, 0xe6, 0x28, 0x03,
  0xf8, 0xda, 0x23, 0x22, 0xe6, 0x07, 0xaa, 0xed, 0x21, 0xcb, 0xca, 0xc1,
  0x58, 0x40, 0xeb, 0xe0, 0x0b, 0x15, 0x1e, 0x0c, 0xf9, 0x37, 0x36, 0x97,
  0x24, 0xd6, 0x14, 0x2a, 0xdc, 0x11, 0xed, 0xe5, 0x0e, 0xf3, 0xe3, 0x1c,
  0xe5, 0xde, 0x40, 0xfa, 0xce, 0xe7, 0x20, 0xc3, 0xfb, 0x4d, 0xb2, 0xb7,
  0x26, 0x00, 0xfa, 0x0e, 0xb1, 0x1e, 0xea, 0xea, 0xfd, 0x09, 0xf5, 0x3c,
  0x15, 0xda, 0xff, 0xad, 0x4e, 0xe3, 0xf0, 0x40, 0x0e, 0xfe, 0xdd, 0x1c,
  0x18, 0x1d, 0x1e, 0x40, 0x81, 0x02, 0x10, 0xc4, 0x31, 0xf3, 0xcb, 0x1d,
  0x23, 0x42, 0xe0, 0x2a, 0xec, 0xe2, 0xc1, 0x2e, 0xd3, 0x09, 0x2c, 0xf9,
  0x1e, 0x49, 0x59, 0x7a, 0xf1, 0x2e, 0xfc, 0x2c, 0x0d, 0x23, 0xd8, 0x1e,
  0x7b, 0xe2, 0x05, 0xc3, 0xd2, 0x5b, 0x70, 0x7f, 0xc4, 0xd9, 0xb4, 0x36,
  0xbc, 0xa6, 0x4a, 0xba, 0x3e, 0x15, 0x9a, 0x1e, 0xde, 0x3a, 0xe8, 0xbf,
  0x1a, 0x09, 0x0c, 0x87, 0xcf, 0xf3, 0x22, 0x0f, 0x0c, 0x1b, 0xf5, 0xf4,
  0xf9, 0x01, 0xd4, 0x09, 0x1d, 0xa3, 0x51, 0xc4, 0xcd, 0xca, 0x94, 0x7a,
  0x15, 0x0e, 0x08, 0x32, 0x3a, 0xfa, 0x8d, 0x1b, 0x18, 0x58, 0xf0, 0x9c,
  0xab, 0xdf, 0xc5, 0x36, 0xcf, 0x2c, 0xe6, 0xc3, 0xe5, 0xe7, 0xfa, 0x3a,
  0x12, 0x15, 0xf9, 0xe1, 0xa6, 0x38, 0x23, 0xe5, 0x0a, 0x22, 0xf0, 0x2c,
  0xd3, 0x20, 0xa8, 0x51, 0x0c, 0x66, 0x60, 0x22, 0xd0, 0x0c, 0xf1, 0xee,
  0x1f, 0x19, 0x15, 0xd2, 0xe2, 0xf1, 0x25, 0x1e, 0x0b, 0x17, 0xfd, 0xfa,
  0xac, 0x1b, 0xe1, 0x24, 0xa7, 0x32, 0xce, 0xc9, 0x96, 0xe4, 0xd3, 0x04,
  0xf1, 0xde, 0xc5, 0x0d, 0xcc, 0xe9, 0xc1, 0xe8, 0xc3, 0xee, 0x10, 0xe1,
  0xed, 0x15, 0xf9, 0xb9, 0x26, 0x19, 0xb4, 0xf5, 0xdf, 0xbb, 0xde, 0x07,
  0xdb, 0xf9, 0x81, 0xad, 0x02, 0x13, 0x2f, 0xf7, 0xac, 0x17, 0x09, 0x02,
  0x2c, 0x50, 0x06, 0x54, 0x7f, 0xe4, 0x1b, 0x33, 0x20, 0xcd, 0x1f, 0xc8,
  0x1b, 0xcd, 0xdd, 0xd1, 0xe3, 0x34, 0xeb, 0x63, 0x25, 0xee, 0x62, 0x2e,
  0x05, 0x07, 0x15, 0x46, 0x2c, 0x10, 0x04, 0x31, 0x36, 0x3f, 0x1e, 0xfc,
  0xfa, 0x7a, 0x10, 0xf2, 0x2b, 0xec, 0xd3, 0x2c, 0x4f, 0x1a, 0x45, 0x28,
  0xc3, 0xeb, 0xea, 0x61, 0x59, 0xdb, 0x2d, 0x26, 0xbe, 0x23, 0x01, 0xf4,
  0xfd, 0x9e, 0xf3, 0x77, 0xe7, 0xf7, 0xe0, 0x14, 0xf3, 0xb9, 0x01, 0x3b,
  0x52, 0xcf, 0xff, 0xff, 0x04, 0x00, 0x00, 0x00, 0x00, 0x05, 0x00, 0x00,
  0x17, 0x04, 0xef, 0x18, 0xfd, 0x0e, 0x44, 0x12, 0x1f, 0xde, 0xca, 0x2a,
  0x2e, 0xd1, 0x12, 0x02, 0xaf, 0x08, 0x30, 0xe6, 0x54, 0x2d, 0x14, 0x35,
  0x39, 0xed, 0x9f, 0x5a, 0x3c, 0x13, 0x0a, 0xe6, 0xea, 0xe9, 0x7f, 0x1b,
  0xf3, 0x01, 0x03, 0xda, 0xf0, 0xec, 0x05, 0x55, 0x1d, 0xff, 0x22, 0x1b,
  0x0c, 0x11, 0x29, 0xe6, 0x31, 0xfe, 0xd6, 0x41, 0xd5, 0x2e, 0xbd, 0x31,
  0x43, 0xe0, 0x04, 0xe2, 0x0d, 0x05, 0x2e, 0x57, 0x17, 0x24, 0x2d, 0xe5,
  0x97, 0xe1, 0xd1, 0x30, 0x1e, 0xe6, 0xcf, 0x28, 0x1f, 0x69, 0xaa, 0x18,
  0xab, 0xe3, 0x0f, 0x32, 0x31, 0x96, 0xbe, 0x20, 0xe2, 0x2f, 0xe1, 0xbb,
  0x30, 0x1b, 0x08, 0xda, 0xf4, 0xd9, 0xa0, 0xfe, 0x8c, 0x58, 0x2d, 0xdb,
  0x26, 0x11, 0x38, 0x09, 0xcf, 0xc8, 0xab, 0x40, 0xa0, 0xb5, 0xa5, 0xf9,
  0x11, 0x16, 0x12, 0xd1, 0xee, 0x2d, 0xce, 0xba, 0xfb, 0xec, 0xb2, 0x11,
  0x0f, 0x81, 0xbf, 0xfe, 0xbe, 0xc9, 0x0f, 0xd9, 0xcb, 0xab, 0x0f, 0x2d,
  0xd1, 0x36, 0xc2, 0xd7, 0x20, 0xab, 0x1d, 0xda, 0x1c, 0xdf, 0x9c, 0x0f,
  0x87, 0x46, 0x05, 0x9f, 0x44, 0xd9, 0x12, 0x28, 0x06, 0xbb, 0xe1, 0xfc,
  0xcb, 0xd1, 0x0d, 0xda, 0x1b, 0x0c, 0x33, 0x16, 0x17, 0x03, 0xec, 0xf6,
  0xcf, 0x1f, 0x0b, 0x0d, 0xc5, 0xb7, 0xce, 0x81, 0x09, 0x06, 0x00, 0xf0,
  0xe0, 0x2a, 0x04, 0x06, 0xed, 0x20, 0x3a, 0xc2, 0xd3, 0x04, 0xe5, 0xba,
  0x0e, 0xf3, 0x00, 0xda, 0x19, 0x37, 0xeb, 0xe0, 0xfb, 0x0e, 0xf5, 0x30,
  0x1a, 0xd4, 0xe9, 0xfb, 0xf1, 0xd4, 0x02, 0xf3, 0xea, 0x1e, 0xec, 0xe2,
  0xa3, 0x05, 0xe8, 0xf6, 0xdc, 0xc4, 0xa4, 0xec, 0x04, 0xda, 0x03, 0xed,
  0xf0, 0x0d, 0x0f, 0xf7, 0x32, 0x0f, 0x4f, 0x17, 0xa7, 0x26, 0x1e, 0xdf,
  0xf2, 0x28, 0xf0, 0x19, 0xf5, 0x12, 0xe5, 0x2d, 0x08, 0x23, 0x39, 0x24,
  0xe7, 0x57, 0x11, 0xce, 0x2d, 0x29, 0x01, 0xda, 0x04, 0x4f, 0xab, 0x69,
  0x42, 0x00, 0xd1, 0x02, 0x0a, 0x4b, 0x31, 0xf8, 0x45, 0x22, 0xfa, 0xad,
  0xd3, 0xf9, 0xf8, 0x7f, 0x12, 0x02, 0x5b, 0x40, 0x0d, 0x08, 0xb2, 0x5f,
  0x2b, 0x29, 0x99, 0x39, 0xb2, 0xe5, 0xb5, 0x5f, 0x41, 0xde, 0xbc, 0xe4,
  0x2a, 0xee, 0x18, 0x13, 0xfb, 0x18, 0x9d, 0x2e, 0xee, 0xec, 0x8f, 0x04,
  0xf3, 0xf8, 0xca, 0xd6, 0xf7, 0x16, 0x05, 0xe8, 0xce, 0xff, 0xac, 0x16,
  0x69, 0x23, 0xf5, 0xf7, 0xb4, 0x09, 0xd5, 0x81, 0xed, 0x34, 0xea, 0xe5,
  0xdf, 0xaf, 0xac, 0x53, 0x26, 0x01, 0xbf, 0x19, 0x15, 0x19, 0x1e, 0xab,
  0xa4, 0xaf, 0xcb, 0xdd, 0xa5, 0xe5, 0xe2, 0xff, 0x47, 0x0c, 0xcf, 0x06,
  0xe5, 0xfd, 0xfa, 0xd3, 0xcf, 0x0d, 0x2c, 0xe2, 0xd9, 0xf3, 0xbb, 0x1e,
  0x01, 0x4a, 0xf8, 0xf6, 0xfa, 0xc7, 0x2a, 0xf1, 0x93, 0xcd, 0x2a, 0xc6,
  0xfa, 0x34, 0x1e, 0xeb, 0xc5, 0x72, 0x16, 0xc0, 0x1f, 0xae, 0x3c, 0xe8,
  0xe2, 0xb8, 0xf2, 0x4c, 0x00, 0x3d, 0xc1, 0x05, 0xba, 0xda, 0x09, 0x44,
  0xdd, 0xdb, 0x59, 0xed, 0xb2, 0xfe, 0x5c, 0x28, 0x1a, 0xf3, 0xdb, 0x3b,
  0xb6, 0x57, 0xf1, 0x10, 0x2e, 0xf2, 0xdb, 0x70, 0xbd, 0x4f, 0x44, 0xce,
  0x4c, 0x2a, 0xc1, 0x26, 0xe3, 0x32, 0xf6, 0x35, 0xd3, 0xe4, 0xd1, 0x4d,
  0x48, 0x09, 0xb4, 0x7f, 0x36, 0xd9, 0xac, 0xf2, 0xfa, 0xda, 0xa4, 0x17,
  0x39, 0x32, 0x3a, 0x64, 0xd5, 0x31, 0x38, 0x06, 0x2d, 0xff, 0xf0, 0xf6,
  0x2a, 0x1e, 0xe9, 0xe6, 0x34, 0xf3, 0xe9, 0xfe, 0xc7, 0x43, 0x50, 0xf7,
  0xfd, 0x24, 0xf9, 0x93, 0xa8, 0xbe, 0xf5, 0x3b, 0x0d, 0xa2, 0xd9, 0xee,
  0xb3, 0x1c, 0xff, 0x8e, 0x29, 0x33, 0xf3, 0xf2, 0xbb, 0x10, 0xcd, 0xd0,
  0xe7, 0xe1, 0x3d, 0x27, 0xaf, 0xaf, 0x81, 0xcc, 0xcb, 0xb9, 0xce, 0x04,
  0xf9, 0x37, 0x3b, 0x43, 0xa5, 0x42, 0x06, 0x5a, 0xd7, 0x65, 0xfb, 0xf2,
  0x00, 0x16, 0x95, 0xc3, 0x1d, 0x2b, 0x7e, 0xe5, 0xc6, 0x3b, 0x2d, 0x24,
  0x0a, 0x12, 0xd3, 0x1a, 0x10, 0x22, 0xf7, 0x44, 0x3e, 0x06, 0x06, 0x16,
  0x1c, 0xa8, 0xcb, 0xeb, 0xf5, 0x45, 0x16, 0xb4, 0x05, 0x07, 0x55, 0xed,
  0x3e, 0xdb, 0xe4, 0xfc, 0x17, 0xad, 0x17, 0xd9, 0xd7, 0x02, 0x44, 0xcf,
  0xcc, 0xf5, 0xea, 0xfb, 0x16, 0xea, 0x81, 0xe5, 0xfb, 0x02, 0x06, 0xe7,
  0xd4, 0x47, 0x41, 0xaa, 0xf8, 0x14, 0x50, 0x09, 0xcb, 0x81, 0x08, 0xe8,
  0xeb, 0x1f, 0x39, 0xb6, 0x3a, 0xda, 0x30, 0xbe, 0xfa, 0x22, 0x29, 0x1f,
  0x1d, 0x03, 0xbc, 0xaf, 0x14, 0x2f, 0xad, 0x8d, 0x10, 0x13, 0x25, 0xad,
  0x23, 0x1f, 0x69, 0x12, 0xed, 0x38, 0x0c, 0x0f, 0xf1, 0x15, 0x4d, 0xc0,
  0xfe, 0xf0, 0x24, 0x2a, 0xd1, 0xd5, 0xd4, 0xf1, 0x2e, 0xe3, 0x3c, 0x03,
  0x04, 0xbe, 0xd2, 0xf2, 0xdc, 0x0c, 0x4d, 0xf2, 0xaa, 0x1a, 0xb2, 0xd6,
  0x30, 0xd3, 0x04, 0xeb, 0xde, 0xb0, 0xff, 0xbe, 0x0a, 0xee, 0xe6, 0xc5,
  0xd8, 0x07, 0xd4, 0xfe, 0xb1, 0xf9, 0xf7, 0xdb, 0xdd, 0xf9, 0xf6, 0xd7,
  0xc6, 0xc3, 0xf5, 0xe6, 0xaa, 0x08, 0xcd, 0xdc, 0x04, 0xe0, 0x4d, 0x0b,
  0x14, 0xe1, 0x2a, 0x16, 0xe4, 0x81, 0xaf, 0xbf, 0x01, 0x0a, 0xe3, 0xd9,
  0x20, 0x1e, 0x43, 0x93, 0xc9, 0xe0, 0xc1, 0xfb, 0x04, 0xd2, 0xf9, 0x0e,
  0x29, 0x1a, 0xc1, 0xf1, 0x46, 0xe0, 0xb9, 0xc1, 0xfd, 0xdf, 0xd1, 0x5d,
  0xcf, 0x11, 0x2a, 0xbd, 0x02, 0x02, 0xaf, 0xb8, 0xce, 0x02, 0xe6, 0x15,
  0x4a, 0x53, 0xee, 0xdc, 0x61, 0x22, 0xf4, 0x0b, 0x17, 0x19, 0xb4, 0xa6,
  0x57, 0x08, 0x53, 0x0c, 0x7f, 0x46, 0xd1, 0x20, 0x3b, 0x50, 0xb6, 0x20,
  0xe8, 0x22, 0xde, 0x0e, 0xef, 0xfd, 0x29, 0xc9, 0xed, 0xce, 0x12, 0x5b,
  0xda, 0xdb, 0xe3, 0xde, 0x5c, 0xf5, 0x3d, 0xd0, 0x9f, 0xdf, 0x15, 0xed,
  0xfb, 0xff, 0x4c, 0x07, 0x29, 0xe8, 0x31, 0x28, 0xb1, 0x63, 0x91, 0xe6,
  0x00, 0xc2, 0x41, 0x2e, 0xe3, 0x9f, 0x3a, 0x52, 0xb8, 0x15, 0xe2, 0xb8,
  0xcd, 0x78, 0xbd, 0xc0, 0xc4, 0x66, 0xec, 0xdd, 0xc6, 0xfd, 0xdc, 0xf3,
  0xc8, 0x81, 0x32, 0xc4, 0x31, 0x75, 0xd4, 0xd4, 0x13, 0xce, 0xdf, 0x55,
  0xfc, 0x85, 0x0c, 0x40, 0x03, 0x69, 0x27, 0xa7, 0xd8, 0xee, 0xb3, 0x02,
  0xec, 0x3c, 0x14, 0x19, 0xde, 0xce, 0x97, 0x21, 0x29, 0xf8, 0x24, 0xba,
  0xf6, 0x58, 0xa3, 0xc3, 0xdb, 0xee, 0xa0, 0xdf, 0xee, 0x91, 0xc3, 0xfa,
  0xf0, 0xf0, 0xd1, 0x31, 0xf0, 0x54, 0xfd, 0x12, 0x11, 0xfc, 0xd3, 0x33,
  0x5d, 0xb5, 0x1f, 0xe3, 0xff, 0x0d, 0xa4, 0x13, 0x53, 0x12, 0xbe, 0xe6,
  0x31, 0xea, 0x3b, 0x70, 0x2a, 0xda, 0xd4, 0xbc, 0x00, 0x5a, 0xff, 0xc9,
  0xed, 0x7f, 0x03, 0x57, 0x02, 0x33, 0xc7, 0x00, 0x35, 0x4e, 0xcf, 0xfc,
  0xd3, 0x73, 0x36, 0xfd, 0x04, 0x45, 0xc1, 0x23, 0xa4, 0x1b, 0xa6, 0xf5,
  0x1c, 0x10, 0x91, 0xb7, 0x28, 0x09, 0x13, 0xce, 0xcf, 0x17, 0x25, 0xef,
  0x17, 0xff, 0xe5, 0x7f, 0x0c, 0xc9, 0x2b, 0xb8, 0xdc, 0x0c, 0x0b, 0xf2,
  0x7c, 0x19, 0xc8, 0x17, 0x9e, 0x26, 0x49, 0x1a, 0xf8, 0xf2, 0xe4, 0xfc,
  0xb4, 0x1b, 0xca, 0x42, 0x10, 0x36, 0x34, 0xc5, 0xea, 0x47, 0x1c, 0x22,
  0x18, 0x26, 0xfa, 0xf5, 0xef, 0x2e, 0x21, 0xb4, 0x1e, 0x41, 0x22, 0xf3,
  0x06, 0xc1, 0xfe, 0xdf, 0xb5, 0x05, 0x2b, 0x11, 0xdd, 0xab, 0x1e, 0xf0,
  0xc4, 0xc2, 0x1b, 0xc8, 0xd4, 0x14, 0xe8, 0xd2, 0xeb, 0xde, 0x11, 0x1d,
  0x00, 0x35, 0xa5, 0x2f, 0x0c, 0xf0, 0xb2, 0xaf, 0x25, 0x08, 0x5a, 0x1f,
  0xba, 0xeb, 0xe0, 0xeb, 0x0b, 0xd7, 0x09, 0x40, 0x0c, 0x36, 0x2b, 0x99,
  0xed, 0x12, 0x0d, 0x1b, 0x03, 0x8c, 0x11, 0xf8, 0x27, 0x98, 0x5b, 0x50,
  0x12, 0xef, 0xd6, 0xec, 0x27, 0xf7, 0xf8, 0x45, 0x1d, 0xe6, 0xfe, 0x09,
  0xd9, 0xcc, 0x2d, 0xfe, 0x59, 0xee, 0x27, 0x5d, 0x19, 0xc5, 0xc5, 0xf6,
  0x2c, 0xc7, 0xe6, 0x59, 0x24, 0x9e, 0xda, 0x19, 0xdc, 0xd5, 0x23, 0xc5,
  0x57, 0xd4, 0xbe, 0x34, 0xd7, 0xee, 0xef, 0x7f, 0x0f, 0xe2, 0xc6, 0xd7,
  0xdf, 0xe2, 0x02, 0xc0, 0xbf, 0x0b, 0x98, 0xed, 0x25, 0x90, 0x05, 0x19,
  0x14, 0xde, 0x96, 0xc2, 0x0d, 0x8b, 0x41, 0x03, 0xef, 0x57, 0x0c, 0xd7,
  0x0d, 0xa7, 0x81, 0xc6, 0x42, 0xc6, 0x32, 0xe7, 0x12, 0x1f, 0x8d, 0x29,
  0xeb, 0xa4, 0xc5, 0x3c, 0xeb, 0xf6, 0x0c, 0xc0, 0x07, 0xe6, 0x23, 0x35,
  0x59, 0xb1, 0x16, 0x5c, 0x6b, 0x0e, 0xe6, 0x0a, 0xf3, 0x82, 0xfe, 0x00,
  0xd1, 0x4a, 0xc3, 0x1b, 0x29, 0x1f, 0x18, 0xe9, 0x51, 0x2b, 0x3e, 0x2f,
  0x32, 0xfb, 0x9e, 0xdf, 0xb8, 0xb8, 0x0f, 0x58, 0x47, 0x69, 0xd6, 0x51,
  0x54, 0x23, 0x4b, 0xb6, 0xd5, 0xc9, 0xec, 0xdd, 0x1c, 0xec, 0x03, 0xaa,
  0xfb, 0x1f, 0x0d, 0x57, 0x07, 0xe6, 0x17, 0x0e, 0x0b, 0x15, 0xc5, 0x1e,
  0xd1, 0x1e, 0xae, 0x98, 0x08, 0xe0, 0xee, 0x7f, 0xb2, 0x20, 0xda, 0xd0,
  0xac, 0xf1, 0xc3, 0x1d, 0xdd, 0xd3, 0xd6, 0xb6, 0x01, 0xbb, 0xfa, 0x5e,
  0xcc, 0xf9, 0x2b, 0xb5, 0x1e, 0x11, 0x9a, 0xcd, 0xfa, 0xff, 0x06, 0xc1,
  0x06, 0xce, 0xd3, 0x0b, 0xe1, 0x1c, 0x10, 0xb5, 0x3d, 0xc4, 0x01, 0x33,
  0x45, 0x19, 0x26, 0xb6, 0x00, 0x45, 0x07, 0xf0, 0x5e, 0xd4, 0xff, 0xff,
  0x04, 0x00, 0x00, 0x00, 0x80, 0x07, 0x00, 0x00, 0x6b, 0xb6, 0x5d, 0xbd,
  0x22, 0x49, 0x03, 0x3e, 0xa7, 0xe7, 0xc8, 0x3e, 0x01, 0x15, 0x74, 0x3d,
  0x2c, 0xb9, 0x9f, 0xbe, 0x88, 0x0c, 0xcb, 0x3c, 0x39, 0xd4, 0x03, 0xbc,
  0xb6, 0x87, 0xa0, 0xbe, 0x4b, 0xca, 0x12, 0xbe, 0xa0, 0xfb, 0x7f, 0xbe,
  0x45, 0x15, 0x53, 0xbc, 0x35, 0x4f, 0x14, 0xbf, 0xf0, 0x17, 0xd6, 0xbe,
  0x14, 0xe6, 0xf5, 0xbd, 0x34, 0xcd, 0x3c, 0x3e, 0xc4, 0x0d, 0x47, 0xbe,
  0x00, 0x3e, 0xb6, 0x3e, 0xd7, 0xe6, 0x29, 0x3d, 0xdb, 0xbf, 0xf4, 0x3b,
  0x6a, 0x92, 0xa4, 0xbe, 0xfc, 0xe5, 0x0b, 0xbf, 0x13, 0x67, 0x64, 0xbe,
  0x25, 0x8e, 0xfe, 0x3e, 0x04, 0x81, 0x14, 0xbe, 0x20, 0xc6, 0xf1, 0xbd,
  0xab, 0x71, 0x2b, 0xbe, 0xa0, 0x37, 0x0d, 0x3e, 0x55, 0x0a, 0x8a, 0xbe,
  0x52, 0x41, 0x83, 0x3d, 0x80, 0x8c, 0x37, 0xbc, 0xb2, 0x2b, 0x44, 0xbd,
  0xa9, 0x6a, 0xa6, 0x3e, 0x0f, 0x8b, 0xb3, 0x3d, 0x59, 0x69, 0x19, 0x3e,
  0x77, 0x13, 0x9c, 0x3e, 0xee, 0x1a, 0xf8, 0xbd, 0x66, 0xbb, 0x0e, 0xbe,
  0x8a, 0x80, 0x99, 0xbe, 0x0c, 0xd3, 0x17, 0xbe, 0x70, 0x25, 0x73, 0x3c,
  0x69, 0x75, 0x22, 0x3e, 0x63, 0x4d, 0x5f, 0x3e, 0x05, 0xfa, 0x29, 0xbd,
  0xa5, 0xf7, 0x05, 0x3f, 0xeb, 0xc7, 0x03, 0xbd, 0x32, 0x5a, 0x9d, 0x3c,
  0xc8, 0x5e, 0x4e, 0xbc, 0x59, 0x2c, 0xb6, 0xbe, 0x85, 0xa1, 0xd6, 0x3c,
  0x14, 0xff, 0xe5, 0xbe, 0x7e, 0xd5, 0x62, 0x3e, 0xea, 0xdb, 0x95, 0xbe,
  0x3b, 0x55, 0xf3, 0x3d, 0x8d, 0x92, 0x5c, 0x3e, 0x8c, 0x20, 0xb0, 0x3e,
  0xfc, 0xaa, 0xe2, 0x3e, 0x3d, 0xdb, 0x94, 0xbd, 0x71, 0xf4, 0xc5, 0xbd,
  0x5c, 0xc2, 0xe3, 0xbc, 0x62, 0xfe, 0xd7, 0x3e, 0x91, 0x44, 0x9e, 0xbe,
  0xbd, 0x9a, 0x52, 0xbe, 0x1d, 0x65, 0xac, 0xbe, 0xfd, 0x5f, 0x24, 0x3e,
  0x35, 0x92, 0x1f, 0x3e, 0x40, 0xf4, 0x98, 0xbc, 0x52, 0xd4, 0x0b, 0xbe,
  0xca, 0x92, 0x59, 0xbe, 0x94, 0x69, 0xba, 0xbe, 0x32, 0xbb, 0x09, 0x3e,
  0x65, 0xbd, 0x60, 0x3c, 0x2b, 0x27, 0x10, 0x3e, 0x42, 0xa0, 0x76, 0x3e,
  0x73, 0xc7, 0x74, 0x3e, 0x16, 0xd3, 0xf4, 0xbd, 0x84, 0xc3, 0x0c, 0x3d,
  0x12, 0xb9, 0x86, 0xbe, 0x0b, 0xd5, 0x53, 0x3e, 0x9a, 0xc6, 0x04, 0xbf,
  0xa0, 0xbb, 0x27, 0x3e, 0xd7, 0xde, 0x80, 0xbe, 0x7b, 0xf6, 0x50, 0x3e,
  0x7d, 0x7b, 0x1d, 0xbe, 0x2d, 0x7b, 0xdf, 0x3d, 0x8b, 0x61, 0x1a, 0xbf,
  0xb7, 0xb3, 0x9c, 0xbe, 0xda, 0xe1, 0x93, 0xbe, 0x4c, 0xca, 0x73, 0xbe,
  0x69, 0xee, 0x9b, 0xbe, 0xce, 0x74, 0xbe, 0x3e, 0x96, 0x3e, 0x43, 0xbc,
  0xd5, 0xb3, 0x2f, 0x3c, 0xda, 0x46, 0x87, 0x3d, 0x44, 0x61, 0x3f, 0xbe,
  0x0c, 0x85, 0xcd, 0x3e, 0x6d, 0x99, 0x10, 0x3f, 0xda, 0x5f, 0x01, 0x3e,
  0x38, 0x06, 0xa2, 0x3d, 0xdd, 0x47, 0xb3, 0xbe, 0xea, 0xb7, 0x4b, 0x3e,
  0xdf, 0x1f, 0xe5, 0xbd, 0x35, 0x3e, 0x80, 0xbe, 0xd5, 0x6a, 0xa5, 0xbe,
  0x94, 0xf1, 0x01, 0x3f, 0x40, 0x4a, 0xef, 0x3e, 0xa4, 0x77, 0x5e, 0xbe,
  0x06, 0x55, 0xb0, 0xbe, 0x2d, 0x1b, 0x95, 0x3e, 0x63, 0x6b, 0x20, 0x3e,
  0xe7, 0x72, 0x85, 0xbe, 0x66, 0xfd, 0xc0, 0xbe, 0xb2, 0xd1, 0x85, 0x3e,
  0x0c, 0x9d, 0x10, 0x3e, 0x67, 0x49, 0xea, 0x3e, 0x50, 0xc9, 0x38, 0x3e,
  0x1c, 0xd2, 0x04, 0x3e, 0x42, 0x78, 0xfa, 0x3b, 0x4e, 0x26, 0x52, 0x3b,
  0x82, 0x9e, 0x09, 0x3d, 0x0b, 0x33, 0x94, 0xbe, 0x62, 0xff, 0x41, 0xbe,
  0x80, 0x38, 0xf4, 0xbd, 0xc1, 0xd2, 0xf9, 0x3c, 0x6f, 0xd0, 0x1f, 0x3e,
  0xd9, 0x7d, 0x2b, 0x3e, 0x94, 0x3b, 0x1f, 0xbd, 0xca, 0x2b, 0xe0, 0xbe,
  0x70, 0xaf, 0xdc, 0x3e, 0x12, 0xea, 0x9b, 0xbe, 0x04, 0xac, 0x2a, 0x3e,
  0xd0, 0x06, 0x8e, 0xbe, 0xd1, 0x14, 0x9a, 0x3e, 0xf4, 0x09, 0xb9, 0x3d,
  0x0b, 0xaf, 0x97, 0xbe, 0x7d, 0x15, 0x7f, 0xbe, 0xf2, 0x7a, 0xcb, 0x3e,
  0x10, 0x96, 0x60, 0x3e, 0x6a, 0xd0, 0x19, 0xbf, 0xf6, 0x21, 0x28, 0x3e,
  0xb7, 0x76, 0xdd, 0xbe, 0x7b, 0x2d, 0x87, 0x3e, 0x56, 0x89, 0x03, 0xbf,
  0x4d, 0x86, 0x2b, 0xbe, 0xc0, 0x65, 0xe2, 0x3c, 0x39, 0xeb, 0xa7, 0x3d,
  0x30, 0x06, 0xd8, 0xbe, 0x32, 0x4a, 0x81, 0x3e, 0x07, 0x9a, 0x89, 0xbe,
  0xde, 0x5c, 0x37, 0x3d, 0xf8, 0x06, 0x84, 0x3e, 0xdb, 0xd7, 0xd0, 0x3e,
  0xe4, 0xbb, 0x9c, 0x3e, 0x96, 0xc1, 0xd8, 0xbd, 0xb1, 0x56, 0x9d, 0x3d,
  0xef, 0xfd, 0x1b, 0x3c, 0x43, 0x63, 0x3f, 0xbd, 0x98, 0x73, 0x04, 0xbe,
  0xaa, 0xad, 0x7d, 0xbe, 0x22, 0xe2, 0x00, 0x3e, 0x48, 0x60, 0xef, 0x3e,
  0xb3, 0x3f, 0x5b, 0x3e, 0xd2, 0x3f, 0xcf, 0x3e, 0xc2, 0x2f, 0x1b, 0x3e,
  0x74, 0x5e, 0xaf, 0xbd, 0x4c, 0x05, 0xd0, 0xbe, 0xe3, 0xa5, 0x8a, 0x3d,
  0x99, 0x8e, 0x8d, 0x3e, 0x1c, 0x28, 0x8b, 0x3e, 0xd4, 0x11, 0xd6, 0x3e,
  0x79, 0xbd, 0x59, 0x3c, 0xa2, 0xe3, 0x93, 0x3e, 0xa2, 0x2c, 0x12, 0x3d,
  0x17, 0xfc, 0xc2, 0x3e, 0x4f, 0x6e, 0x4f, 0xbe, 0xea, 0x06, 0x4d, 0x3e,
  0xbf, 0xe2, 0x08, 0xbc, 0x8d, 0xeb, 0xfb, 0x3d, 0x56, 0xc4, 0x51, 0xbe,
  0xf4, 0x08, 0x84, 0xbd, 0x8e, 0xeb, 0x2d, 0x3d, 0xc8, 0x54, 0x9e, 0xbe,
  0x4b, 0xad, 0xed, 0xbe, 0x3b, 0xa9, 0x90, 0x3e, 0x21, 0x89, 0x96, 0xbe,
  0x02, 0x79, 0xae, 0xbe, 0x2f, 0xc3, 0x6a, 0xbd, 0xe6, 0x3c, 0x5d, 0x3e,
  0xb5, 0xbd, 0xa2, 0x3e, 0xcf, 0xde, 0x06, 0x3e, 0xa1, 0x99, 0x9b, 0xbd,
  0x54, 0x89, 0x96, 0xbe, 0xf4, 0xf0, 0xa0, 0x3e, 0x1f, 0x68, 0x8e, 0x3d,
  0x78, 0xc5, 0xbf, 0x3d, 0x4a, 0x43, 0x78, 0xbd, 0xcb, 0x0c, 0xcd, 0xbd,
  0xd6, 0x5f, 0xbb, 0xbc, 0xe3, 0x29, 0x8f, 0x3e, 0x53, 0x89, 0x52, 0xbd,
  0x68, 0x91, 0xf7, 0xbc, 0x27, 0xdc, 0xcf, 0x3d, 0xa2, 0xd7, 0x46, 0xbd,
  0x9e, 0x01, 0x52, 0xbe, 0xaf, 0xa9, 0xc1, 0x3e, 0x81, 0x7f, 0x11, 0x3d,
  0x65, 0x2e, 0x08, 0xbf, 0xfc, 0x66, 0x86, 0x3e, 0x04, 0x31, 0x6f, 0x3e,
  0xdd, 0x76, 0xb2, 0xbd, 0xfc, 0x77, 0x72, 0xbe, 0x89, 0x19, 0x9d, 0xbe,
  0xa0, 0xed, 0x25, 0x3c, 0x04, 0x94, 0x39, 0xbe, 0xc0, 0x70, 0x6d, 0x3e,
  0xa2, 0x04, 0x82, 0x3e, 0xb0, 0xa6, 0xfc, 0x3e, 0x5a, 0xef, 0x04, 0xbe,
  0x75, 0x4d, 0xc2, 0xbe, 0x97, 0x16, 0x15, 0x3e, 0x38, 0xc1, 0x82, 0xbe,
  0x11, 0x5a, 0x13, 0x3f, 0xdb, 0xeb, 0x5e, 0xbd, 0xd7, 0xcf, 0x46, 0xbd,
  0x98, 0x57, 0x20, 0xbe, 0xfd, 0x86, 0xb5, 0x3e, 0x6a, 0xeb, 0x50, 0x3e,
  0x2b, 0x3d, 0xac, 0x3e, 0xc5, 0xdd, 0xea, 0xbe, 0xa0, 0x7a, 0xfa, 0xbe,
  0x28, 0xbf, 0x36, 0x3d, 0x17, 0xbf, 0xad, 0xba, 0x2b, 0x60, 0x13, 0xbe,
  0xb2, 0x8d, 0x73, 0xbe, 0x87, 0xbf, 0x61, 0xbe, 0xfe, 0x45, 0x89, 0xbe,
  0x76, 0x9a, 0xd6, 0x3c, 0x1c, 0x77, 0xa1, 0x3b, 0x65, 0xc8, 0x10, 0xbe,
  0x5d, 0xfa, 0x3c, 0x3e, 0xd4, 0x78, 0xf9, 0x3d, 0x8b, 0x8e, 0x25, 0xbd,
  0xff, 0x81, 0x05, 0x3e, 0x86, 0x08, 0x5b, 0x3d, 0x88, 0x16, 0x81, 0xbe,
  0xd6, 0x6d, 0x84, 0xbe, 0xc9, 0x74, 0x04, 0xbf, 0x37, 0xa7, 0x1c, 0xbe,
  0x65, 0x2a, 0x85, 0x3b, 0xa3, 0x40, 0x31, 0x3e, 0x02, 0xd7, 0xa3, 0xbe,
  0xcb, 0x49, 0xc5, 0x3d, 0xc6, 0x16, 0x7d, 0xbe, 0x6e, 0xeb, 0x01, 0x3e,
  0xb2, 0x8b, 0xf5, 0x3d, 0xc0, 0x9f, 0xf4, 0xbe, 0xea, 0x69, 0x9f, 0x3d,
  0xe6, 0x73, 0x52, 0xbd, 0xdd, 0x5a, 0xfe, 0xbe, 0x57, 0x18, 0x78, 0xbe,
  0x9b, 0x33, 0xd5, 0x3e, 0xcb, 0x97, 0x92, 0x3e, 0xe4, 0x91, 0x8d, 0xbe,
  0x44, 0xe6, 0x08, 0x3d, 0xf6, 0xeb, 0x35, 0xbe, 0xb6, 0x4f, 0x6d, 0x3d,
  0x8d, 0x58, 0x0b, 0x3f, 0x8c, 0x41, 0x4f, 0xbc, 0xa5, 0xb1, 0xe9, 0xbc,
  0xa3, 0xd1, 0xbf, 0x3d, 0x64, 0xe9, 0xa6, 0xbe, 0xee, 0x62, 0x82, 0xbe,
  0xc2, 0x1e, 0x48, 0xbe, 0xd4, 0x6e, 0x28, 0xbd, 0xa0, 0x12, 0xf5, 0x3d,
  0x42, 0xeb, 0xf1, 0x3e, 0xc3, 0xda, 0xd5, 0xbe, 0x55, 0x4b, 0x99, 0xbd,
  0xd4, 0xd6, 0x6b, 0xbe, 0xc1, 0xf3, 0xb6, 0x3e, 0x95, 0x7d, 0x02, 0xbf,
  0x2f, 0x5e, 0x11, 0xbe, 0x51, 0x39, 0xc1, 0x3d, 0x94, 0x29, 0x69, 0xbe,
  0x4f, 0xae, 0x52, 0xbe, 0x82, 0x28, 0xc3, 0xbd, 0xc2, 0x5d, 0x24, 0xbd,
  0x23, 0x58, 0x34, 0x3e, 0xf1, 0x08, 0xdf, 0x3d, 0x75, 0x35, 0x30, 0x3e,
  0x36, 0x82, 0x02, 0x3f, 0xb8, 0xb6, 0x85, 0xbe, 0x9e, 0x8a, 0xf4, 0xbd,
  0xf8, 0xb3, 0x43, 0x3e, 0x1b, 0x92, 0xdb, 0x3d, 0x9b, 0xe9, 0x09, 0x3e,
  0xb5, 0xf0, 0x13, 0x3f, 0x2c, 0x87, 0x9f, 0x3d, 0x5d, 0x66, 0xb5, 0x3e,
  0x8e, 0x93, 0xc5, 0x3d, 0x50, 0x98, 0x06, 0x3d, 0x6d, 0x59, 0xbc, 0x3e,
  0x5b, 0x6b, 0xa6, 0xbe, 0x59, 0x88, 0x73, 0xbe, 0x5f, 0xb0, 0x86, 0xbe,
  0x42, 0x55, 0x19, 0x3e, 0x7b, 0x83, 0xa5, 0xbc, 0x83, 0xb2, 0x0c, 0x3e,
  0xa7, 0x0b, 0xc1, 0xbd, 0x0d, 0xda, 0xdc, 0xbd, 0x77, 0x8d, 0xc7, 0x3d,
  0xf7, 0x94, 0xb7, 0x3e, 0x17, 0xb9, 0xa7, 0x3c, 0xac, 0xa9, 0x17, 0x3e,
  0x13, 0x9c, 0x0d, 0x3e, 0x90, 0xa8, 0xdb, 0x3c, 0xa4, 0x5f, 0xc1, 0x3e,
  0x00, 0xf1, 0x36, 0x3b, 0x31, 0x97, 0xd6, 0xbe, 0x82, 0xd7, 0x14, 0x3e,
  0x7b, 0x19, 0x81, 0x3e, 0x6d, 0xfb, 0x3d, 0x3e, 0xd7, 0xdd, 0xcf, 0xbc,
  0x70, 0x8e, 0x48, 0x3e, 0xf8, 0x2f, 0xa9, 0xbe, 0x66, 0x06, 0xb2, 0x3e,
  0x12, 0xae, 0x93, 0x3d, 0x9e, 0x9e, 0x34, 0x3d, 0x36, 0x16, 0x0b, 0xbd,
  0x28, 0x11, 0xc7, 0xbe, 0x61, 0xa1, 0x36, 0x3d, 0xf2, 0x55, 0x32, 0x3e,
  0x10, 0x3b, 0x9e, 0xbe, 0x72, 0x53, 0x33, 0x3e, 0xc7, 0x4b, 0x04, 0x3e,
  0x83, 0x22, 0xff, 0x3d, 0x3a, 0x09, 0xb7, 0x3e, 0x46, 0xd6, 0x10, 0x3e,
  0xf7, 0xdb, 0x26, 0xbe, 0xc1, 0x85, 0xe3, 0xbe, 0xb1, 0x64, 0x12, 0x3e,
  0xb2, 0x26, 0x33, 0xbe, 0x74, 0xf2, 0x81, 0x3e, 0xab, 0x72, 0xea, 0xbe,
  0xe7, 0x92, 0x15, 0x3f, 0x96, 0x24, 0xb1, 0x3b, 0x98, 0x16, 0xa3, 0xbe,
  0xe8, 0x52, 0x98, 0x3d, 0x19, 0xbc, 0x4f, 0x3e, 0x10, 0x00, 0x19, 0xbe,
  0xf5, 0x10, 0xda, 0xbd, 0xb2, 0xe2, 0x2d, 0xbd, 0x95, 0x55, 0x8b, 0x3e,
  0x25, 0xc8, 0xe1, 0xbd, 0xa3, 0xf2, 0xa2, 0x3e, 0x88, 0x4d, 0xb0, 0x3e,
  0x11, 0x1e, 0xbf, 0xbe, 0x4a, 0x0c, 0xd3, 0x3e, 0x80, 0xff, 0x2a, 0xbe,
  0x76, 0x1e, 0xe1, 0x3d, 0xab, 0x89, 0x94, 0x3e, 0x7a, 0xc8, 0x8d, 0x3e,
  0x00, 0x9c, 0x47, 0x3e, 0x48, 0x4b, 0xc8, 0x3d, 0x58, 0x40, 0x07, 0x3e,
  0x6d, 0x17, 0xef, 0xbe, 0xe2, 0xba, 0x0f, 0xbf, 0x64, 0x05, 0xe5, 0xbe,
  0x3e, 0x78, 0x3c, 0xbe, 0xd4, 0x14, 0x06, 0xbf, 0xdf, 0xf0, 0x65, 0xbe,
  0xeb, 0xba, 0x85, 0x3e, 0xbf, 0x2d, 0x2a, 0x3e, 0x13, 0x96, 0x08, 0xbf,
  0x7c, 0x75, 0xa9, 0x3e, 0x9d, 0xce, 0xe2, 0x3e, 0x48, 0xc3, 0x7e, 0x3e,
  0x75, 0x72, 0x05, 0x3d, 0x26, 0xfc, 0xc0, 0x3e, 0x9e, 0xc6, 0xf3, 0xbe,
  0xb1, 0x16, 0xd5, 0xbe, 0x76, 0x35, 0xae, 0xbe, 0x83, 0x47, 0xa3, 0x3d,
  0xdd, 0xd6, 0xa4, 0x3e, 0x60, 0xcd, 0xc1, 0x3e, 0x5e, 0x18, 0x03, 0x3e,
  0x09, 0x1e, 0x44, 0xbe, 0x3e, 0x41, 0xf3, 0xbe, 0xae, 0xe9, 0x97, 0x3d,
  0xd3, 0x23, 0xb3, 0x3e, 0xa0, 0xe4, 0x4d, 0x3d, 0x5f, 0xa5, 0x4a, 0xbe,
  0xd1, 0x3d, 0x0f, 0xbe, 0x3d, 0xe9, 0xf1, 0xbe, 0xd2, 0x29, 0xbc, 0xbe,
  0x17, 0x14, 0x2b, 0xbe, 0xf2, 0x15, 0xe7, 0xbc, 0x96, 0x01, 0x92, 0x3e,
  0x6f, 0x47, 0x56, 0xbd, 0xde, 0xf9, 0x91, 0x3c, 0xc7, 0xe7, 0x92, 0x3e,
  0xa3, 0x05, 0x02, 0xbf, 0x24, 0x6c, 0x57, 0xbd, 0x49, 0xe3, 0x3f, 0xbe,
  0x13, 0x33, 0x00, 0x3f, 0xf2, 0xe9, 0xee, 0x3e, 0x07, 0xe2, 0x85, 0x3e,
  0x99, 0x8b, 0xf6, 0x3d, 0x1c, 0xe1, 0x52, 0xbe, 0x40, 0xf2, 0x9c, 0xbc,
  0xe3, 0x64, 0xb1, 0xbe, 0x6d, 0xed, 0x0e, 0x3f, 0x75, 0x5c, 0x66, 0xbe,
  0xec, 0x65, 0xa4, 0xbe, 0xf9, 0x67, 0x25, 0xbe, 0x16, 0xc0, 0xb2, 0x3e,
  0xfd, 0xdb, 0x85, 0xbe, 0x33, 0xef, 0x85, 0x3c, 0x0a, 0x68, 0x0a, 0x3e,
  0x76, 0x52, 0x1e, 0x3d, 0x26, 0x54, 0x3a, 0x3e, 0xc5, 0x65, 0x16, 0xbf,
  0xff, 0xd0, 0x8c, 0xbd, 0xf8, 0x8b, 0x8e, 0x3e, 0x3c, 0x86, 0x24, 0x3d,
  0x85, 0x9f, 0x08, 0x3f, 0x3f, 0x3f, 0x80, 0x3b, 0xcb, 0x4d, 0xbf, 0xbd,
  0xc1, 0x72, 0x01, 0xbe, 0xee, 0x72, 0xa9, 0x3d, 0x27, 0x5f, 0xbf, 0x3b,
  0x8c, 0xb3, 0x1a, 0xbe, 0x7f, 0x8e, 0xff, 0x3e, 0x13, 0x36, 0xcd, 0xbe,
  0xab, 0x25, 0x91, 0x3e, 0xb0, 0x84, 0xa2, 0xbe, 0x5f, 0x2a, 0xb3, 0xbe,
  0x76, 0x00, 0xfc, 0x3d, 0x35, 0xe2, 0xb5, 0xbc, 0x3e, 0xac, 0x13, 0x3f,
  0x19, 0x89, 0x83, 0xbe, 0xf6, 0x2b, 0x3b, 0xbd, 0xd3, 0x4d, 0x8a, 0x3e,
  0x58, 0x1c, 0x07, 0xbf, 0x0f, 0xc8, 0x96, 0xbe, 0x05, 0xbc, 0x7b, 0x3e,
  0xf0, 0x33, 0xbc, 0x3e, 0xcc, 0xf5, 0x9f, 0xbb, 0xdc, 0x2d, 0xa5, 0xbb,
  0x4a, 0x11, 0xa6, 0x3e, 0x81, 0x30, 0x8d, 0xbe, 0x73, 0x1b, 0xaa, 0x3e,
  0xce, 0xab, 0xb7, 0x3e, 0x41, 0x69, 0x32, 0xbc, 0x11, 0xd8, 0x49, 0x3e,
  0x01, 0x7e, 0xcb, 0x3e, 0xb4, 0xa7, 0xca, 0xbe, 0xdb, 0x7d, 0xe9, 0xbd,
  0x08, 0xbc, 0x91, 0xbd, 0x92, 0x55, 0x0a, 0x3e, 0xf3, 0xbc, 0x4f, 0x3e,
  0x3f, 0x26, 0x90, 0x3d, 0x42, 0xa1, 0xed, 0xbe, 0x1a, 0xf2, 0x0f, 0xbf,
  0xfd, 0x01, 0x43, 0xbd, 0xd5, 0x3f, 0x68, 0x3e, 0x15, 0x15, 0xe7, 0xbd,
  0x2f, 0x6e, 0xbb, 0x3d, 0x90, 0x8b, 0x37, 0xbe, 0x82, 0x80, 0xa1, 0x3e,
  0x73, 0x29, 0x8d, 0xbe, 0x71, 0xb5, 0x86, 0x3e, 0x3d, 0x71, 0x5a, 0x3d,
  0x0b, 0x3e, 0xaa, 0xbd, 0xd3, 0xeb, 0x81, 0x3e, 0xd8, 0x89, 0xda, 0x3e,
  0xa7, 0x05, 0x2d, 0x3c, 0x52, 0xfa, 0xa1, 0xbe, 0x5b, 0x1b, 0x7e, 0xbd,
  0x99, 0x2b, 0x0d, 0xbe, 0xe5, 0x1d, 0xc2, 0x3e, 0xea, 0xdb, 0xff, 0xff,
  0x04, 0x00, 0x00, 0x00, 0x40, 0x00, 0x00, 0x00, 0x00, 0x00, 0x00, 0x00,
  0x00, 0x00, 0x00, 0x00, 0x00, 0x00, 0x00, 0x00, 0x00, 0x00, 0x00, 0x00,
  0x00, 0x00, 0x00, 0x00, 0x00, 0x00, 0x00, 0x00, 0x00, 0x00, 0x00, 0x00,
  0x00, 0x00, 0x00, 0x00, 0x00, 0x00, 0x00, 0x00, 0x00, 0x00, 0x00, 0x00,
  0x00, 0x00, 0x00, 0x00, 0x00, 0x00, 0x00, 0x00, 0x00, 0x00, 0x00, 0x00,
  0x00, 0x00, 0x00, 0x00, 0x00, 0x00, 0x00, 0x00, 0x00, 0x00, 0x00, 0x00,
  0x36, 0xdc, 0xff, 0xff, 0x04, 0x00, 0x00, 0x00, 0x04, 0x00, 0x00, 0x00,
  0x10, 0x00, 0x00, 0x00, 0x0c, 0x78, 0xff, 0xff, 0x4a, 0xdc, 0xff, 0xff,
  0x04, 0x00, 0x00, 0x00, 0x80, 0x01, 0x00, 0x00, 0x74, 0x9c, 0x1d, 0xbe,
  0x48, 0x79, 0x92, 0x3f, 0x9e, 0xa7, 0xf4, 0x3e, 0x8f, 0x4b, 0xe4, 0xbe,
  0x62, 0xb5, 0x3c, 0xbe, 0x7f, 0xac, 0x6b, 0x3f, 0x31, 0xf3, 0xe3, 0xbd,
  0x16, 0x07, 0x51, 0x3e, 0x4a, 0x9a, 0x19, 0xbf, 0xec, 0x36, 0x61, 0x3d,
  0x6f, 0x1a, 0x87, 0x3e, 0x7a, 0x56, 0x46, 0x3e, 0xec, 0x09, 0x25, 0xbf,
  0x21, 0x0e, 0x29, 0xbe, 0x1c, 0xc2, 0x41, 0x3e, 0x80, 0x87, 0xcd, 0x3d,
  0x45, 0x92, 0x13, 0x3e, 0x77, 0xa8, 0xef, 0x3e, 0xfe, 0xd6, 0x4a, 0xbf,
  0x0d, 0x2c, 0xec, 0x3e, 0xad, 0x1a, 0x19, 0x3d, 0x83, 0xe9, 0x28, 0x3f,
  0x36, 0x54, 0x97, 0xbe, 0x0e, 0x55, 0x6e, 0x3e, 0x06, 0x61, 0x63, 0xbf,
  0x40, 0xb7, 0xe3, 0xbc, 0xe7, 0x47, 0x2a, 0x3e, 0xc2, 0x7b, 0x02, 0x3f,
  0xfc, 0xe5, 0x36, 0xbd, 0x23, 0x81, 0xaf, 0xbf, 0xa1, 0x36, 0xb9, 0x3e,
  0xa7, 0xbf, 0x99, 0x3b, 0x86, 0x50, 0x08, 0xbe, 0xa9, 0xe9, 0x63, 0xbe,
  0x41, 0x17, 0xd9, 0x3e, 0x23, 0xb3, 0x14, 0x3f, 0x2c, 0x44, 0x70, 0xbe,
  0x08, 0x80, 0x5f, 0x3e, 0x4f, 0x6b, 0x89, 0x3c, 0xf0, 0x05, 0x0b, 0xbf,
  0x97, 0x1c, 0x63, 0x3e, 0x54, 0xbb, 0xce, 0x3e, 0x75, 0x4a, 0x8f, 0x3f,
  0xc9, 0x1b, 0xd2, 0x3e, 0xea, 0x28, 0x37, 0x3e, 0x70, 0xb6, 0xe3, 0xbe,
  0xb4, 0x26, 0x0b, 0x3f, 0x4d, 0x61, 0x80, 0xbf, 0x4b, 0x9f, 0xd7, 0x3d,
  0x4c, 0xa3, 0x18, 0x3f, 0x3a, 0xd3, 0x36, 0xbf, 0xac, 0x25, 0x92, 0x3e,
  0xd8, 0x54, 0x11, 0xbe, 0xd0, 0x04, 0x19, 0xbe, 0x05, 0x19, 0x9a, 0xbe,
  0x7d, 0xf6, 0x40, 0x3e, 0x88, 0x73, 0x74, 0x3e, 0x26, 0xd1, 0x05, 0x3f,
  0x99, 0xdf, 0x2c, 0xbf, 0xca, 0x15, 0x9a, 0x3f, 0x28, 0xfc, 0xbe, 0x3d,
  0x1c, 0xa9, 0xcc, 0x3e, 0xd3, 0xbf, 0xea, 0xbd, 0xf3, 0x09, 0x2d, 0xbf,
  0x0f, 0xd2, 0x0e, 0x3e, 0x4e, 0xe8, 0xd9, 0xbd, 0xe8, 0xe3, 0x9c, 0x3e,
  0xe8, 0x7a, 0x06, 0xbf, 0x6d, 0x95, 0x9b, 0x3e, 0x5e, 0xae, 0x0c, 0xbf,
  0x75, 0xf0, 0xbf, 0x3d, 0x2e, 0x09, 0xc7, 0xbd, 0xbb, 0x92, 0xad, 0xbf,
  0xce, 0xba, 0x47, 0x3d, 0x92, 0x28, 0xa8, 0xbc, 0xc8, 0xf5, 0x0a, 0xbe,
  0xec, 0x95, 0x6d, 0x3c, 0xa0, 0x8f, 0x5d, 0x3f, 0x4d, 0xb1, 0xb9, 0xbe,
  0xcd, 0x14, 0x17, 0x3f, 0xcb, 0xe3, 0xb1, 0xbe, 0xfa, 0x06, 0xe8, 0xbe,
  0x5a, 0x1e, 0x3c, 0x3e, 0xf8, 0x80, 0xc2, 0xbf, 0xdc, 0x37, 0x38, 0xbf,
  0xb2, 0x0d, 0x92, 0xbd, 0xd0, 0x04, 0x9c, 0x3e, 0x1f, 0x3a, 0xad, 0x3e,
  0x7f, 0x22, 0xae, 0x3d, 0xc5, 0xf5, 0x47, 0x3e, 0x8b, 0x35, 0xe0, 0x3d,
  0xd5, 0xba, 0xf9, 0xbe, 0x2d, 0x5d, 0xf6, 0xbe, 0xde, 0xda, 0xfe, 0xbe,
  0x62, 0x22, 0x48, 0xbf, 0x87, 0x63, 0x6d, 0x3e, 0xd6, 0xdd, 0xff, 0xff,
  0x04, 0x00, 0x00, 0x00, 0x08, 0x00, 0x00, 0x00, 0x00, 0x00, 0x00, 0x00,
  0x00, 0x00, 0x00, 0x00, 0xea, 0xdd, 0xff, 0xff, 0x04, 0x00, 0x00, 0x00,
  0x08, 0x00, 0x00, 0x00, 0x01, 0x00, 0x00, 0x00, 0x02, 0x00, 0x00, 0x00,
  0xfe, 0xdd, 0xff, 0xff, 0x04, 0x00, 0x00, 0x00, 0x08, 0x00, 0x00, 0x00,
  0x01, 0x00, 0x00, 0x00, 0x01, 0x00, 0x00, 0x00, 0x12, 0xde, 0xff, 0xff,
  0x04, 0x00, 0x00, 0x00, 0x40, 0x00, 0x00, 0x00, 0xe1, 0x7d, 0x80, 0xbf,
  0x6d, 0x2c, 0xe0, 0x3e, 0xbf, 0x24, 0x25, 0x40, 0x83, 0x57, 0x9b, 0x3f,
  0xd8, 0xf7, 0xc4, 0x3e, 0x82, 0xff, 0x71, 0xbf, 0x30, 0x25, 0x20, 0xbf,
  0x5d, 0x04, 0x06, 0xbf, 0x57, 0x07, 0x08, 0x3f, 0xa4, 0x1f, 0x8c, 0x3e,
  0x0e, 0x54, 0x18, 0x3f, 0xe0, 0x1d, 0xc6, 0x3f, 0xf6, 0x67, 0x22, 0x3f,
  0xc9, 0xcb, 0x81, 0x3f, 0x18, 0xf3, 0x85, 0xbc, 0x29, 0x2f, 0x0c, 0x3f,
  0x5e, 0xde, 0xff, 0xff, 0x04, 0x00, 0x00, 0x00, 0x40, 0x00, 0x00, 0x00,
  0x9f, 0xdc, 0xdd, 0x3f, 0x1a, 0xa5, 0x9d, 0x3f, 0x7c, 0xbb, 0x1d, 0x40,
  0x1b, 0xcd, 0x07, 0x40, 0x3b, 0xc8, 0xb0, 0x3f, 0xbb, 0x19, 0xc1, 0x3f,
  0x2b, 0x67, 0xcb, 0x3f, 0xd3, 0x9b, 0xa3, 0x3f, 0x3f, 0x66, 0xcc, 0x3f,
  0x8d, 0x8e, 0xd1, 0x3f, 0x7c, 0x61, 0xbc, 0x3f, 0x5c, 0x3e, 0x02, 0x40,
  0xe9, 0x48, 0xb6, 0x3f, 0x29, 0xd7, 0x8a, 0x3f, 0x62, 0x18, 0xa8, 0x3f,
  0xc1, 0xbd, 0xb9, 0x3f, 0xaa, 0xde, 0xff, 0xff, 0x04, 0x00, 0x00, 0x00,
  0x40, 0x00, 0x00, 0x00, 0x94, 0x44, 0xad, 0x3e, 0x85, 0x9b, 0x2d, 0x3f,
  0x93, 0x30, 0x09, 0x3f, 0x79, 0x06, 0xc7, 0x3f, 0x50, 0xb0, 0xb6, 0x3e,
  0x96, 0x9c, 0x06, 0x3f, 0x14, 0x18, 0x8c, 0xbf, 0x68, 0xe4, 0x09, 0x3f,
  0xb7, 0x1f, 0x3e, 0xbf, 0x40, 0x98, 0xfe, 0xbf, 0x4e, 0x36, 0xc7, 0x3f,
  0x50, 0x1a, 0x82, 0x3e, 0x3c, 0xdb, 0x4e, 0x3e, 0x19, 0x36, 0xea, 0x3c,
  0x80, 0x5c, 0x21, 0x3c, 0x4f, 0x51, 0xf2, 0xbf, 0xf6, 0xde, 0xff, 0xff,
  0x04, 0x00, 0x00, 0x00, 0x40, 0x00, 0x00, 0x00, 0x69, 0x5c, 0xb5, 0x3e,
  0x24, 0x95, 0x01, 0x3f, 0xe3, 0x9f, 0xf4, 0x3e, 0x54, 0x72, 0x93, 0x3e,
  0xce, 0x65, 0x03, 0x3f, 0x6c, 0x07, 0xb8, 0x3e, 0xec, 0x05, 0x17, 0x3f,
  0x14, 0xa5, 0x00, 0x3f, 0x64, 0xad, 0xc4, 0x3e, 0xc3, 0xc5, 0xff, 0x3e,
  0x56, 0xe7, 0x04, 0x3f, 0x98, 0x6c, 0xe3, 0x3e, 0xb8, 0x18, 0xec, 0x3e,
  0xd3, 0x52, 0x0b, 0x3f, 0x3d, 0xc5, 0x09, 0x3f, 0x15, 0x27, 0x95, 0x3e,
  0x42, 0xdf, 0xff, 0xff, 0x04, 0x00, 0x00, 0x00, 0x40, 0x00, 0x00, 0x00,
  0xec, 0x15, 0xc2, 0x3f, 0xe0, 0x6b, 0x12, 0x3e, 0x56, 0xa7, 0x82, 0x3f,
  0x93, 0x59, 0x14, 0x3e, 0xe8, 0x34, 0x34, 0x3f, 0xd0, 0x5a, 0x45, 0xbe,
  0xa1, 0xd2, 0x87, 0xbe, 0x43, 0xd7, 0x95, 0x3f, 0x90, 0x33, 0x6a, 0xbe,
  0xaa, 0x74, 0x12, 0x3f, 0x7f, 0xff, 0xb6, 0x3e, 0xc4, 0x87, 0x3d, 0x3f,
  0x20, 0x1a, 0x37, 0xbf, 0xec, 0xdf, 0xa6, 0xbe, 0x1e, 0x9f, 0xb8, 0x3e,
  0x64, 0xe6, 0x5c, 0xbe, 0x8e, 0xdf, 0xff, 0xff, 0x04, 0x00, 0x00, 0x00,
  0x40, 0x00, 0x00, 0x00, 0xa0, 0xf0, 0x6a, 0x3f, 0xb0, 0x80, 0xa8, 0x3f,
  0xc1, 0x0b, 0xcf, 0x3f, 0xbf, 0x51, 0x8c, 0x3f, 0xa6, 0xf3, 0x48, 0x3f,
  0xd2, 0x57, 0x52, 0x3f, 0x59, 0xfd, 0x8a, 0x3f, 0x06, 0x3d, 0x8c, 0x3f,
  0xe2, 0x81, 0x5c, 0x3f, 0x44, 0x71, 0x8c, 0x3f, 0x84, 0xfb, 0x90, 0x3f,
  0xb8, 0x09, 0x5d, 0x3f, 0xcf, 0xa8, 0x5c, 0x3f, 0x46, 0x4d, 0x4d, 0x3f,
  0x22, 0x98, 0x4b, 0x3f, 0x09, 0x1e, 0x90, 0x3f, 0xda, 0xdf, 0xff, 0xff,
  0x04, 0x00, 0x00, 0x00, 0x40, 0x00, 0x00, 0x00, 0xa2, 0xef, 0xc3, 0x3e,
  0x47, 0x99, 0xbb, 0xbe, 0xfa, 0xc1, 0xe4, 0x3e, 0xec, 0x93, 0x12, 0x3f,
  0x81, 0x7b, 0x4e, 0xbe, 0x72, 0x0f, 0xb6, 0x3e, 0x6a, 0xb8, 0xdb, 0x3e,
  0x44, 0x53, 0xef, 0x3e, 0x21, 0x78, 0x42, 0xbf, 0x40, 0x2c, 0xa7, 0x3e,
  0x86, 0x73, 0x16, 0xbe, 0x8b, 0xb2, 0x15, 0x3f, 0x2e, 0x25, 0x07, 0x3e,
  0x1f, 0xe0, 0xed, 0x3d, 0xab, 0xf2, 0xa7, 0x3f, 0x74, 0x7a, 0xe2, 0xbf,
  0x26, 0xe0, 0xff, 0xff, 0x04, 0x00, 0x00, 0x00, 0x40, 0x00, 0x00, 0x00,
  0x1a, 0x1c, 0x27, 0x3f, 0x90, 0xf1, 0x47, 0x3f, 0x62, 0xf0, 0x0c, 0x3f,
  0x9b, 0xfe, 0x2b, 0x3f, 0x9c, 0xcd, 0xad, 0x3e, 0x2f, 0xc9, 0x06, 0x3f,
  0xf4, 0xce, 0x44, 0x3f, 0x75, 0xdd, 0x55, 0x3f, 0x22, 0xbc, 0xf0, 0x3e,
  0x9b, 0x16, 0x1a, 0x3f, 0xa3, 0x67, 0x14, 0x3f, 0x31, 0xb3, 0x65, 0x3f,
  0xd3, 0x6c, 0x25, 0x3f, 0x77, 0x4b, 0x40, 0x3f, 0xf7, 0xca, 0xfd, 0x3e,
  0xa5, 0x41, 0x0a, 0x3f, 0x72, 0xe0, 0xff, 0xff, 0x04, 0x00, 0x00, 0x00,
  0x40, 0x00, 0x00, 0x00, 0xbc, 0xeb, 0x40, 0xbe, 0x64, 0x5b, 0x27, 0xbe,
  0xee, 0xb8, 0xc1, 0x3e, 0x4a, 0x80, 0x83, 0xbe, 0x26, 0xf8, 0x76, 0x3c,
  0xa2, 0x37, 0xaf, 0x3c, 0xd9, 0x69, 0x63, 0xbd, 0xb4, 0x61, 0xbb, 0xbc,
  0x12, 0x60, 0x8e, 0xbd, 0x2b, 0xf6, 0x33, 0xbe, 0x9d, 0xa6, 0xfc, 0x3d,
  0xab, 0x5c, 0xc9, 0x3c, 0x2c, 0x9f, 0x23, 0xbe, 0xee, 0xfa, 0x4f, 0x3e,
  0x5b, 0x6a, 0x47, 0x3e, 0xc8, 0x10, 0xee, 0x3b, 0xbe, 0xe0, 0xff, 0xff,
  0x04, 0x00, 0x00, 0x00, 0x40, 0x00, 0x00, 0x00, 0xe4, 0x13, 0x16, 0x3f,
  0x0a, 0xd8, 0x85, 0x3f, 0x7f, 0x98, 0xf8, 0x3e, 0x70, 0xa7, 0x72, 0x3f,
  0x65, 0x5c, 0x62, 0x3f, 0xe0, 0x53, 0x3e, 0x3f, 0xcf, 0x5c, 0x22, 0x3f,
  0x5b, 0x10, 0x0b, 0x3f, 0xdd, 0x58, 0xf1, 0x3e, 0x54, 0xe6, 0x67, 0x3f,
  0x68, 0xc6, 0x3a, 0x3f, 0xe8, 0x6b, 0x4e, 0x3f, 0xa5, 0xb5, 0x11, 0x3f,
  0x03, 0x69, 0x33, 0x3f, 0x7e, 0xdd, 0xb0, 0x3f, 0x54, 0x2e, 0x92, 0x3f,
  0x0a, 0xe1, 0xff, 0xff, 0x04, 0x00, 0x00, 0x00, 0x40, 0x00, 0x00, 0x00,
  0x41, 0x61, 0x9a, 0xbe, 0x22, 0x53, 0x9a, 0x3f, 0x48, 0xaf, 0x08, 0x40,
  0x80, 0x2f, 0x03, 0xbf, 0xae, 0xf6, 0xba, 0x3f, 0xa6, 0xf7, 0x07, 0xbf,
  0x4d, 0xbe, 0xbc, 0x3e, 0x9e, 0xe5, 0x31, 0x3f, 0x01, 0x18, 0x91, 0x3f,
  0x29, 0x06, 0x0d, 0xbe, 0x3d, 0x85, 0xdc, 0x3e, 0x80, 0x43, 0x10, 0x3e,
  0x00, 0x2d, 0xa1, 0x3b, 0xe8, 0x95, 0x56, 0xbe, 0x07, 0x00, 0x03, 0x3f,
  0x78, 0x6d, 0xc9, 0x3e, 0x56, 0xe1, 0xff, 0xff, 0x04, 0x00, 0x00, 0x00,
  0x40, 0x00, 0x00, 0x00, 0x1c, 0x13, 0x1b, 0x3f, 0x4e, 0xed, 0x60, 0x3f,
  0xea, 0xe1, 0x97, 0x3f, 0x3d, 0x8d, 0x63, 0x3f, 0xb9, 0x67, 0x26, 0x3f,
  0xaa, 0xbd, 0x66, 0x3f, 0xa2, 0x32, 0x8f, 0x3f, 0xa3, 0x0d, 0x23, 0x3f,
  0xf5, 0x1e, 0x0c, 0x3f, 0x13, 0x50, 0x3a, 0x3f, 0x1d, 0x12, 0x56, 0x3f,
  0x54, 0xca, 0x63, 0x3f, 0x26, 0xf9, 0x3b, 0x3f, 0x9b, 0x50, 0x6c, 0x3f,
  0xf1, 0xc3, 0xb4, 0x3f, 0xa6, 0x0f, 0x04, 0x3f, 0xa2, 0xe1, 0xff, 0xff,
  0x04, 0x00, 0x00, 0x00, 0x40, 0x00, 0x00, 0x00, 0x0d, 0x0d, 0x4d, 0x36,
  0x62, 0x86, 0x9d, 0x35, 0xfa, 0xf8, 0xcb, 0xb4, 0xaa, 0xfe, 0xea, 0xb5,
  0xa9, 0xf3, 0x3e, 0x34, 0x57, 0x41, 0x5c, 0x34, 0x5f, 0xf4, 0x80, 0xb4,
  0xe6, 0xb4, 0x3b, 0x35, 0xda, 0x18, 0xb9, 0x36, 0x4a, 0xaa, 0x54, 0x35,
  0xee, 0xca, 0xb9, 0xb5, 0x2c, 0x4e, 0xcc, 0xb5, 0x7f, 0x07, 0xd1, 0xb5,
  0xa8, 0xfe, 0xa5, 0xb5, 0x48, 0x6e, 0x8a, 0x35, 0xc1, 0x90, 0x8f, 0x35,
  0xee, 0xe1, 0xff, 0xff, 0x04, 0x00, 0x00, 0x00, 0x40, 0x00, 0x00, 0x00,
  0x54, 0x37, 0xec, 0x33, 0x83, 0xbf, 0x31, 0xb5, 0xdd, 0x92, 0x17, 0x35,
  0xe5, 0x53, 0x55, 0x35, 0x8f, 0xf6, 0x0d, 0x34, 0xbd, 0xca, 0x3e, 0x34,
  0x4b, 0xdf, 0xbb, 0x35, 0xfd, 0x2a, 0x1c, 0x35, 0x66, 0x9e, 0x4f, 0xb4,
  0x1c, 0x73, 0xce, 0xb5, 0x1f, 0x71, 0xae, 0x35, 0x10, 0x58, 0xf8, 0xb3,
  0x31, 0x9b, 0x1d, 0xb5, 0x2e, 0x52, 0xb1, 0xb5, 0x9f, 0xc6, 0x07, 0x35,
  0xcf, 0x38, 0x72, 0x35, 0x3a, 0xe2, 0xff, 0xff, 0x04, 0x00, 0x00, 0x00,
  0x40, 0x00, 0x00, 0x00, 0x55, 0xc5, 0x90, 0xb4, 0x60, 0xa8, 0x4c, 0xb5,
  0xd1, 0xfd, 0x98, 0x34, 0x94, 0x6e, 0x35, 0x34, 0x87, 0x16, 0x05, 0xb5,
  0x43, 0xe0, 0x45, 0xb5, 0x83, 0x98, 0x88, 0xb5, 0x89, 0x73, 0x4b, 0x36,
  0xae, 0x64, 0x81, 0x36, 0x62, 0x6c, 0xbb, 0xb4, 0x18, 0xb5, 0xc1, 0xb5,
  0xf9, 0x83, 0x48, 0xb4, 0xf7, 0xf0, 0xaf, 0x34, 0x6c, 0x10, 0x89, 0x33,
  0x62, 0x56, 0xbe, 0xb5, 0x03, 0x84, 0xaf, 0xb5, 0x86, 0xe2, 0xff, 0xff,
  0x04, 0x00, 0x00, 0x00, 0x40, 0x00, 0x00, 0x00, 0xcb, 0xe7, 0xb3, 0x35,
  0x26, 0xad, 0xba, 0xb5, 0x22, 0x17, 0x8d, 0xb4, 0xc3, 0xad, 0xeb, 0xb4,
  0xf6, 0x0b, 0x17, 0xb4, 0x3d, 0x6d, 0x2c, 0x36, 0xcf, 0x20, 0x85, 0xb4,
  0xea, 0x55, 0xa8, 0xb4, 0x8c, 0x26, 0x37, 0x35, 0x6e, 0xf8, 0xda, 0x33,
  0x1e, 0x67, 0xd6, 0xb3, 0xea, 0xdc, 0x81, 0xb5, 0xd2, 0xef, 0xab, 0x33,
  0x17, 0xba, 0xc4, 0xb3, 0x98, 0x7f, 0x48, 0x34, 0xcc, 0x54, 0x2f, 0xb4,
  0xd2, 0xe2, 0xff, 0xff, 0x04, 0x00, 0x00, 0x00, 0x40, 0x00, 0x00, 0x00,
  0xa8, 0x1e, 0x8e, 0xbb, 0x7c, 0x78, 0x69, 0x3d, 0x79, 0x6b, 0x8d, 0x3e,
  0x14, 0xe7, 0x3a, 0xbe, 0xfb, 0xe2, 0x15, 0x3d, 0xf8, 0x38, 0x01, 0xbe,
  0x04, 0x53, 0x2c, 0xbe, 0xa5, 0xa9, 0xd2, 0xbd, 0xb1, 0x93, 0x7f, 0xbd,
  0x9f, 0x6d, 0x07, 0x3e, 0x5c, 0x5f, 0x04, 0xbe, 0xb9, 0x45, 0xb8, 0xbd,
  0xd6, 0xd1, 0xc4, 0x3c, 0x05, 0x26, 0x4c, 0x3e, 0x19, 0x63, 0x64, 0xbd,
  0xc3, 0x19, 0x63, 0x3e, 0x1e, 0xe3, 0xff, 0xff, 0x04, 0x00, 0x00, 0x00,
  0x40, 0x00, 0x00, 0x00, 0xfa, 0x01, 0x95, 0x35, 0x9c, 0xed, 0x66, 0x35,
  0xfc, 0xa2, 0x4f, 0xb6, 0xac, 0x54, 0xaa, 0xb3, 0xf3, 0xb0, 0x2a, 0xb6,
  0x39, 0x49, 0x25, 0x36, 0xcb, 0x0a, 0x97, 0x35, 0x56, 0x3b, 0x09, 0xb2,
  0x63, 0xa7, 0xb8, 0xb4, 0x13, 0x05, 0xa1, 0x35, 0xa4, 0x34, 0x7f, 0xb4,
  0xd2, 0x0f, 0xd6, 0xb5, 0xf0, 0x34, 0x2d, 0xb5, 0x0e, 0x0b, 0xfc, 0xb5,
  0x78, 0x7d, 0x7c, 0x35, 0x60, 0x74, 0x7e, 0x33, 0x6a, 0xe3, 0xff, 0xff,
  0x04, 0x00, 0x00, 0x00, 0x40, 0x00, 0x00, 0x00, 0xc8, 0x07, 0xaf, 0xb4,
  0xcb, 0x7c, 0x6b, 0x36, 0x29, 0xcc, 0x26, 0x35, 0xa9, 0x22, 0x80, 0x35,
  0xd6, 0x91, 0x80, 0xb5, 0x24, 0x83, 0x2b, 0xb4, 0x58, 0xb9, 0xe9, 0x35,
  0x99, 0xa5, 0x26, 0xb5, 0x32, 0x45, 0xd6, 0x35, 0x16, 0xbb, 0xfa, 0x34,
  0xca, 0xc6, 0x3c, 0xb6, 0x6d, 0xc2, 0x7d, 0xb5, 0x5c, 0xd8, 0xf3, 0x35,
  0x4d, 0x82, 0x12, 0xb6, 0xfb, 0x13, 0x84, 0xb5, 0xa3, 0x1b, 0x89, 0xb3,
  0xb6, 0xe3, 0xff, 0xff, 0x04, 0x00, 0x00, 0x00, 0x04, 0x00, 0x00, 0x00,
  0x68, 0x23, 0x5c, 0xbe, 0xc6, 0xe3, 0xff, 0xff, 0x04, 0x00, 0x00, 0x00,
  0x04, 0x00, 0x00, 0x00, 0xa5, 0x1a, 0xea, 0xbd, 0xd6, 0xe3, 0xff, 0xff,
  0x04, 0x00, 0x00, 0x00, 0x04, 0x00, 0x00, 0x00, 0x08, 0x00, 0x00, 0x00,
  0xac, 0x7f, 0xff, 0xff, 0xea, 0xe3, 0xff, 0xff, 0x04, 0x00, 0x00, 0x00,
  0x04, 0x00, 0x00, 0x00, 0x04, 0x00, 0x00, 0x00, 0xfa, 0xe3, 0xff, 0xff,
  0x04, 0x00, 0x00, 0x00, 0x04, 0x00, 0x00, 0x00, 0xfd, 0xff, 0xff, 0xff,
  0xd0, 0x7f, 0xff, 0xff, 0x0e, 0xe4, 0xff, 0xff, 0x04, 0x00, 0x00, 0x00,
  0x04, 0x00, 0x00, 0x00, 0x01, 0x00, 0x00, 0x00, 0x1e, 0xe4, 0xff, 0xff,
  0x04, 0x00, 0x00, 0x00, 0x04, 0x00, 0x00, 0x00, 0x00, 0x00, 0x00, 0x00,
  0x2e, 0xe4, 0xff, 0xff, 0x04, 0x00, 0x00, 0x00, 0x04, 0x00, 0x00, 0x00,
  0x02, 0x00, 0x00, 0x00, 0x3e, 0xe4, 0xff, 0xff, 0x04, 0x00, 0x00, 0x00,
  0x08, 0x00, 0x00, 0x00, 0x00, 0x00, 0x00, 0x00, 0x01, 0x00, 0x00, 0x00,
  0x52, 0xe4, 0xff, 0xff, 0x04, 0x00, 0x00, 0x00, 0x40, 0x00, 0x00, 0x00,
  0x2b, 0xc0, 0x13, 0x3e, 0x21, 0xe2, 0x30, 0xbf, 0x81, 0xb5, 0xf7, 0xbe,
  0xbb, 0x98, 0x51, 0xbf, 0xce, 0x7c, 0xa7, 0xbe, 0x34, 0x6f, 0x9c, 0xbd,
  0x5f, 0x7e, 0x07, 0x3e, 0x8d, 0xd3, 0x00, 0xbf, 0x0a, 0x61, 0x89, 0xbe,
  0xe0, 0x99, 0xed, 0x3e, 0x57, 0xa5, 0xf4, 0x3e, 0x75, 0x35, 0x27, 0xbf,
  0x96, 0x2c, 0xd8, 0xbd, 0x55, 0xa5, 0xaf, 0xbe, 0xb0, 0x4b, 0xa7, 0x3e,
  0xb8, 0x92, 0x46, 0xbf, 0x9e, 0xe4, 0xff, 0xff, 0x04, 0x00, 0x00, 0x00,
  0x40, 0x00, 0x00, 0x00, 0x1d, 0x5b, 0x42, 0xbf, 0x78, 0xb5, 0xef, 0x3c,
  0x2b, 0xda, 0x0d, 0xbe, 0x7b, 0x97, 0xa3, 0x3c, 0x13, 0xe6, 0x20, 0xbf,
  0x56, 0x74, 0x04, 0xbe, 0x92, 0x11, 0xdb, 0x3d, 0x5e, 0x32, 0xf3, 0xbe,
  0xde, 0x2c, 0x55, 0xbf, 0xc2, 0x50, 0xc8, 0x3b, 0xd3, 0xb5, 0xb5, 0xbe,
  0x44, 0x3e, 0xc1, 0x3e, 0xd7, 0x32, 0xb9, 0x3e, 0xa4, 0xc2, 0x8a, 0x3e,
  0x72, 0x7f, 0x89, 0x3e, 0x35, 0xd6, 0x45, 0x3e, 0xb0, 0x80, 0xff, 0xff,
  0xb4, 0x80, 0xff, 0xff, 0x0f, 0x00, 0x00, 0x00, 0x4d, 0x4c, 0x49, 0x52,
  0x20, 0x43, 0x6f, 0x6e, 0x76, 0x65, 0x72, 0x74, 0x65, 0x64, 0x2e, 0x00,
  0x01, 0x00, 0x00, 0x00, 0x14, 0x00, 0x00, 0x00, 0x00, 0x00, 0x0e, 0x00,
  0x18, 0x00, 0x14, 0x00, 0x10, 0x00, 0x0c, 0x00, 0x08, 0x00, 0x04, 0x00,
  0x0e, 0x00, 0x00, 0x00, 0x14, 0x00, 0x00, 0x00, 0x1c, 0x00, 0x00, 0x00,
  0x90, 0x1b, 0x00, 0x00, 0x98, 0x1b, 0x00, 0x00, 0x9c, 0x1b, 0x00, 0x00,
  0x04, 0x00, 0x00, 0x00, 0x6d, 0x61, 0x69, 0x6e, 0x00, 0x00, 0x00, 0x00,
  0x83, 0x00, 0x00, 0x00, 0x48, 0x1b, 0x00, 0x00, 0xec, 0x1a, 0x00, 0x00,
  0x98, 0x1a, 0x00, 0x00, 0x64, 0x1a, 0x00, 0x00, 0x30, 0x1a, 0x00, 0x00,
  0xf0, 0x19, 0x00, 0x00, 0xc0, 0x19, 0x00, 0x00, 0x80, 0x19, 0x00, 0x00,
  0x44, 0x19, 0x00, 0x00, 0x10, 0x19, 0x00, 0x00, 0xdc, 0x18, 0x00, 0x00,
  0xa4, 0x18, 0x00, 0x00, 0x64, 0x18, 0x00, 0x00, 0x28, 0x18, 0x00, 0x00,
  0xf4, 0x17, 0x00, 0x00, 0xbc, 0x17, 0x00, 0x00, 0x88, 0x17, 0x00, 0x00,
  0x38, 0x17, 0x00, 0x00, 0x10, 0x17, 0x00, 0x00, 0xd0, 0x16, 0x00, 0x00,
  0xa8, 0x16, 0x00, 0x00, 0x74, 0x16, 0x00, 0x00, 0x4c, 0x16, 0x00, 0x00,
  0x18, 0x16, 0x00, 0x00, 0xd8, 0x15, 0x00, 0x00, 0xa0, 0x15, 0x00, 0x00,
  0x78, 0x15, 0x00, 0x00, 0x2c, 0x15, 0x00, 0x00, 0xec, 0x14, 0x00, 0x00,
  0xb4, 0x14, 0x00, 0x00, 0x8c, 0x14, 0x00, 0x00, 0x48, 0x14, 0x00, 0x00,
  0x1c, 0x14, 0x00, 0x00, 0xec, 0x13, 0x00, 0x00, 0x9c, 0x13, 0x00, 0x00,
  0x60, 0x13, 0x00, 0x00, 0x34, 0x13, 0x00, 0x00, 0x00, 0x13, 0x00, 0x00,
  0xcc, 0x12, 0x00, 0x00, 0x94, 0x12, 0x00, 0x00, 0x60, 0x12, 0x00, 0x00,
  0x20, 0x12, 0x00, 0x00, 0xf8, 0x11, 0x00, 0x00, 0xc4, 0x11, 0x00, 0x00,
  0x9c, 0x11, 0x00, 0x00, 0x68, 0x11, 0x00, 0x00, 0x40, 0x11, 0x00, 0x00,
  0x0c, 0x11, 0x00, 0x00, 0xcc, 0x10, 0x00, 0x00, 0x94, 0x10, 0x00, 0x00,
  0x6c, 0x10, 0x00, 0x00, 0x28, 0x10, 0x00, 0x00, 0xe8, 0x0f, 0x00, 0x00,
  0xb0, 0x0f, 0x00, 0x00, 0x88, 0x0f, 0x00, 0x00, 0x44, 0x0f, 0x00, 0x00,
  0x18, 0x0f, 0x00, 0x00, 0xe8, 0x0e, 0x00, 0x00, 0xa4, 0x0e, 0x00, 0x00,
  0x68, 0x0e, 0x00, 0x00, 0x3c, 0x0e, 0x00, 0x00, 0x08, 0x0e, 0x00, 0x00,
  0xd4, 0x0d, 0x00, 0x00, 0x9c, 0x0d, 0x00, 0x00, 0x68, 0x0d, 0x00, 0x00,
  0x30, 0x0d, 0x00, 0x00, 0xfc, 0x0c, 0x00, 0x00, 0xbc, 0x0c, 0x00, 0x00,
  0x94, 0x0c, 0x00, 0x00, 0x60, 0x0c, 0x00, 0x00, 0x38, 0x0c, 0x00, 0x00,
  0x04, 0x0c, 0x00, 0x00, 0xdc, 0x0b, 0x00, 0x00, 0xa8, 0x0b, 0x00, 0x00,
  0x68, 0x0b, 0x00, 0x00, 0x30, 0x0b, 0x00, 0x00, 0x08, 0x0b, 0x00, 0x00,
  0xc4, 0x0a, 0x00, 0x00, 0x84, 0x0a, 0x00, 0x00, 0x4c, 0x0a, 0x00, 0x00,
  0x24, 0x0a, 0x00, 0x00, 0xe0, 0x09, 0x00, 0x00, 0xb4, 0x09, 0x00, 0x00,
  0x84, 0x09, 0x00, 0x00, 0x40, 0x09, 0x00, 0x00, 0x04, 0x09, 0x00, 0x00,
  0xd8, 0x08, 0x00, 0x00, 0xa4, 0x08, 0x00, 0x00, 0x70, 0x08, 0x00, 0x00,
  0x38, 0x08, 0x00, 0x00, 0x04, 0x08, 0x00, 0x00, 0xc4, 0x07, 0x00, 0x00,
  0x9c, 0x07, 0x00, 0x00, 0x68, 0x07, 0x00, 0x00, 0x40, 0x07, 0x00, 0x00,
  0x0c, 0x07, 0x00, 0x00, 0xe4, 0x06, 0x00, 0x00, 0xb0, 0x06, 0x00, 0x00,
  0x70, 0x06, 0x00, 0x00, 0x38, 0x06, 0x00, 0x00, 0x10, 0x06, 0x00, 0x00,
  0xcc, 0x05, 0x00, 0x00, 0x8c, 0x05, 0x00, 0x00, 0x54, 0x05, 0x00, 0x00,
  0x2c, 0x05, 0x00, 0x00, 0xe8, 0x04, 0x00, 0x00, 0xbc, 0x04, 0x00, 0x00,
  0x8c, 0x04, 0x00, 0x00, 0x48, 0x04, 0x00, 0x00, 0x0c, 0x04, 0x00, 0x00,
  0xe0, 0x03, 0x00, 0x00, 0xac, 0x03, 0x00, 0x00, 0x78, 0x03, 0x00, 0x00,
  0x40, 0x03, 0x00, 0x00, 0x0c, 0x03, 0x00, 0x00, 0xd8, 0x02, 0x00, 0x00,
  0xa4, 0x02, 0x00, 0x00, 0x70, 0x02, 0x00, 0x00, 0x3c, 0x02, 0x00, 0x00,
  0x08, 0x02, 0x00, 0x00, 0xd4, 0x01, 0x00, 0x00, 0x9c, 0x01, 0x00, 0x00,
  0x74, 0x01, 0x00, 0x00, 0x3c, 0x01, 0x00, 0x00, 0x14, 0x01, 0x00, 0x00,
  0xe0, 0x00, 0x00, 0x00, 0xbc, 0x00, 0x00, 0x00, 0x84, 0x00, 0x00, 0x00,
  0x5c, 0x00, 0x00, 0x00, 0x28, 0x00, 0x00, 0x00, 0x04, 0x00, 0x00, 0x00,
  0xbe, 0xea, 0xff, 0xff, 0x0c, 0x00, 0x00, 0x00, 0x10, 0x00, 0x00, 0x00,
  0x11, 0x00, 0x00, 0x00, 0x01, 0x00, 0x00, 0x00, 0xb0, 0x00, 0x00, 0x00,
  0x01, 0x00, 0x00, 0x00, 0xaf, 0x00, 0x00, 0x00, 0x4a, 0xe7, 0xff, 0xff,
  0x14, 0x00, 0x00, 0x00, 0x00, 0x00, 0x00, 0x0b, 0x10, 0x00, 0x00, 0x00,
  0x14, 0x00, 0x00, 0x00, 0x03, 0x00, 0x00, 0x00, 0x50, 0x83, 0xff, 0xff,
  0x01, 0x00, 0x00, 0x00, 0xaf, 0x00, 0x00, 0x00, 0x02, 0x00, 0x00, 0x00,
  0xae, 0x00, 0x00, 0x00, 0x0d, 0x00, 0x00, 0x00, 0x0e, 0xeb, 0xff, 0xff,
  0x0c, 0x00, 0x00, 0x00, 0x10, 0x00, 0x00, 0x00, 0x07, 0x00, 0x00, 0x00,
  0x01, 0x00, 0x00, 0x00, 0xae, 0x00, 0x00, 0x00, 0x02, 0x00, 0x00, 0x00,
  0xad, 0x00, 0x00, 0x00, 0xa4, 0x00, 0x00, 0x00, 0x9e, 0xe7, 0xff, 0xff,
  0x14, 0x00, 0x00, 0x00, 0x00, 0x00, 0x00, 0x08, 0x10, 0x00, 0x00, 0x00,
  0x14, 0x00, 0x00, 0x00, 0x10, 0x00, 0x00, 0x00, 0xa4, 0x83, 0xff, 0xff,
  0x01, 0x00, 0x00, 0x00, 0xad, 0x00, 0x00, 0x00, 0x03, 0x00, 0x00, 0x00,
  0xa8, 0x00, 0x00, 0x00, 0x01, 0x00, 0x00, 0x00, 0xff, 0xff, 0xff, 0xff,
  0x66, 0xeb, 0xff, 0xff, 0x0c, 0x00, 0x00, 0x00, 0x10, 0x00, 0x00, 0x00,
  0x11, 0x00, 0x00, 0x00, 0x01, 0x00, 0x00, 0x00, 0xac, 0x00, 0x00, 0x00,
  0x01, 0x00, 0x00, 0x00, 0xab, 0x00, 0x00, 0x00, 0xf2, 0xe7, 0xff, 0xff,
  0x14, 0x00, 0x00, 0x00, 0x00, 0x00, 0x00, 0x0b, 0x10, 0x00, 0x00, 0x00,
  0x14, 0x00, 0x00, 0x00, 0x03, 0x00, 0x00, 0x00, 0xf8, 0x83, 0xff, 0xff,
  0x01, 0x00, 0x00, 0x00, 0xab, 0x00, 0x00, 0x00, 0x02, 0x00, 0x00, 0x00,
  0xaa, 0x00, 0x00, 0x00, 0x0c, 0x00, 0x00, 0x00, 0xb6, 0xeb, 0xff, 0xff,
  0x0c, 0x00, 0x00, 0x00, 0x10, 0x00, 0x00, 0x00, 0x07, 0x00, 0x00, 0x00,
  0x01, 0x00, 0x00, 0x00, 0xaa, 0x00, 0x00, 0x00, 0x02, 0x00, 0x00, 0x00,
  0xa9, 0x00, 0x00, 0x00, 0xa4, 0x00, 0x00, 0x00, 0x46, 0xe8, 0xff, 0xff,
  0x14, 0x00, 0x00, 0x00, 0x00, 0x00, 0x00, 0x08, 0x10, 0x00, 0x00, 0x00,
  0x14, 0x00, 0x00, 0x00, 0x10, 0x00, 0x00, 0x00, 0x4c, 0x84, 0xff, 0xff,
  0x01, 0x00, 0x00, 0x00, 0xa9, 0x00, 0x00, 0x00, 0x03, 0x00, 0x00, 0x00,
  0xa8, 0x00, 0x00, 0x00, 0x02, 0x00, 0x00, 0x00, 0xff, 0xff, 0xff, 0xff,
  0x0e, 0xec, 0xff, 0xff, 0x0c, 0x00, 0x00, 0x00, 0x10, 0x00, 0x00, 0x00,
  0x07, 0x00, 0x00, 0x00, 0x01, 0x00, 0x00, 0x00, 0xa8, 0x00, 0x00, 0x00,
  0x02, 0x00, 0x00, 0x00, 0xa0, 0x00, 0x00, 0x00, 0xa7, 0x00, 0x00, 0x00,
  0x9e, 0xe8, 0xff, 0xff, 0x14, 0x00, 0x00, 0x00, 0x00, 0x00, 0x00, 0x3b,
  0x14, 0x00, 0x00, 0x00, 0x18, 0x00, 0x00, 0x00, 0x0a, 0x00, 0x00, 0x00,
  0xde, 0xe8, 0xff, 0xff, 0x02, 0x00, 0x00, 0x00, 0x01, 0x00, 0x00, 0x00,
  0xa7, 0x00, 0x00, 0x00, 0x02, 0x00, 0x00, 0x00, 0xa3, 0x00, 0x00, 0x00,
  0xa6, 0x00, 0x00, 0x00, 0xd2, 0xe8, 0xff, 0xff, 0x14, 0x00, 0x00, 0x00,
  0x00, 0x00, 0x00, 0x1b, 0x10, 0x00, 0x00, 0x00, 0x14, 0x00, 0x00, 0x00,
  0x0e, 0x00, 0x00, 0x00, 0xd8, 0x84, 0xff, 0xff, 0x01, 0x00, 0x00, 0x00,
  0xa6, 0x00, 0x00, 0x00, 0x02, 0x00, 0x00, 0x00, 0xa5, 0x00, 0x00, 0x00,
  0x07, 0x00, 0x00, 0x00, 0x02, 0xe9, 0xff, 0xff, 0x14, 0x00, 0x00, 0x00,
  0x00, 0x00, 0x00, 0x17, 0x10, 0x00, 0x00, 0x00, 0x14, 0x00, 0x00, 0x00,
  0x0d, 0x00, 0x00, 0x00, 0x08, 0x85, 0xff, 0xff, 0x01, 0x00, 0x00, 0x00,
  0xa5, 0x00, 0x00, 0x00, 0x02, 0x00, 0x00, 0x00, 0xa1, 0x00, 0x00, 0x00,
  0x04, 0x00, 0x00, 0x00, 0x32, 0xe9, 0xff, 0xff, 0x14, 0x00, 0x00, 0x00,
  0x00, 0x00, 0x00, 0x0a, 0x10, 0x00, 0x00, 0x00, 0x14, 0x00, 0x00, 0x00,
  0x0f, 0x00, 0x00, 0x00, 0x38, 0x85, 0xff, 0xff, 0x01, 0x00, 0x00, 0x00,
  0xa4, 0x00, 0x00, 0x00, 0x02, 0x00, 0x00, 0x00, 0xa2, 0x00, 0x00, 0x00,
  0x06, 0x00, 0x00, 0x00, 0x62, 0xe9, 0xff, 0xff, 0x14, 0x00, 0x00, 0x00,
  0x00, 0x00, 0x00, 0x1b, 0x10, 0x00, 0x00, 0x00, 0x14, 0x00, 0x00, 0x00,
  0x0e, 0x00, 0x00, 0x00, 0x68, 0x85, 0xff, 0xff, 0x01, 0x00, 0x00, 0x00,
  0xa3, 0x00, 0x00, 0x00, 0x02, 0x00, 0x00, 0x00, 0xa2, 0x00, 0x00, 0x00,
  0x07, 0x00, 0x00, 0x00, 0x92, 0xe9, 0xff, 0xff, 0x14, 0x00, 0x00, 0x00,
  0x00, 0x00, 0x00, 0x17, 0x10, 0x00, 0x00, 0x00, 0x14, 0x00, 0x00, 0x00,
  0x0d, 0x00, 0x00, 0x00, 0x98, 0x85, 0xff, 0xff, 0x01, 0x00, 0x00, 0x00,
  0xa2, 0x00, 0x00, 0x00, 0x02, 0x00, 0x00, 0x00, 0xa1, 0x00, 0x00, 0x00,
  0x03, 0x00, 0x00, 0x00, 0xc2, 0xe9, 0xff, 0xff, 0x14, 0x00, 0x00, 0x00,
  0x00, 0x00, 0x00, 0x37, 0x14, 0x00, 0x00, 0x00, 0x18, 0x00, 0x00, 0x00,
  0x05, 0x00, 0x00, 0x00, 0x9e, 0xea, 0xff, 0xff, 0x00, 0x00, 0x00, 0x02,
  0x01, 0x00, 0x00, 0x00, 0xa1, 0x00, 0x00, 0x00, 0x01, 0x00, 0x00, 0x00,
  0xa0, 0x00, 0x00, 0x00, 0xf2, 0xe9, 0xff, 0xff, 0x14, 0x00, 0x00, 0x00,
  0x00, 0x00, 0x00, 0x0b, 0x10, 0x00, 0x00, 0x00, 0x14, 0x00, 0x00, 0x00,
  0x03, 0x00, 0x00, 0x00, 0xf8, 0x85, 0xff, 0xff, 0x01, 0x00, 0x00, 0x00,
  0xa0, 0x00, 0x00, 0x00, 0x02, 0x00, 0x00, 0x00, 0x6e, 0x00, 0x00, 0x00,
  0x9f, 0x00, 0x00, 0x00, 0x22, 0xea, 0xff, 0xff, 0x14, 0x00, 0x00, 0x00,
  0x00, 0x00, 0x00, 0x0b, 0x14, 0x00, 0x00, 0x00, 0x18, 0x00, 0x00, 0x00,
  0x03, 0x00, 0x00, 0x00, 0xfe, 0xea, 0xff, 0xff, 0x00, 0x00, 0x00, 0x01,
  0x01, 0x00, 0x00, 0x00, 0x9f, 0x00, 0x00, 0x00, 0x02, 0x00, 0x00, 0x00,
  0x9e, 0x00, 0x00, 0x00, 0x20, 0x00, 0x00, 0x00, 0x56, 0xea, 0xff, 0xff,
  0x14, 0x00, 0x00, 0x00, 0x00, 0x00, 0x00, 0x15, 0x10, 0x00, 0x00, 0x00,
  0x14, 0x00, 0x00, 0x00, 0x04, 0x00, 0x00, 0x00, 0x5c, 0x86, 0xff, 0xff,
  0x01, 0x00, 0x00, 0x00, 0x9e, 0x00, 0x00, 0x00, 0x02, 0x00, 0x00, 0x00,
  0x9d, 0x00, 0x00, 0x00, 0x1f, 0x00, 0x00, 0x00, 0x86, 0xea, 0xff, 0xff,
  0x14, 0x00, 0x00, 0x00, 0x00, 0x00, 0x00, 0x0b, 0x10, 0x00, 0x00, 0x00,
  0x14, 0x00, 0x00, 0x00, 0x03, 0x00, 0x00, 0x00, 0x8c, 0x86, 0xff, 0xff,
  0x01, 0x00, 0x00, 0x00, 0x9d, 0x00, 0x00, 0x00, 0x02, 0x00, 0x00, 0x00,
  0x9c, 0x00, 0x00, 0x00, 0x14, 0x00, 0x00, 0x00, 0x4a, 0xee, 0xff, 0xff,
  0x0c, 0x00, 0x00, 0x00, 0x10, 0x00, 0x00, 0x00, 0x0c, 0x00, 0x00, 0x00,
  0x01, 0x00, 0x00, 0x00, 0x9c, 0x00, 0x00, 0x00, 0x03, 0x00, 0x00, 0x00,
  0x9b, 0x00, 0x00, 0x00, 0x09, 0x00, 0x00, 0x00, 0x97, 0x00, 0x00, 0x00,
  0xde, 0xea, 0xff, 0xff, 0x14, 0x00, 0x00, 0x00, 0x00, 0x00, 0x00, 0x1e,
  0x1c, 0x00, 0x00, 0x00, 0x20, 0x00, 0x00, 0x00, 0x02, 0x00, 0x00, 0x00,
  0x1e, 0xeb, 0xff, 0xff, 0x04, 0x00, 0x00, 0x00, 0x01, 0x00, 0x00, 0x00,
  0xfd, 0xff, 0xff, 0xff, 0x01, 0x00, 0x00, 0x00, 0x9b, 0x00, 0x00, 0x00,
  0x01, 0x00, 0x00, 0x00, 0x9a, 0x00, 0x00, 0x00, 0x16, 0xeb, 0xff, 0xff,
  0x14, 0x00, 0x00, 0x00, 0x00, 0x00, 0x00, 0x01, 0x1c, 0x00, 0x00, 0x00,
  0x20, 0x00, 0x00, 0x00, 0x01, 0x00, 0x00, 0x00, 0xd2, 0xf1, 0xff, 0xff,
  0x01, 0x00, 0x00, 0x00, 0x01, 0x00, 0x00, 0x00, 0x00, 0x00, 0x00, 0x01,
  0x01, 0x00, 0x00, 0x00, 0x9a, 0x00, 0x00, 0x00, 0x03, 0x00, 0x00, 0x00,
  0x99, 0x00, 0x00, 0x00, 0x2d, 0x00, 0x00, 0x00, 0x27, 0x00, 0x00, 0x00,
  0xfe, 0xea, 0xff, 0xff, 0x10, 0x00, 0x00, 0x00, 0x00, 0x00, 0x00, 0x34,
  0x0c, 0x00, 0x00, 0x00, 0x10, 0x00, 0x00, 0x00, 0x58, 0x87, 0xff, 0xff,
  0x01, 0x00, 0x00, 0x00, 0x99, 0x00, 0x00, 0x00, 0x02, 0x00, 0x00, 0x00,
  0x98, 0x00, 0x00, 0x00, 0x08, 0x00, 0x00, 0x00, 0x16, 0xef, 0xff, 0xff,
  0x0c, 0x00, 0x00, 0x00, 0x10, 0x00, 0x00, 0x00, 0x0b, 0x00, 0x00, 0x00,
  0x01, 0x00, 0x00, 0x00, 0x98, 0x00, 0x00, 0x00, 0x03, 0x00, 0x00, 0x00,
  0x87, 0x00, 0x00, 0x00, 0x09, 0x00, 0x00, 0x00, 0x93, 0x00, 0x00, 0x00,
  0xaa, 0xeb, 0xff, 0xff, 0x14, 0x00, 0x00, 0x00, 0x00, 0x00, 0x00, 0x20,
  0x18, 0x00, 0x00, 0x00, 0x1c, 0x00, 0x00, 0x00, 0x06, 0x00, 0x00, 0x00,
  0xf4, 0xf0, 0xff, 0xff, 0x02, 0x00, 0x00, 0x00, 0x02, 0x00, 0x00, 0x00,
  0x01, 0x00, 0x00, 0x00, 0x97, 0x00, 0x00, 0x00, 0x04, 0x00, 0x00, 0x00,
  0x96, 0x00, 0x00, 0x00, 0x23, 0x00, 0x00, 0x00, 0x22, 0x00, 0x00, 0x00,
  0x21, 0x00, 0x00, 0x00, 0x7e, 0xef, 0xff, 0xff, 0x0c, 0x00, 0x00, 0x00,
  0x10, 0x00, 0x00, 0x00, 0x07, 0x00, 0x00, 0x00, 0x01, 0x00, 0x00, 0x00,
  0x96, 0x00, 0x00, 0x00, 0x02, 0x00, 0x00, 0x00, 0x95, 0x00, 0x00, 0x00,
  0x22, 0x00, 0x00, 0x00, 0x0e, 0xec, 0xff, 0xff, 0x14, 0x00, 0x00, 0x00,
  0x00, 0x00, 0x00, 0x3b, 0x14, 0x00, 0x00, 0x00, 0x18, 0x00, 0x00, 0x00,
  0x0a, 0x00, 0x00, 0x00, 0x4e, 0xec, 0xff, 0xff, 0x02, 0x00, 0x00, 0x00,
  0x01, 0x00, 0x00, 0x00, 0x95, 0x00, 0x00, 0x00, 0x02, 0x00, 0x00, 0x00,
  0x05, 0x00, 0x00, 0x00, 0x94, 0x00, 0x00, 0x00, 0x42, 0xec, 0xff, 0xff,
  0x14, 0x00, 0x00, 0x00, 0x00, 0x00, 0x00, 0x20, 0x14, 0x00, 0x00, 0x00,
  0x18, 0x00, 0x00, 0x00, 0x06, 0x00, 0x00, 0x00, 0xa6, 0xef, 0xff, 0xff,
  0x01, 0x00, 0x00, 0x00, 0x01, 0x00, 0x00, 0x00, 0x94, 0x00, 0x00, 0x00,
  0x04, 0x00, 0x00, 0x00, 0x8e, 0x00, 0x00, 0x00, 0x07, 0x00, 0x00, 0x00,
  0x06, 0x00, 0x00, 0x00, 0x06, 0x00, 0x00, 0x00, 0x7e, 0xec, 0xff, 0xff,
  0x14, 0x00, 0x00, 0x00, 0x00, 0x00, 0x00, 0x20, 0x18, 0x00, 0x00, 0x00,
  0x1c, 0x00, 0x00, 0x00, 0x06, 0x00, 0x00, 0x00, 0xc8, 0xf1, 0xff, 0xff,
  0x02, 0x00, 0x00, 0x00, 0x02, 0x00, 0x00, 0x00, 0x01, 0x00, 0x00, 0x00,
  0x93, 0x00, 0x00, 0x00, 0x04, 0x00, 0x00, 0x00, 0x92, 0x00, 0x00, 0x00,
  0x23, 0x00, 0x00, 0x00, 0x22, 0x00, 0x00, 0x00, 0x21, 0x00, 0x00, 0x00,
  0x52, 0xf0, 0xff, 0xff, 0x0c, 0x00, 0x00, 0x00, 0x10, 0x00, 0x00, 0x00,
  0x07, 0x00, 0x00, 0x00, 0x01, 0x00, 0x00, 0x00, 0x92, 0x00, 0x00, 0x00,
  0x02, 0x00, 0x00, 0x00, 0x91, 0x00, 0x00, 0x00, 0x22, 0x00, 0x00, 0x00,
  0xe2, 0xec, 0xff, 0xff, 0x14, 0x00, 0x00, 0x00, 0x00, 0x00, 0x00, 0x3b,
  0x14, 0x00, 0x00, 0x00, 0x18, 0x00, 0x00, 0x00, 0x0a, 0x00, 0x00, 0x00,
  0x22, 0xed, 0xff, 0xff, 0x02, 0x00, 0x00, 0x00, 0x01, 0x00, 0x00, 0x00,
  0x91, 0x00, 0x00, 0x00, 0x02, 0x00, 0x00, 0x00, 0x0b, 0x00, 0x00, 0x00,
  0x90, 0x00, 0x00, 0x00, 0x16, 0xed, 0xff, 0xff, 0x14, 0x00, 0x00, 0x00,
  0x00, 0x00, 0x00, 0x20, 0x14, 0x00, 0x00, 0x00, 0x18, 0x00, 0x00, 0x00,
  0x06, 0x00, 0x00, 0x00, 0x7a, 0xf0, 0xff, 0xff, 0x01, 0x00, 0x00, 0x00,
  0x01, 0x00, 0x00, 0x00, 0x90, 0x00, 0x00, 0x00, 0x04, 0x00, 0x00, 0x00,
  0x8f, 0x00, 0x00, 0x00, 0x07, 0x00, 0x00, 0x00, 0x06, 0x00, 0x00, 0x00,
  0x06, 0x00, 0x00, 0x00, 0x52, 0xed, 0xff, 0xff, 0x14, 0x00, 0x00, 0x00,
  0x00, 0x00, 0x00, 0x0b, 0x10, 0x00, 0x00, 0x00, 0x14, 0x00, 0x00, 0x00,
  0x03, 0x00, 0x00, 0x00, 0x58, 0x89, 0xff, 0xff, 0x01, 0x00, 0x00, 0x00,
  0x8f, 0x00, 0x00, 0x00, 0x02, 0x00, 0x00, 0x00, 0x8e, 0x00, 0x00, 0x00,
  0x25, 0x00, 0x00, 0x00, 0x16, 0xf1, 0xff, 0xff, 0x0c, 0x00, 0x00, 0x00,
  0x10, 0x00, 0x00, 0x00, 0x08, 0x00, 0x00, 0x00, 0x01, 0x00, 0x00, 0x00,
  0x8e, 0x00, 0x00, 0x00, 0x02, 0x00, 0x00, 0x00, 0x8d, 0x00, 0x00, 0x00,
  0x09, 0x00, 0x00, 0x00, 0xa6, 0xed, 0xff, 0xff, 0x14, 0x00, 0x00, 0x00,
  0x00, 0x00, 0x00, 0x1c, 0x10, 0x00, 0x00, 0x00, 0x14, 0x00, 0x00, 0x00,
  0x09, 0x00, 0x00, 0x00, 0xac, 0x89, 0xff, 0xff, 0x01, 0x00, 0x00, 0x00,
  0x8d, 0x00, 0x00, 0x00, 0x02, 0x00, 0x00, 0x00, 0x09, 0x00, 0x00, 0x00,
  0x8c, 0x00, 0x00, 0x00, 0x6a, 0xf1, 0xff, 0xff, 0x0c, 0x00, 0x00, 0x00,
  0x10, 0x00, 0x00, 0x00, 0x08, 0x00, 0x00, 0x00, 0x01, 0x00, 0x00, 0x00,
  0x8c, 0x00, 0x00, 0x00, 0x02, 0x00, 0x00, 0x00, 0x8b, 0x00, 0x00, 0x00,
  0x09, 0x00, 0x00, 0x00, 0xfa, 0xed, 0xff, 0xff, 0x14, 0x00, 0x00, 0x00,
  0x00, 0x00, 0x00, 0x0b, 0x10, 0x00, 0x00, 0x00, 0x14, 0x00, 0x00, 0x00,
  0x03, 0x00, 0x00, 0x00, 0x00, 0x8a, 0xff, 0xff, 0x01, 0x00, 0x00, 0x00,
  0x8b, 0x00, 0x00, 0x00, 0x02, 0x00, 0x00, 0x00, 0x8a, 0x00, 0x00, 0x00,
  0x26, 0x00, 0x00, 0x00, 0xbe, 0xf1, 0xff, 0xff, 0x0c, 0x00, 0x00, 0x00,
  0x10, 0x00, 0x00, 0x00, 0x07, 0x00, 0x00, 0x00, 0x01, 0x00, 0x00, 0x00,
  0x8a, 0x00, 0x00, 0x00, 0x02, 0x00, 0x00, 0x00, 0x89, 0x00, 0x00, 0x00,
  0x06, 0x00, 0x00, 0x00, 0x4e, 0xee, 0xff, 0xff, 0x14, 0x00, 0x00, 0x00,
  0x00, 0x00, 0x00, 0x20, 0x14, 0x00, 0x00, 0x00, 0x18, 0x00, 0x00, 0x00,
  0x06, 0x00, 0x00, 0x00, 0xb2, 0xf1, 0xff, 0xff, 0x01, 0x00, 0x00, 0x00,
  0x01, 0x00, 0x00, 0x00, 0x89, 0x00, 0x00, 0x00, 0x04, 0x00, 0x00, 0x00,
  0x88, 0x00, 0x00, 0x00, 0x06, 0x00, 0x00, 0x00, 0x04, 0x00, 0x00, 0x00,
  0x06, 0x00, 0x00, 0x00, 0x8a, 0xee, 0xff, 0xff, 0x14, 0x00, 0x00, 0x00,
  0x00, 0x00, 0x00, 0x37, 0x14, 0x00, 0x00, 0x00, 0x18, 0x00, 0x00, 0x00,
  0x05, 0x00, 0x00, 0x00, 0x66, 0xef, 0xff, 0xff, 0x00, 0x00, 0x00, 0x02,
  0x01, 0x00, 0x00, 0x00, 0x88, 0x00, 0x00, 0x00, 0x01, 0x00, 0x00, 0x00,
  0x87, 0x00, 0x00, 0x00, 0xba, 0xee, 0xff, 0xff, 0x14, 0x00, 0x00, 0x00,
  0x00, 0x00, 0x00, 0x0b, 0x14, 0x00, 0x00, 0x00, 0x18, 0x00, 0x00, 0x00,
  0x03, 0x00, 0x00, 0x00, 0x96, 0xef, 0xff, 0xff, 0x00, 0x00, 0x00, 0x01,
  0x01, 0x00, 0x00, 0x00, 0x87, 0x00, 0x00, 0x00, 0x02, 0x00, 0x00, 0x00,
  0x86, 0x00, 0x00, 0x00, 0x1e, 0x00, 0x00, 0x00, 0xee, 0xee, 0xff, 0xff,
  0x14, 0x00, 0x00, 0x00, 0x00, 0x00, 0x00, 0x15, 0x10, 0x00, 0x00, 0x00,
  0x14, 0x00, 0x00, 0x00, 0x04, 0x00, 0x00, 0x00, 0xf4, 0x8a, 0xff, 0xff,
  0x01, 0x00, 0x00, 0x00, 0x86, 0x00, 0x00, 0x00, 0x02, 0x00, 0x00, 0x00,
  0x85, 0x00, 0x00, 0x00, 0x1d, 0x00, 0x00, 0x00, 0x1e, 0xef, 0xff, 0xff,
  0x14, 0x00, 0x00, 0x00, 0x00, 0x00, 0x00, 0x0b, 0x10, 0x00, 0x00, 0x00,
  0x14, 0x00, 0x00, 0x00, 0x03, 0x00, 0x00, 0x00, 0x24, 0x8b, 0xff, 0xff,
  0x01, 0x00, 0x00, 0x00, 0x85, 0x00, 0x00, 0x00, 0x02, 0x00, 0x00, 0x00,
  0x84, 0x00, 0x00, 0x00, 0x13, 0x00, 0x00, 0x00, 0xe2, 0xf2, 0xff, 0xff,
  0x0c, 0x00, 0x00, 0x00, 0x10, 0x00, 0x00, 0x00, 0x0c, 0x00, 0x00, 0x00,
  0x01, 0x00, 0x00, 0x00, 0x84, 0x00, 0x00, 0x00, 0x03, 0x00, 0x00, 0x00,
  0x83, 0x00, 0x00, 0x00, 0x09, 0x00, 0x00, 0x00, 0x7f, 0x00, 0x00, 0x00,
  0x76, 0xef, 0xff, 0xff, 0x14, 0x00, 0x00, 0x00, 0x00, 0x00, 0x00, 0x1e,
  0x1c, 0x00, 0x00, 0x00, 0x20, 0x00, 0x00, 0x00, 0x02, 0x00, 0x00, 0x00,
  0xb6, 0xef, 0xff, 0xff, 0x04, 0x00, 0x00, 0x00, 0x01, 0x00, 0x00, 0x00,
  0xfd, 0xff, 0xff, 0xff, 0x01, 0x00, 0x00, 0x00, 0x83, 0x00, 0x00, 0x00,
  0x01, 0x00, 0x00, 0x00, 0x82, 0x00, 0x00, 0x00, 0xae, 0xef, 0xff, 0xff,
  0x14, 0x00, 0x00, 0x00, 0x00, 0x00, 0x00, 0x01, 0x1c, 0x00, 0x00, 0x00,
  0x20, 0x00, 0x00, 0x00, 0x01, 0x00, 0x00, 0x00, 0x6a, 0xf6, 0xff, 0xff,
  0x01, 0x00, 0x00, 0x00, 0x01, 0x00, 0x00, 0x00, 0x00, 0x00, 0x00, 0x01,
  0x01, 0x00, 0x00, 0x00, 0x82, 0x00, 0x00, 0x00, 0x03, 0x00, 0x00, 0x00,
  0x81, 0x00, 0x00, 0x00, 0x2c, 0x00, 0x00, 0x00, 0x27, 0x00, 0x00, 0x00,
  0x96, 0xef, 0xff, 0xff, 0x10, 0x00, 0x00, 0x00, 0x00, 0x00, 0x00, 0x34,
  0x0c, 0x00, 0x00, 0x00, 0x10, 0x00, 0x00, 0x00, 0xf0, 0x8b, 0xff, 0xff,
  0x01, 0x00, 0x00, 0x00, 0x81, 0x00, 0x00, 0x00, 0x02, 0x00, 0x00, 0x00,
  0x80, 0x00, 0x00, 0x00, 0x08, 0x00, 0x00, 0x00, 0xae, 0xf3, 0xff, 0xff,
  0x0c, 0x00, 0x00, 0x00, 0x10, 0x00, 0x00, 0x00, 0x0b, 0x00, 0x00, 0x00,
  0x01, 0x00, 0x00, 0x00, 0x80, 0x00, 0x00, 0x00, 0x03, 0x00, 0x00, 0x00,
  0x6f, 0x00, 0x00, 0x00, 0x09, 0x00, 0x00, 0x00, 0x7b, 0x00, 0x00, 0x00,
  0x42, 0xf0, 0xff, 0xff, 0x14, 0x00, 0x00, 0x00, 0x00, 0x00, 0x00, 0x20,
  0x18, 0x00, 0x00, 0x00, 0x1c, 0x00, 0x00, 0x00, 0x06, 0x00, 0x00, 0x00,
  0x8c, 0xf5, 0xff, 0xff, 0x02, 0x00, 0x00, 0x00, 0x02, 0x00, 0x00, 0x00,
  0x01, 0x00, 0x00, 0x00, 0x7f, 0x00, 0x00, 0x00, 0x04, 0x00, 0x00, 0x00,
  0x7e, 0x00, 0x00, 0x00, 0x23, 0x00, 0x00, 0x00, 0x22, 0x00, 0x00, 0x00,
  0x21, 0x00, 0x00, 0x00, 0x16, 0xf4, 0xff, 0xff, 0x0c, 0x00, 0x00, 0x00,
  0x10, 0x00, 0x00, 0x00, 0x07, 0x00, 0x00, 0x00, 0x01, 0x00, 0x00, 0x00,
  0x7e, 0x00, 0x00, 0x00, 0x02, 0x00, 0x00, 0x00, 0x7d, 0x00, 0x00, 0x00,
  0x22, 0x00, 0x00, 0x00, 0xa6, 0xf0, 0xff, 0xff, 0x14, 0x00, 0x00, 0x00,
  0x00, 0x00, 0x00, 0x3b, 0x14, 0x00, 0x00, 0x00, 0x18, 0x00, 0x00, 0x00,
  0x0a, 0x00, 0x00, 0x00, 0xe6, 0xf0, 0xff, 0xff, 0x02, 0x00, 0x00, 0x00,
  0x01, 0x00, 0x00, 0x00, 0x7d, 0x00, 0x00, 0x00, 0x02, 0x00, 0x00, 0x00,
  0x05, 0x00, 0x00, 0x00, 0x7c, 0x00, 0x00, 0x00, 0xda, 0xf0, 0xff, 0xff,
  0x14, 0x00, 0x00, 0x00, 0x00, 0x00, 0x00, 0x20, 0x14, 0x00, 0x00, 0x00,
  0x18, 0x00, 0x00, 0x00, 0x06, 0x00, 0x00, 0x00, 0x3e, 0xf4, 0xff, 0xff,
  0x01, 0x00, 0x00, 0x00, 0x01, 0x00, 0x00, 0x00, 0x7c, 0x00, 0x00, 0x00,
  0x04, 0x00, 0x00, 0x00, 0x76, 0x00, 0x00, 0x00, 0x07, 0x00, 0x00, 0x00,
  0x06, 0x00, 0x00, 0x00, 0x06, 0x00, 0x00, 0x00, 0x16, 0xf1, 0xff, 0xff,
  0x14, 0x00, 0x00, 0x00, 0x00, 0x00, 0x00, 0x20, 0x18, 0x00, 0x00, 0x00,
  0x1c, 0x00, 0x00, 0x00, 0x06, 0x00, 0x00, 0x00, 0x60, 0xf6, 0xff, 0xff,
  0x02, 0x00, 0x00, 0x00, 0x02, 0x00, 0x00, 0x00, 0x01, 0x00, 0x00, 0x00,
  0x7b, 0x00, 0x00, 0x00, 0x04, 0x00, 0x00, 0x00, 0x7a, 0x00, 0x00, 0x00,
  0x23, 0x00, 0x00, 0x00, 0x22, 0x00, 0x00, 0x00, 0x21, 0x00, 0x00, 0x00,
  0xea, 0xf4, 0xff, 0xff, 0x0c, 0x00, 0x00, 0x00, 0x10, 0x00, 0x00, 0x00,
  0x07, 0x00, 0x00, 0x00, 0x01, 0x00, 0x00, 0x00, 0x7a, 0x00, 0x00, 0x00,
  0x02, 0x00, 0x00, 0x00, 0x79, 0x00, 0x00, 0x00, 0x22, 0x00, 0x00, 0x00,
  0x7a, 0xf1, 0xff, 0xff, 0x14, 0x00, 0x00, 0x00, 0x00, 0x00, 0x00, 0x3b,
  0x14, 0x00, 0x00, 0x00, 0x18, 0x00, 0x00, 0x00, 0x0a, 0x00, 0x00, 0x00,
  0xba, 0xf1, 0xff, 0xff, 0x02, 0x00, 0x00, 0x00, 0x01, 0x00, 0x00, 0x00,
  0x79, 0x00, 0x00, 0x00, 0x02, 0x00, 0x00, 0x00, 0x0b, 0x00, 0x00, 0x00,
  0x78, 0x00, 0x00, 0x00, 0xae, 0xf1, 0xff, 0xff, 0x14, 0x00, 0x00, 0x00,
  0x00, 0x00, 0x00, 0x20, 0x14, 0x00, 0x00, 0x00, 0x18, 0x00, 0x00, 0x00,
  0x06, 0x00, 0x00, 0x00, 0x12, 0xf5, 0xff, 0xff, 0x01, 0x00, 0x00, 0x00,
  0x01, 0x00, 0x00, 0x00, 0x78, 0x00, 0x00, 0x00, 0x04, 0x00, 0x00, 0x00,
  0x77, 0x00, 0x00, 0x00, 0x07, 0x00, 0x00, 0x00, 0x06, 0x00, 0x00, 0x00,
  0x06, 0x00, 0x00, 0x00, 0xea, 0xf1, 0xff, 0xff, 0x14, 0x00, 0x00, 0x00,
  0x00, 0x00, 0x00, 0x0b, 0x10, 0x00, 0x00, 0x00, 0x14, 0x00, 0x00, 0x00,
  0x03, 0x00, 0x00, 0x00, 0xf0, 0x8d, 0xff, 0xff, 0x01, 0x00, 0x00, 0x00,
  0x77, 0x00, 0x00, 0x00, 0x02, 0x00, 0x00, 0x00, 0x76, 0x00, 0x00, 0x00,
  0x25, 0x00, 0x00, 0x00, 0xae, 0xf5, 0xff, 0xff, 0x0c, 0x00, 0x00, 0x00,
  0x10, 0x00, 0x00, 0x00, 0x08, 0x00, 0x00, 0x00, 0x01, 0x00, 0x00, 0x00,
  0x76, 0x00, 0x00, 0x00, 0x02, 0x00, 0x00, 0x00, 0x75, 0x00, 0x00, 0x00,
  0x09, 0x00, 0x00, 0x00, 0x3e, 0xf2, 0xff, 0xff, 0x14, 0x00, 0x00, 0x00,
  0x00, 0x00, 0x00, 0x1c, 0x10, 0x00, 0x00, 0x00, 0x14, 0x00, 0x00, 0x00,
  0x09, 0x00, 0x00, 0x00, 0x44, 0x8e, 0xff, 0xff, 0x01, 0x00, 0x00, 0x00,
  0x75, 0x00, 0x00, 0x00, 0x02, 0x00, 0x00, 0x00, 0x09, 0x00, 0x00, 0x00,
  0x74, 0x00, 0x00, 0x00, 0x02, 0xf6, 0xff, 0xff, 0x0c, 0x00, 0x00, 0x00,
  0x10, 0x00, 0x00, 0x00, 0x08, 0x00, 0x00, 0x00, 0x01, 0x00, 0x00, 0x00,
  0x74, 0x00, 0x00, 0x00, 0x02, 0x00, 0x00, 0x00, 0x73, 0x00, 0x00, 0x00,
  0x09, 0x00, 0x00, 0x00, 0x92, 0xf2, 0xff, 0xff, 0x14, 0x00, 0x00, 0x00,
  0x00, 0x00, 0x00, 0x0b, 0x10, 0x00, 0x00, 0x00, 0x14, 0x00, 0x00, 0x00,
  0x03, 0x00, 0x00, 0x00, 0x98, 0x8e, 0xff, 0xff, 0x01, 0x00, 0x00, 0x00,
  0x73, 0x00, 0x00, 0x00, 0x02, 0x00, 0x00, 0x00, 0x72, 0x00, 0x00, 0x00,
  0x26, 0x00, 0x00, 0x00, 0x56, 0xf6, 0xff, 0xff, 0x0c, 0x00, 0x00, 0x00,
  0x10, 0x00, 0x00, 0x00, 0x07, 0x00, 0x00, 0x00, 0x01, 0x00, 0x00, 0x00,
  0x72, 0x00, 0x00, 0x00, 0x02, 0x00, 0x00, 0x00, 0x71, 0x00, 0x00, 0x00,
  0x06, 0x00, 0x00, 0x00, 0xe6, 0xf2, 0xff, 0xff, 0x14, 0x00, 0x00, 0x00,
  0x00, 0x00, 0x00, 0x20, 0x14, 0x00, 0x00, 0x00, 0x18, 0x00, 0x00, 0x00,
  0x06, 0x00, 0x00, 0x00, 0x4a, 0xf6, 0xff, 0xff, 0x01, 0x00, 0x00, 0x00,
  0x01, 0x00, 0x00, 0x00, 0x71, 0x00, 0x00, 0x00, 0x04, 0x00, 0x00, 0x00,
